alignas(16) const unsigned char model[] = {
  0x1c, 0x00, 0x00, 0x00, 0x54, 0x46, 0x4c, 0x33, 0x14, 0x00, 0x20, 0x00, 0x1c, 0x00, 0x18, 0x00, 0x14, 0x00, 0x10, 0x00, 0x0c, 0x00, 0x00, 0x00, 0x08, 0x00, 0x04, 0x00, 0x14, 0x00, 0x00, 0x00, 0x1c, 0x00, 0x00, 0x00, 0x98, 0x00, 0x00, 0x00, 0xf0, 0x00, 0x00, 0x00, 0xf0, 0x29, 0x00, 0x00, 0x00, 0x2a, 0x00, 0x00, 0x88, 0x31, 0x00, 0x00, 0x03, 0x00, 0x00, 0x00, 0x01, 0x00, 0x00, 0x00, 0x10, 0x00, 0x00, 0x00, 0x00, 0x00, 0x0a, 0x00, 0x10, 0x00, 0x0c, 0x00, 0x08, 0x00, 0x04, 0x00, 0x0a, 0x00, 0x00, 0x00, 0x0c, 0x00, 0x00, 0x00, 0x1c, 0x00, 0x00, 0x00, 0x3c, 0x00, 0x00, 0x00, 0x0f, 0x00, 0x00, 0x00, 0x73, 0x65, 0x72, 0x76, 0x69, 0x6e, 0x67, 0x5f, 0x64, 0x65, 0x66, 0x61, 0x75, 0x6c, 0x74, 0x00, 0x01, 0x00, 0x00, 0x00, 0x04, 0x00, 0x00, 0x00, 0x90, 0xff, 0xff, 0xff, 0x0e, 0x00, 0x00, 0x00, 0x04, 0x00, 0x00, 0x00, 0x08, 0x00, 0x00, 0x00, 0x6f, 0x75, 0x74, 0x70, 0x75, 0x74, 0x5f, 0x30, 0x00, 0x00, 0x00, 0x00, 0x01, 0x00, 0x00, 0x00, 0x04, 0x00, 0x00, 0x00, 0xfe, 0xd5, 0xff, 0xff, 0x04, 0x00, 0x00, 0x00, 0x0c, 0x00, 0x00, 0x00, 0x6b, 0x65, 0x72, 0x61, 0x73, 0x5f, 0x74, 0x65, 0x6e, 0x73, 0x6f, 0x72, 0x00, 0x00, 0x00, 0x00, 0x02, 0x00, 0x00, 0x00, 0x34, 0x00, 0x00, 0x00, 0x04, 0x00, 0x00, 0x00, 0xdc, 0xff, 0xff, 0xff, 0x11, 0x00, 0x00, 0x00, 0x04, 0x00, 0x00, 0x00, 0x13, 0x00, 0x00, 0x00, 0x43, 0x4f, 0x4e, 0x56, 0x45, 0x52, 0x53, 0x49, 0x4f, 0x4e, 0x5f, 0x4d, 0x45, 0x54, 0x41, 0x44, 0x41, 0x54, 0x41, 0x00, 0x08, 0x00, 0x0c, 0x00, 0x08, 0x00, 0x04, 0x00, 0x08, 0x00, 0x00, 0x00, 0x10, 0x00, 0x00, 0x00, 0x04, 0x00, 0x00, 0x00, 0x13, 0x00, 0x00, 0x00, 0x6d, 0x69, 0x6e, 0x5f, 0x72, 0x75, 0x6e, 0x74, 0x69, 0x6d, 0x65, 0x5f, 0x76, 0x65, 0x72, 0x73, 0x69, 0x6f, 0x6e, 0x00, 0x12, 0x00, 0x00, 0x00, 0xfc, 0x28, 0x00, 0x00, 0xf4, 0x28, 0x00, 0x00, 0xe4, 0x27, 0x00, 0x00, 0xd4, 0x07, 0x00, 0x00, 0xc4, 0x02, 0x00, 0x00, 0xa0, 0x02, 0x00, 0x00, 0x7c, 0x02, 0x00, 0x00, 0xec, 0x01, 0x00, 0x00, 0xdc, 0x00, 0x00, 0x00, 0xc4, 0x00, 0x00, 0x00, 0xbc, 0x00, 0x00, 0x00, 0xb4, 0x00, 0x00, 0x00, 0xac, 0x00, 0x00, 0x00, 0xa4, 0x00, 0x00, 0x00, 0x9c, 0x00, 0x00, 0x00, 0x94, 0x00, 0x00, 0x00, 0x74, 0x00, 0x00, 0x00, 0x04, 0x00, 0x00, 0x00, 0xc2, 0xd6, 0xff, 0xff, 0x04, 0x00, 0x00, 0x00, 0x60, 0x00, 0x00, 0x00, 0x10, 0x00, 0x00, 0x00, 0x00, 0x00, 0x00, 0x00, 0x08, 0x00, 0x0e, 0x00, 0x08, 0x00, 0x04, 0x00, 0x08, 0x00, 0x00, 0x00, 0x10, 0x00, 0x00, 0x00, 0x24, 0x00, 0x00, 0x00, 0x00, 0x00, 0x06, 0x00, 0x08, 0x00, 0x04, 0x00, 0x06, 0x00, 0x00, 0x00, 0x04, 0x00, 0x00, 0x00, 0x00, 0x00, 0x00, 0x00, 0x0c, 0x00, 0x18, 0x00, 0x14, 0x00, 0x10, 0x00, 0x0c, 0x00, 0x04, 0x00, 0x0c, 0x00, 0x00, 0x00, 0x3a, 0x31, 0x4b, 0x02, 0x69, 0x56, 0x8b, 0x1d, 0x02, 0x00, 0x00, 0x00, 0x02, 0x00, 0x00, 0x00, 0x04, 0x00, 0x00, 0x00, 0x06, 0x00, 0x00, 0x00, 0x32, 0x2e, 0x31, 0x38, 0x2e, 0x30, 0x00, 0x00, 0x2e, 0xd7, 0xff, 0xff, 0x04, 0x00, 0x00, 0x00, 0x10, 0x00, 0x00, 0x00, 0x31, 0x2e, 0x36, 0x2e, 0x30, 0x00, 0x00, 0x00, 0x00, 0x00, 0x00, 0x00, 0x00, 0x00, 0x00, 0x00, 0x68, 0xd0, 0xff, 0xff, 0x6c, 0xd0, 0xff, 0xff, 0x70, 0xd0, 0xff, 0xff, 0x74, 0xd0, 0xff, 0xff, 0x78, 0xd0, 0xff, 0xff, 0x7c, 0xd0, 0xff, 0xff, 0x62, 0xd7, 0xff, 0xff, 0x04, 0x00, 0x00, 0x00, 0x08, 0x00, 0x00, 0x00, 0x70, 0x0f, 0xf2, 0xba, 0x72, 0x0f, 0xf2, 0x3a, 0x76, 0xd7, 0xff, 0xff, 0x04, 0x00, 0x00, 0x00, 0x00, 0x01, 0x00, 0x00, 0x44, 0x31, 0x44, 0x3b, 0x98, 0x33, 0x44, 0x3b, 0x8e, 0x8d, 0xfa, 0x39, 0x16, 0x5a, 0x43, 0x3b, 0x1c, 0x99, 0x43, 0x3b, 0x74, 0x15, 0x3f, 0xbb, 0xda, 0xc1, 0x3f, 0x3b, 0x1f, 0x27, 0x44, 0xbb, 0x64, 0xae, 0x40, 0x3b, 0x72, 0x5c, 0x43, 0xbb, 0x00, 0xa3, 0x80, 0x37, 0xa6, 0xf4, 0x3f, 0x3b, 0x61, 0xeb, 0x43, 0x3b, 0xb2, 0x14, 0x3f, 0xbb, 0xa1, 0xfd, 0x3e, 0xbb, 0x8c, 0x91, 0x3d, 0xbb, 0xc0, 0x46, 0x40, 0x3b, 0xbe, 0x46, 0x3f, 0xbb, 0x24, 0x29, 0x44, 0x3b, 0xbd, 0x30, 0x44, 0x3b, 0x6c, 0xc3, 0x41, 0x3b, 0x91, 0xd5, 0x3f, 0x3b, 0xef, 0x36, 0x44, 0xbb, 0x26, 0x40, 0x27, 0xbb, 0x87, 0x5f, 0x3f, 0xbb, 0x2e, 0xbe, 0x3e, 0xbb, 0xe8, 0xfb, 0x3e, 0xbb, 0xaf, 0xf8, 0x3e, 0xbb, 0x72, 0x04, 0x44, 0xbb, 0xee, 0x11, 0x44, 0x3b, 0x76, 0x6a, 0x40, 0x3b, 0x8f, 0x33, 0x3f, 0xbb, 0x6b, 0x3a, 0x44, 0xbb, 0xac, 0x18, 0x40, 0x3b, 0xd6, 0xe6, 0x41, 0x3b, 0xe2, 0xd7, 0x3f, 0x3b, 0x5c, 0xa9, 0x41, 0x3b, 0x94, 0x33, 0x44, 0xbb, 0xac, 0xa1, 0x43, 0x3b, 0x83, 0x17, 0x44, 0x3b, 0xb2, 0x5f, 0x41, 0x3b, 0xa8, 0x33, 0x44, 0x3b, 0x3d, 0x8d, 0x38, 0xbb, 0x73, 0x17, 0x3f, 0xbb, 0x7d, 0xd9, 0x3f, 0x3b, 0xc4, 0x74, 0x40, 0x3b, 0xb7, 0x2c, 0x44, 0x3b, 0xa5, 0x09, 0x44, 0x3b, 0xfa, 0xe1, 0x3f, 0x3b, 0xf4, 0x26, 0x44, 0xbb, 0x1e, 0xc7, 0x3e, 0x3b, 0xaf, 0x35, 0x44, 0x3b, 0x79, 0x38, 0x44, 0xbb, 0x33, 0xf1, 0x3e, 0xbb, 0x82, 0xe5, 0x3e, 0xbb, 0xf0, 0xf1, 0x3e, 0xbb, 0x25, 0x64, 0x42, 0x3b, 0xfe, 0xf1, 0x43, 0x3b, 0xf8, 0x06, 0x40, 0x3b, 0x30, 0xed, 0x3f, 0x3b, 0xe6, 0xd5, 0x43, 0xbb, 0xbe, 0x2e, 0x44, 0x3b, 0x56, 0x38, 0x44, 0xbb, 0xde, 0x33, 0x44, 0x3b, 0x82, 0xd8, 0xff, 0xff, 0x04, 0x00, 0x00, 0x00, 0x80, 0x00, 0x00, 0x00, 0x6d, 0x2b, 0x44, 0x3b, 0x89, 0xeb, 0xf1, 0xba, 0xd8, 0x39, 0x44, 0x3b, 0xea, 0x3a, 0x44, 0xbb, 0x5a, 0x39, 0x44, 0x3b, 0xf4, 0x37, 0xf2, 0xba, 0x98, 0x8e, 0x3f, 0xbb, 0x9c, 0x38, 0x44, 0xbb, 0x00, 0x00, 0x00, 0x00, 0xc8, 0x2e, 0x3f, 0xbb, 0x00, 0x00, 0x00, 0x00, 0xa2, 0x37, 0x44, 0x3b, 0xde, 0xce, 0xf1, 0x3a, 0x37, 0x37, 0x44, 0x3b, 0xbb, 0xb9, 0x3f, 0x3b, 0xb4, 0x39, 0x44, 0x3b, 0xa2, 0x35, 0x44, 0x3b, 0x00, 0x00, 0x00, 0x00, 0x06, 0xf5, 0x3f, 0x3b, 0x89, 0x4a, 0x3f, 0xbb, 0x00, 0x00, 0x00, 0x00, 0x00, 0x00, 0x00, 0x00, 0x00, 0x00, 0x00, 0x00, 0xb7, 0x0f, 0x44, 0x3b, 0x20, 0x1f, 0x3c, 0xbb, 0x0b, 0x40, 0x3f, 0xbb, 0x00, 0x00, 0x00, 0x00, 0xf2, 0xd7, 0xf1, 0x3a, 0x00, 0x00, 0x00, 0x00, 0x26, 0x30, 0xf2, 0x3a, 0x00, 0x00, 0x00, 0x00, 0x21, 0x78, 0x3f, 0xbb, 0x0e, 0xd9, 0xff, 0xff, 0x04, 0x00, 0x00, 0x00, 0x14, 0x00, 0x00, 0x00, 0x94, 0xaa, 0xbf, 0x45, 0x00, 0x00, 0x00, 0x00, 0x00, 0x00, 0x00, 0x00, 0x00, 0x00, 0x00, 0x00, 0x00, 0x00, 0x00, 0x00, 0x2e, 0xd9, 0xff, 0xff, 0x04, 0x00, 0x00, 0x00, 0x14, 0x00, 0x00, 0x00, 0xf5, 0x7b, 0x47, 0x3a, 0x80, 0x96, 0x18, 0x4b, 0x80, 0x96, 0x18, 0x4b, 0x80, 0x96, 0x18, 0x4b, 0x80, 0x96, 0x18, 0x4b, 0x4e, 0xd9, 0xff, 0xff, 0x04, 0x00, 0x00, 0x00, 0x00, 0x05, 0x00, 0x00, 0x15, 0x13, 0x99, 0xbc, 0x20, 0x28, 0x90, 0x3e, 0x5c, 0x4a, 0xfb, 0x3d, 0x44, 0xea, 0xba, 0x3d, 0x00, 0x8a, 0x2b, 0x3e, 0x3a, 0x5b, 0x0f, 0xbe, 0x9e, 0x97, 0xfd, 0xbd, 0x23, 0x8a, 0x7e, 0xbe, 0x25, 0x7a, 0x80, 0xbe, 0x94, 0xe9, 0x73, 0x3e, 0xfc, 0x5b, 0x8c, 0xbe, 0x06, 0xae, 0x2d, 0x3e, 0xa0, 0x52, 0xf4, 0x3c, 0x50, 0x7c, 0x1b, 0x3e, 0xa8, 0x7d, 0x03, 0xbd, 0x8e, 0x7b, 0x6a, 0xbd, 0xf1, 0x05, 0x1a, 0xbe, 0x94, 0xff, 0x60, 0x3e, 0x7a, 0xbf, 0x24, 0x3e, 0xf4, 0x21, 0x52, 0x3e, 0x2f, 0x7f, 0xbd, 0xbd, 0xcd, 0x06, 0x09, 0xbe, 0x90, 0x3a, 0x0b, 0x3e, 0xf8, 0x01, 0xfb, 0x3d, 0xd1, 0xdf, 0x59, 0xbe, 0x9c, 0xec, 0x32, 0x3d, 0x74, 0x97, 0x98, 0xbd, 0xd0, 0x3b, 0x49, 0x3e, 0x4a, 0x76, 0x29, 0xbe, 0xfc, 0x39, 0x3c, 0xbe, 0xfe, 0xb1, 0x9a, 0x3d, 0x9f, 0x34, 0x6b, 0xbe, 0x8e, 0x34, 0x6e, 0xbe, 0x08, 0xc0, 0x86, 0x3d, 0x3e, 0x58, 0x54, 0xbe, 0x33, 0xc4, 0xef, 0xbd, 0x68, 0x8a, 0xbd, 0xbd, 0x92, 0x51, 0x34, 0xbe, 0x34, 0xf2, 0xc7, 0xbd, 0x20, 0x90, 0xdb, 0x3c, 0x9f, 0x9b, 0x77, 0x3d, 0xea, 0x1e, 0x91, 0xbe, 0x90, 0x73, 0x58, 0x3d, 0x9b, 0x3b, 0x7e, 0xbe, 0xc8, 0xda, 0x65, 0x3e, 0x15, 0x29, 0x72, 0xbe, 0x80, 0xae, 0xec, 0xbd, 0x5f, 0x79, 0x8b, 0xbe, 0x00, 0xed, 0x70, 0x3e, 0xc0, 0x6e, 0xfd, 0x3c, 0x0a, 0xfa, 0x82, 0x3d, 0xa6, 0x3d, 0x33, 0xbe, 0xb8, 0x29, 0x0b, 0xbe, 0x08, 0x53, 0xc1, 0x3d, 0x8c, 0x89, 0x9c, 0xbd, 0x36, 0x10, 0x1a, 0x3d, 0xc0, 0x3f, 0x05, 0x3e, 0x98, 0xa3, 0x0b, 0x3d, 0x58, 0xaf, 0x3d, 0xbd, 0x98, 0x25, 0x90, 0x3e, 0x54, 0x79, 0x80, 0xbe, 0x1f, 0xa7, 0x4c, 0xbe, 0x28, 0xb1, 0x1a, 0xbe, 0x64, 0xcd, 0x29, 0xbe, 0xc4, 0xac, 0x5d, 0x3e, 0x0f, 0x11, 0x35, 0x3e, 0x20, 0x1e, 0x29, 0xbd, 0x5e, 0x9d, 0x87, 0x3e, 0xde, 0x36, 0xfa, 0xbd, 0xbc, 0xb5, 0xba, 0x3d, 0x71, 0xde, 0x84, 0x3e, 0x82, 0x48, 0x53, 0xbe, 0x8a, 0x56, 0x15, 0xbe, 0xde, 0xef, 0xd4, 0xbd, 0x01, 0xf3, 0x70, 0xbe, 0xd2, 0x75, 0xae, 0x3d, 0xc0, 0x44, 0x99, 0xbb, 0x00, 0xcf, 0xbc, 0x3c, 0x98, 0x1b, 0x3b, 0x3e, 0x10, 0x78, 0xe2, 0xbc, 0x9f, 0x1c, 0xa4, 0x3d, 0xcc, 0x1d, 0x56, 0x3e, 0xb0, 0x77, 0x96, 0xbd, 0x6c, 0x19, 0x93, 0x3e, 0x3e, 0xd8, 0x25, 0x3e, 0x72, 0x31, 0x5d, 0x3e, 0xa0, 0x32, 0xd1, 0xbc, 0x50, 0xf7, 0x0f, 0x3e, 0x02, 0xb8, 0x1b, 0x3e, 0xd2, 0x86, 0x54, 0xbe, 0x95, 0xdb, 0x91, 0xbd, 0xca, 0xc3, 0x08, 0xbe, 0xe8, 0x86, 0x33, 0x3d, 0x21, 0x73, 0x88, 0xbe, 0x04, 0xb6, 0xcf, 0x3d, 0x43, 0xa9, 0x82, 0xbe, 0x30, 0xb1, 0xfa, 0xbc, 0xd6, 0xa8, 0x50, 0xbe, 0xbc, 0x61, 0x0e, 0x3e, 0x88, 0xc3, 0x7b, 0x3d, 0x6b, 0x7b, 0x58, 0x3e, 0x5e, 0xb6, 0x50, 0xbe, 0xe8, 0xbb, 0x63, 0x3e, 0xa7, 0x51, 0x11, 0xbe, 0x94, 0x29, 0xc6, 0xbd, 0xeb, 0x44, 0xcc, 0x3c, 0xcc, 0xb7, 0x55, 0xbd, 0x0a, 0x36, 0x88, 0x3e, 0x4e, 0xcc, 0x58, 0xbe, 0x6e, 0x21, 0x30, 0x3e, 0x4a, 0x79, 0x96, 0xbd, 0xe8, 0x45, 0x07, 0xbd, 0xb3, 0x45, 0x68, 0xbe, 0xac, 0x97, 0xd1, 0xbd, 0x40, 0x40, 0xef, 0x3c, 0x48, 0x41, 0x59, 0xbe, 0x9e, 0x5a, 0x91, 0xbe, 0x80, 0x11, 0xa2, 0xbd, 0xd0, 0x2f, 0xc4, 0xbd, 0xea, 0x76, 0x16, 0xbe, 0x90, 0x82, 0x1f, 0x3e, 0xb8, 0x62, 0x18, 0x3d, 0xc0, 0x37, 0x13, 0x3e, 0x56, 0x21, 0x3a, 0x3e, 0xab, 0x56, 0x15, 0xbe, 0x96, 0xe0, 0xcf, 0x3b, 0x57, 0x6e, 0x82, 0xbe, 0x40, 0xed, 0x00, 0xbe, 0xfa, 0xe4, 0x63, 0xbe, 0x12, 0xb0, 0x08, 0x3e, 0x2c, 0x49, 0x45, 0x3e, 0x98, 0x93, 0x62, 0x3d, 0x46, 0xd9, 0x50, 0xbe, 0x1f, 0x7d, 0x90, 0xbe, 0x16, 0xf2, 0x8f, 0xbe, 0x35, 0x9e, 0xb9, 0x3c, 0x94, 0x76, 0x55, 0xbe, 0x3a, 0x05, 0x3e, 0xbe, 0xa0, 0xcd, 0xfb, 0x3d, 0x3c, 0x46, 0x7f, 0xbe, 0x57, 0x5b, 0xb4, 0xbd, 0x82, 0xe0, 0xe5, 0xbd, 0xd4, 0x35, 0x39, 0xbe, 0xd4, 0x8a, 0xe9, 0x3d, 0x0c, 0xfb, 0x9a, 0xbd, 0x41, 0xf7, 0x3c, 0xbe, 0x1c, 0x57, 0xe1, 0x3d, 0x7a, 0xfb, 0x85, 0x3e, 0x8c, 0xb8, 0x29, 0xbe, 0x50, 0x26, 0x2e, 0xbd, 0xa9, 0x59, 0x8f, 0x3e, 0x9d, 0xa6, 0x94, 0xbe, 0xc0, 0xf3, 0x73, 0xbc, 0x16, 0x55, 0x48, 0xbe, 0x40, 0xa2, 0x3e, 0x3d, 0xb0, 0x97, 0x93, 0x3e, 0x60, 0xb0, 0xa2, 0x3c, 0x43, 0x57, 0x96, 0xbe, 0x80, 0x98, 0x82, 0x3e, 0x88, 0xea, 0x37, 0xbe, 0xd2, 0xd6, 0x78, 0xbe, 0x00, 0x92, 0x68, 0xbe, 0xb8, 0x1e, 0xa7, 0xbd, 0x18, 0xb7, 0x8a, 0x3d, 0xa0, 0xd7, 0x37, 0x3d, 0x33, 0x13, 0xd3, 0x3c, 0x8c, 0xf7, 0x5c, 0x3e, 0xe8, 0x13, 0x85, 0x3e, 0x98, 0x15, 0x51, 0x3e, 0x68, 0xe2, 0xe1, 0x3d, 0xcb, 0x7c, 0x04, 0x3d, 0x06, 0x45, 0x4f, 0xbe, 0x6e, 0x4b, 0x9d, 0xbd, 0x18, 0xcc, 0xe5, 0x3d, 0xc0, 0x3a, 0xc0, 0xbb, 0xa5, 0x27, 0x8e, 0x3e, 0x70, 0x9e, 0x2a, 0x3d, 0xd0, 0x27, 0xc6, 0x3d, 0x72, 0x4a, 0x15, 0xbe, 0xb0, 0x40, 0x85, 0x3d, 0x21, 0x8c, 0x64, 0x3e, 0x16, 0xf6, 0x8e, 0xbe, 0x80, 0xe7, 0x71, 0xbe, 0x77, 0x77, 0x67, 0xbe, 0x38, 0xaa, 0x5b, 0x3d, 0x4d, 0x10, 0x89, 0xbe, 0xd2, 0xd2, 0x39, 0x3e, 0xd0, 0x69, 0xdb, 0xbc, 0xd0, 0x7e, 0x55, 0xbe, 0x20, 0xf0, 0x22, 0xbd, 0xbb, 0x17, 0x73, 0xbe, 0xec, 0xe7, 0x7d, 0x3e, 0x5c, 0x09, 0xeb, 0x3d, 0xdc, 0x58, 0xed, 0x3d, 0xba, 0x72, 0x8c, 0x3e, 0x80, 0x9f, 0x92, 0xbd, 0x90, 0x78, 0xfa, 0x3c, 0x70, 0xe4, 0xcd, 0xbc, 0xaa, 0x10, 0x4f, 0x3e, 0x5c, 0x2b, 0x8c, 0x3e, 0x81, 0x6e, 0x5f, 0x3e, 0x78, 0x2e, 0xde, 0x3d, 0x3b, 0x7c, 0x14, 0xbe, 0x18, 0xa9, 0x30, 0xbe, 0x78, 0x38, 0xab, 0x3d, 0xf6, 0xf9, 0x22, 0xbe, 0xba, 0x6e, 0x51, 0x3e, 0xd9, 0xe1, 0x4a, 0xbe, 0x54, 0x71, 0xa3, 0x3d, 0x08, 0x88, 0x6c, 0x3e, 0xac, 0x19, 0x64, 0x3d, 0xcc, 0x91, 0xc1, 0x3d, 0x20, 0xe8, 0x2b, 0xbc, 0x00, 0xcb, 0xc6, 0x3b, 0x00, 0xfd, 0xb7, 0xba, 0x9f, 0x1a, 0x64, 0x3e, 0xf2, 0xd7, 0x90, 0xbe, 0x48, 0x0e, 0x40, 0x3d, 0x00, 0x82, 0x85, 0x3e, 0xe4, 0x69, 0x90, 0xbe, 0x31, 0x51, 0x8d, 0x3c, 0xd0, 0x1c, 0xde, 0x3c, 0x40, 0xdc, 0x1c, 0x3d, 0xa1, 0xd7, 0x0a, 0xbe, 0xfc, 0xe5, 0xb9, 0xbd, 0x3c, 0xdf, 0x74, 0x3e, 0x5c, 0x87, 0x70, 0x3e, 0x33, 0xf5, 0x70, 0xbe, 0x79, 0xe8, 0x30, 0xbe, 0xab, 0xd0, 0x04, 0xbe, 0x8d, 0x19, 0x65, 0xbe, 0x4b, 0xd4, 0x85, 0xbe, 0x72, 0x2a, 0x45, 0x3e, 0x34, 0xb2, 0x6b, 0x3e, 0x30, 0x37, 0x48, 0x3e, 0xef, 0x5d, 0xc9, 0xbc, 0x1c, 0xb5, 0x5f, 0xbe, 0x60, 0x81, 0x88, 0x3c, 0x98, 0xd0, 0xda, 0x3d, 0xd8, 0x5e, 0xf3, 0x3d, 0x52, 0xe4, 0x8d, 0x3e, 0x2c, 0x20, 0x2c, 0x3e, 0xac, 0xf2, 0x29, 0x3e, 0x3b, 0x5a, 0x85, 0xbe, 0xe3, 0xab, 0x4e, 0xbe, 0x19, 0x0b, 0x94, 0xbe, 0x78, 0x11, 0x83, 0xbe, 0x64, 0xe8, 0x1a, 0x3e, 0x43, 0x48, 0x1c, 0xbe, 0x86, 0x65, 0x28, 0x3e, 0x71, 0x5a, 0x3f, 0xbe, 0x60, 0xb1, 0xbc, 0xbd, 0x80, 0xfb, 0x0b, 0xbc, 0x11, 0xf6, 0x0c, 0xbe, 0xc8, 0x5f, 0x19, 0x3d, 0xc6, 0x3c, 0x37, 0xbe, 0xfe, 0xbb, 0x8d, 0x3e, 0xde, 0x9b, 0x6b, 0xbe, 0x30, 0x6a, 0xd4, 0x3c, 0x50, 0x2c, 0x37, 0xbe, 0x18, 0x74, 0x9e, 0xbc, 0xea, 0x9b, 0x21, 0x3e, 0x5e, 0xa4, 0xfe, 0xbd, 0x6c, 0xe0, 0x34, 0x3e, 0xa8, 0x6e, 0x7a, 0x3e, 0x51, 0x5c, 0xc0, 0x3d, 0x41, 0xaa, 0x88, 0xbe, 0xcc, 0xb2, 0x80, 0xbe, 0x50, 0x28, 0x96, 0x3c, 0xb0, 0x85, 0x8b, 0x3e, 0x57, 0x74, 0x1e, 0x3c, 0x35, 0x9f, 0x85, 0xbe, 0xb0, 0x2b, 0x76, 0x3e, 0x0c, 0x6c, 0x78, 0x3e, 0xc4, 0xce, 0x30, 0x3e, 0x2a, 0x9f, 0x76, 0x3e, 0x48, 0x50, 0x21, 0x3e, 0x4c, 0xcd, 0x86, 0xbe, 0x22, 0x8e, 0x80, 0x3e, 0x5e, 0x51, 0x42, 0xbe, 0x6f, 0x8c, 0x73, 0x3e, 0xf4, 0x2a, 0x6b, 0x3e, 0xd0, 0xd6, 0xb1, 0x3c, 0x80, 0x8b, 0x3a, 0x3d, 0x38, 0xba, 0x88, 0x3e, 0x8d, 0x8e, 0x17, 0xbe, 0xfc, 0x22, 0xc4, 0x3d, 0xb8, 0xf6, 0x3a, 0xbe, 0xa4, 0xb5, 0x5b, 0xbe, 0x92, 0xce, 0x83, 0x3e, 0xcb, 0xbe, 0x78, 0x3e, 0x7a, 0xaf, 0x2e, 0x3e, 0xc8, 0xf9, 0x9e, 0x3d, 0xfc, 0x9d, 0x92, 0x3e, 0x76, 0x4a, 0x0c, 0x3e, 0xb5, 0x6e, 0x7a, 0x3e, 0x47, 0x8b, 0x84, 0xbe, 0xf4, 0x9c, 0x3d, 0xbe, 0x28, 0xc8, 0xf3, 0x3d, 0x80, 0x9e, 0x0b, 0xbb, 0x09, 0x14, 0xc6, 0xbd, 0x44, 0x70, 0x32, 0x3e, 0x50, 0x3a, 0xf7, 0x3c, 0x28, 0xca, 0x5e, 0x3d, 0xae, 0x17, 0x0a, 0x3e, 0x90, 0x01, 0x09, 0xbe, 0x30, 0xf5, 0xf6, 0x3c, 0x30, 0xbd, 0x20, 0xbe, 0x00, 0x5a, 0xfa, 0xbb, 0x8b, 0xd9, 0x48, 0xbe, 0x11, 0x95, 0xb8, 0xbd, 0xa9, 0x2d, 0x52, 0xbe, 0x80, 0xeb, 0x88, 0x3c, 0x44, 0xb5, 0x8a, 0xbe, 0x13, 0x35, 0x96, 0xbe, 0x84, 0x37, 0x97, 0xbd, 0xec, 0xcf, 0xa4, 0x3d, 0x7f, 0x4f, 0x82, 0xbe, 0x82, 0x78, 0x94, 0xbd, 0x20, 0xd1, 0xfc, 0x3d, 0x5a, 0xde, 0xff, 0xff, 0x04, 0x00, 0x00, 0x00, 0x00, 0x20, 0x00, 0x00, 0x3e, 0x87, 0x15, 0x3e, 0xae, 0x18, 0x25, 0x3e, 0x29, 0xee, 0x46, 0xbe, 0xa4, 0xbe, 0xe5, 0xbd, 0x65, 0xbb, 0xea, 0x3d, 0xb4, 0x77, 0x71, 0x3e, 0x88, 0x7b, 0x0b, 0xbe, 0x71, 0x8e, 0xfd, 0x3d, 0xb0, 0xc8, 0x28, 0x3e, 0xac, 0x81, 0xcc, 0x3c, 0xc0, 0x05, 0xf5, 0x3d, 0x00, 0x43, 0xd8, 0x3b, 0xee, 0xd9, 0x50, 0x3e, 0xdc, 0xb9, 0x7e, 0xbe, 0xc8, 0xad, 0x21, 0x3e, 0xac, 0x08, 0x1d, 0xbe, 0x0c, 0x53, 0x50, 0xbe, 0x20, 0xfc, 0x56, 0xbd, 0x2d, 0x83, 0x90, 0x3d, 0x51, 0x4c, 0xeb, 0x3d, 0xc8, 0x75, 0x1d, 0xbe, 0xd0, 0xd8, 0x1d, 0x3e, 0x7d, 0xfe, 0x81, 0xbd, 0xcc, 0x7c, 0x3e, 0x3e, 0xd4, 0x11, 0x6f, 0x3e, 0x04, 0x41, 0x1f, 0xbe, 0xb0, 0x50, 0x8d, 0x3d, 0xc0, 0xb1, 0x97, 0xbd, 0x7d, 0x9a, 0x76, 0x3e, 0xfa, 0x51, 0x37, 0xbe, 0x70, 0x7d, 0x2a, 0xbd, 0x9c, 0x2a, 0x64, 0x3e, 0x1a, 0x45, 0x18, 0xbe, 0x08, 0x2c, 0xbb, 0xbd, 0x5c, 0x7c, 0x50, 0xbe, 0xd8, 0x14, 0x79, 0xbe, 0xa8, 0xd9, 0xb5, 0xbd, 0xd8, 0x98, 0x64, 0x3e, 0x36, 0xd1, 0x09, 0xbd, 0x03, 0x3b, 0x42, 0xbe, 0x50, 0xc3, 0x2c, 0x3e, 0x1f, 0xca, 0x47, 0x3d, 0x90, 0xd6, 0x63, 0x3e, 0x08, 0x58, 0xce, 0x3d, 0xe0, 0x13, 0x52, 0x3d, 0x10, 0x1e, 0x7b, 0xbe, 0x04, 0x5d, 0xc6, 0x3d, 0x7b, 0x14, 0xfa, 0xbc, 0xa8, 0xfc, 0xb1, 0xbd, 0x6a, 0xd2, 0x1c, 0xbc, 0x41, 0x8a, 0xbe, 0xbc, 0xe0, 0x73, 0x15, 0x3e, 0xec, 0x93, 0x62, 0x3e, 0x28, 0x27, 0x7c, 0xbe, 0xc8, 0xba, 0x3c, 0x3e, 0xa0, 0xb2, 0x46, 0xbe, 0x0c, 0xc0, 0x10, 0x3e, 0xd9, 0x5c, 0xcc, 0x3c, 0xe0, 0xf8, 0x4d, 0x3d, 0x80, 0xd0, 0xb7, 0x3b, 0x37, 0xb4, 0x25, 0xbd, 0x52, 0x5d, 0x15, 0x3e, 0x76, 0xe8, 0x41, 0xbe, 0xe7, 0x3b, 0xd4, 0xbd, 0x45, 0x21, 0x00, 0x3e, 0xda, 0x95, 0x20, 0x3e, 0xf9, 0x0c, 0x41, 0x3e, 0x40, 0x1c, 0x3a, 0xbd, 0x16, 0xa6, 0x1e, 0x3e, 0xe0, 0xb2, 0x74, 0x3e, 0x94, 0xdd, 0x2c, 0x3e, 0x5c, 0x98, 0x7a, 0xbd, 0x52, 0xd6, 0xe4, 0xbd, 0xf7, 0xf9, 0x6a, 0xbe, 0x51, 0x35, 0x5b, 0x3e, 0xb4, 0xe2, 0x16, 0xbe, 0xd1, 0xaf, 0x47, 0xbe, 0xe5, 0x8e, 0x30, 0x3e, 0x1d, 0xe9, 0xb5, 0x3d, 0xc0, 0x68, 0x54, 0xbe, 0x04, 0x7b, 0xf4, 0xbd, 0x09, 0x73, 0xaa, 0xbc, 0x6b, 0x0b, 0x29, 0x3e, 0x6b, 0x20, 0x78, 0x3e, 0x33, 0xb9, 0xd5, 0xbd, 0x29, 0x6d, 0xa5, 0x3d, 0xed, 0x38, 0x11, 0x3c, 0x80, 0xe5, 0xf0, 0x3d, 0x1d, 0xbf, 0x7c, 0x3e, 0x48, 0x51, 0xfa, 0xbd, 0xb7, 0xd1, 0xf5, 0x3d, 0x27, 0xff, 0x3d, 0xbc, 0x1d, 0xbf, 0x0b, 0xbe, 0xe3, 0xa2, 0x63, 0xbd, 0x3e, 0x36, 0x06, 0xbe, 0x73, 0x41, 0x31, 0x3e, 0xa5, 0xbb, 0x70, 0xbe, 0x3d, 0x0b, 0x1d, 0x3e, 0x63, 0x3e, 0x7b, 0x3e, 0xfe, 0x2a, 0x39, 0xbd, 0x23, 0x04, 0x61, 0x3d, 0x53, 0x11, 0xb2, 0xbd, 0x7c, 0x61, 0xa1, 0xbd, 0xdf, 0x3e, 0x19, 0x3e, 0x73, 0x8b, 0x63, 0xbe, 0xba, 0xb8, 0xae, 0x3d, 0xb3, 0x81, 0x79, 0xbd, 0x63, 0xda, 0x75, 0x3e, 0xe2, 0x46, 0x31, 0xbe, 0x37, 0xad, 0x4c, 0xbe, 0x54, 0x67, 0xdf, 0x3d, 0x47, 0xaf, 0x4f, 0x3e, 0xd9, 0x28, 0xc8, 0x3d, 0xd1, 0x39, 0x4e, 0x3e, 0xb0, 0x2a, 0x9e, 0x3d, 0x3c, 0xeb, 0x56, 0x3e, 0x28, 0x0d, 0x4f, 0xbe, 0xd7, 0x37, 0x45, 0xbd, 0x81, 0xd0, 0xde, 0x3d, 0x9e, 0x39, 0x01, 0xbe, 0x78, 0xd3, 0x89, 0x3d, 0x2c, 0xf4, 0x08, 0x3e, 0xec, 0xf5, 0x18, 0x3e, 0x7d, 0x42, 0xa7, 0xbd, 0x47, 0xe8, 0xc9, 0x3d, 0xad, 0x1d, 0x78, 0x3e, 0x77, 0xd6, 0x4e, 0xbe, 0x21, 0xde, 0x67, 0x3e, 0xec, 0x5f, 0x03, 0xbb, 0x18, 0xa0, 0x02, 0xbd, 0x45, 0x3d, 0x9a, 0xbd, 0x87, 0x17, 0x26, 0xbe, 0x55, 0xee, 0x45, 0xbe, 0x74, 0xa7, 0x3a, 0xbe, 0xc0, 0x4d, 0x65, 0x3e, 0x30, 0x4e, 0xae, 0x3d, 0xf0, 0x11, 0x7e, 0xbe, 0xda, 0x86, 0x68, 0x3e, 0xc0, 0x35, 0x99, 0xbd, 0xd0, 0xf0, 0x7c, 0xbd, 0x41, 0x4e, 0x6e, 0x3e, 0xa0, 0x14, 0x81, 0x3d, 0x20, 0xdb, 0x01, 0xbe, 0x98, 0xa0, 0x93, 0x3d, 0x38, 0x16, 0xb8, 0xbd, 0x68, 0x21, 0x80, 0x3d, 0x3a, 0x32, 0x72, 0x3e, 0x70, 0x00, 0xab, 0x3d, 0x70, 0x95, 0x2f, 0x3d, 0x94, 0xef, 0x58, 0x3e, 0x1c, 0xd1, 0x35, 0xbe, 0xe9, 0x2f, 0x3f, 0x3d, 0x50, 0x42, 0x75, 0xbd, 0x70, 0x53, 0x64, 0x3e, 0xa0, 0xcb, 0x65, 0x3d, 0xb0, 0xb9, 0x49, 0xbe, 0xc1, 0x00, 0x57, 0xbd, 0x23, 0x9a, 0x6a, 0xbe, 0x4c, 0x91, 0x4b, 0xbe, 0x00, 0xb8, 0xff, 0xbc, 0xd1, 0xbb, 0x68, 0xbd, 0x6c, 0xdc, 0x08, 0xbe, 0x88, 0x2c, 0xad, 0xbd, 0xe0, 0x89, 0xc2, 0x3d, 0x40, 0x91, 0xa0, 0x3c, 0x51, 0xd8, 0x13, 0xbd, 0x82, 0x3f, 0x37, 0xbc, 0x4d, 0x22, 0x80, 0x3e, 0x10, 0xce, 0x78, 0x3d, 0xc0, 0x0a, 0x23, 0xbd, 0x5c, 0x95, 0x5e, 0x3e, 0xe0, 0xdf, 0x9d, 0xbd, 0x08, 0x9e, 0x7a, 0xbe, 0x1c, 0x41, 0x09, 0xbe, 0x4f, 0x58, 0xbe, 0x3d, 0x96, 0x26, 0x90, 0x3d, 0xf4, 0xd3, 0x2d, 0xbe, 0x72, 0x04, 0xa5, 0xbd, 0xeb, 0x17, 0x99, 0x3d, 0x0d, 0x0f, 0xb3, 0xbd, 0xa7, 0x82, 0x53, 0xbe, 0xa8, 0xf2, 0x98, 0x3d, 0x00, 0x8b, 0x54, 0x3c, 0x74, 0x05, 0x62, 0xbe, 0xc4, 0x06, 0x55, 0xbe, 0xb4, 0x01, 0x17, 0x3b, 0x60, 0x50, 0x84, 0xbc, 0x88, 0x2c, 0x4f, 0xbe, 0x70, 0xb4, 0x1a, 0x3d, 0x77, 0x1a, 0xd3, 0xbc, 0x1a, 0x80, 0xdb, 0xbd, 0xe4, 0x5d, 0x56, 0x3e, 0xa1, 0x40, 0x55, 0xbe, 0x74, 0x53, 0x6a, 0xbe, 0x4a, 0xf8, 0xee, 0x3d, 0x14, 0x37, 0x68, 0xbe, 0xe8, 0x92, 0x0c, 0x3d, 0x68, 0x5a, 0xe5, 0xbd, 0xc8, 0x1d, 0x1d, 0xbe, 0x5b, 0x50, 0x1c, 0xbe, 0x80, 0x61, 0x2f, 0x3e, 0x2e, 0x31, 0x2a, 0x3c, 0x00, 0x28, 0x44, 0xbc, 0x00, 0x13, 0x04, 0x3d, 0xeb, 0xd5, 0x78, 0xbd, 0xd8, 0xdf, 0x90, 0x3d, 0x10, 0xa0, 0xba, 0xbd, 0x70, 0xd9, 0x57, 0x3d, 0x10, 0xb3, 0xd3, 0x3d, 0x10, 0x5b, 0x12, 0xbe, 0x8b, 0x10, 0x79, 0x3d, 0x1a, 0x8b, 0xc3, 0x3d, 0x80, 0x11, 0x6a, 0x3e, 0xc8, 0x66, 0x89, 0x3d, 0x9a, 0x45, 0x28, 0x3d, 0x88, 0x9e, 0x04, 0x3e, 0xd8, 0xbf, 0xef, 0xbd, 0xfc, 0x88, 0x07, 0x3e, 0x40, 0x45, 0x27, 0x3e, 0xb0, 0xa6, 0x02, 0x3e, 0x77, 0x2e, 0x70, 0x3e, 0x78, 0x29, 0x47, 0xbe, 0xe8, 0xba, 0x98, 0xbd, 0x68, 0xd1, 0x5c, 0x3e, 0x33, 0xf5, 0xfb, 0x3d, 0x0c, 0x6b, 0x06, 0x3e, 0xc0, 0xdb, 0x06, 0x3c, 0xf8, 0x65, 0x8a, 0xbd, 0x90, 0xcb, 0x05, 0xbe, 0x19, 0xc9, 0x8e, 0xbc, 0x2c, 0x01, 0xbc, 0x3c, 0x7e, 0x07, 0xf6, 0x3d, 0x58, 0xab, 0x5b, 0xbe, 0xab, 0x50, 0x9f, 0x3c, 0x80, 0x0f, 0xbb, 0x3d, 0xd4, 0xb3, 0x58, 0xbe, 0xa8, 0x18, 0x1a, 0x3e, 0x34, 0x19, 0x4e, 0xbe, 0xa3, 0x6e, 0x68, 0xbe, 0xf4, 0x53, 0xf4, 0x3c, 0xd4, 0xd4, 0x68, 0x3e, 0xd3, 0x04, 0xd2, 0xbc, 0x6c, 0xe8, 0x6a, 0x3e, 0x60, 0x5f, 0x4d, 0xbe, 0xf3, 0xeb, 0xf5, 0xbd, 0x40, 0xef, 0x9b, 0x3d, 0xa0, 0x1d, 0x72, 0x3d, 0x6c, 0xe7, 0x2a, 0xbe, 0xc0, 0x1d, 0x3f, 0xbe, 0x49, 0x18, 0x70, 0x3d, 0x24, 0x5b, 0x59, 0x3e, 0x78, 0x5d, 0xee, 0x3d, 0xce, 0xbc, 0x16, 0x3e, 0x80, 0x2d, 0xaf, 0x3d, 0x87, 0xff, 0xc7, 0x3d, 0x34, 0xad, 0x42, 0xbe, 0xe1, 0xa7, 0xee, 0x3d, 0x5e, 0xf3, 0x67, 0x3c, 0x9f, 0x1f, 0xbf, 0x3d, 0x4f, 0xd0, 0x59, 0x3e, 0xce, 0x32, 0x53, 0xbe, 0xb8, 0xc6, 0xa2, 0x3d, 0xe4, 0x6d, 0x62, 0xbe, 0x4b, 0x06, 0x79, 0x3c, 0x28, 0xfb, 0x0b, 0xbe, 0x14, 0xf3, 0x5a, 0xbe, 0x80, 0xf1, 0xca, 0xbb, 0x80, 0x68, 0x75, 0x3c, 0x20, 0x28, 0x5b, 0xbe, 0xec, 0xe4, 0x62, 0xbe, 0xcc, 0x23, 0x37, 0x3e, 0xb8, 0x50, 0x0a, 0x3e, 0x5c, 0x12, 0x16, 0xbe, 0xc0, 0x62, 0xff, 0xbd, 0xdb, 0x03, 0x17, 0xbe, 0xa0, 0x7e, 0x58, 0x3e, 0xe4, 0x63, 0x3f, 0xbe, 0x68, 0x02, 0xc6, 0xbd, 0xdd, 0x24, 0x1c, 0xbe, 0x2d, 0x18, 0x01, 0xbe, 0x5c, 0x03, 0x4e, 0x3e, 0x3c, 0xd6, 0x50, 0x3e, 0x34, 0xde, 0x1c, 0x3e, 0x10, 0xf2, 0x5c, 0x3d, 0x05, 0x4f, 0x16, 0x3d, 0xcf, 0x7c, 0xfd, 0x3d, 0xc4, 0xf4, 0x1c, 0xbe, 0xe0, 0x07, 0x18, 0xbe, 0x15, 0x10, 0x40, 0x3d, 0x5c, 0x9d, 0x13, 0x3e, 0x3c, 0x1f, 0x07, 0xbe, 0x20, 0x2e, 0xb7, 0xbd, 0x44, 0x57, 0x0d, 0x3e, 0x4b, 0x1a, 0x80, 0x3d, 0xd4, 0x99, 0x70, 0x3e, 0x09, 0x5e, 0xc7, 0x3d, 0xe8, 0xa9, 0xf8, 0x3d, 0xf1, 0x9a, 0x04, 0x3e, 0xfc, 0x9f, 0x6a, 0x3e, 0xc8, 0x30, 0xd6, 0x3d, 0xd0, 0x6e, 0xf3, 0xbd, 0xa8, 0xee, 0xd5, 0xbd, 0xa7, 0xf5, 0xe2, 0xbc, 0xd1, 0x21, 0xac, 0x3d, 0x40, 0xe9, 0x38, 0xbc, 0xd4, 0xab, 0x1c, 0x3e, 0xde, 0x93, 0x3c, 0xbd, 0xc4, 0xc4, 0xe3, 0xbc, 0xd6, 0xfd, 0x4e, 0xbe, 0x00, 0xa2, 0x1a, 0x3c, 0x84, 0x7d, 0x08, 0xbe, 0xa8, 0xba, 0xe3, 0xbd, 0x88, 0xdf, 0x24, 0x3e, 0xeb, 0x49, 0x2e, 0x3e, 0xb8, 0xe7, 0x93, 0xbd, 0x50, 0x4f, 0x35, 0x3e, 0x17, 0xaf, 0x21, 0xbd, 0xb1, 0x1f, 0xd9, 0x3d, 0x4f, 0x7e, 0x58, 0xbe, 0xc2, 0x30, 0xbe, 0xbd, 0xda, 0x93, 0x55, 0xbd, 0x3c, 0x43, 0x40, 0x3e, 0x45, 0xa8, 0xac, 0xbd, 0xd0, 0xed, 0x0e, 0x3c, 0x4e, 0x1c, 0x59, 0x3e, 0x30, 0x40, 0x40, 0xbc, 0x70, 0x2a, 0x69, 0xbe, 0x68, 0xaf, 0x1a, 0xbe, 0x0d, 0x33, 0x74, 0x3d, 0xd5, 0xb3, 0xa4, 0x3d, 0xf9, 0x24, 0xc8, 0x3d, 0x51, 0x7c, 0x26, 0x3e, 0x36, 0x55, 0x55, 0x3e, 0xc7, 0xb4, 0x47, 0xbe, 0xf3, 0x6a, 0x7a, 0x3e, 0x6c, 0x62, 0xe5, 0xbd, 0xca, 0x25, 0x56, 0x3e, 0x3f, 0x62, 0xd1, 0xbd, 0x98, 0x47, 0x6d, 0x3c, 0x7d, 0x17, 0xc8, 0xbd, 0xbe, 0x7e, 0xf8, 0xbd, 0x06, 0x63, 0x7b, 0x3d, 0x88, 0x23, 0xdf, 0x3c, 0xd0, 0x74, 0x2f, 0xbe, 0x3e, 0x49, 0x05, 0x3e, 0xc1, 0x32, 0x10, 0x3e, 0x14, 0xac, 0x4d, 0xbd, 0x21, 0x69, 0xe5, 0xbb, 0x57, 0x5e, 0x21, 0x3e, 0x7b, 0xbb, 0xcb, 0x3d, 0x7a, 0x99, 0x5a, 0xbc, 0x75, 0x0a, 0x1f, 0x3e, 0x5c, 0x6c, 0x04, 0x3e, 0x87, 0x72, 0x31, 0xbe, 0x15, 0x3c, 0x60, 0x3e, 0x4c, 0x17, 0x5e, 0x3d, 0xf7, 0xef, 0xe9, 0x3d, 0xf5, 0xd7, 0x14, 0x3e, 0x0e, 0x40, 0xc0, 0xbd, 0x98, 0xf5, 0x13, 0x3d, 0x74, 0xf4, 0x23, 0xbe, 0x92, 0x9f, 0xeb, 0xbd, 0x47, 0xd6, 0x27, 0x3c, 0x19, 0xdf, 0x36, 0x3e, 0x8e, 0xb6, 0xe1, 0x3c, 0x81, 0xe8, 0x32, 0xbd, 0xc0, 0x43, 0xf2, 0x3d, 0x67, 0xb5, 0x2d, 0xbe, 0xe5, 0xac, 0xf1, 0x3d, 0xb6, 0xff, 0xe9, 0xbd, 0x15, 0x41, 0xf3, 0xbd, 0x6b, 0x66, 0x3f, 0xbe, 0x48, 0x74, 0xe8, 0xbc, 0xc5, 0x44, 0x95, 0x3d, 0x89, 0x94, 0xb7, 0xbd, 0xa7, 0xbb, 0x33, 0x3e, 0xe2, 0x54, 0x74, 0xbe, 0xad, 0xa8, 0xef, 0xbd, 0xe6, 0x28, 0x30, 0x3e, 0xb8, 0xda, 0x7a, 0xbe, 0x25, 0x1b, 0xb5, 0xba, 0xd3, 0xb0, 0x4f, 0x3e, 0x35, 0x49, 0xc6, 0x3c, 0x40, 0x5e, 0x00, 0xbe, 0xf0, 0x20, 0x29, 0x3d, 0x18, 0xa0, 0x93, 0x3d, 0x40, 0x71, 0x51, 0xbd, 0xe8, 0xec, 0x1d, 0xbe, 0x60, 0x70, 0x2c, 0x3d, 0xd3, 0xcf, 0x27, 0x3e, 0x2e, 0xc8, 0x00, 0xbe, 0xe4, 0x98, 0x22, 0xbe, 0xc1, 0xb1, 0xfd, 0x3c, 0x00, 0xd8, 0x23, 0xba, 0x91, 0x9c, 0x1b, 0xbe, 0xfd, 0x0f, 0x81, 0xbe, 0xac, 0xa4, 0x4e, 0x3e, 0x9e, 0x90, 0x35, 0x3e, 0x16, 0x16, 0x41, 0x3e, 0x43, 0xfc, 0x39, 0x3e, 0x5d, 0x76, 0x95, 0xbd, 0x0c, 0x22, 0xc1, 0x3d, 0x00, 0xb6, 0xbc, 0xbb, 0xd8, 0xa3, 0xc8, 0xbd, 0x29, 0x5d, 0x63, 0x3e, 0xdd, 0x2d, 0x29, 0x3d, 0x14, 0x77, 0x23, 0x3e, 0x4c, 0x51, 0x48, 0xbe, 0xbe, 0x8d, 0x04, 0x3e, 0xe2, 0x42, 0x39, 0x3e, 0xc2, 0x5c, 0xf2, 0xbd, 0xaf, 0x0c, 0x97, 0xbd, 0xe0, 0xd7, 0x76, 0x3d, 0x50, 0x4a, 0x0e, 0x3e, 0x90, 0x71, 0x68, 0x3e, 0xb2, 0x40, 0x22, 0x3e, 0x38, 0xd8, 0x72, 0x3e, 0x8d, 0x11, 0x6c, 0xbe, 0x3c, 0x7f, 0xcf, 0xbd, 0xae, 0x03, 0x42, 0xbe, 0xfc, 0x0f, 0xa2, 0x3b, 0xc0, 0xb9, 0x93, 0xbc, 0x6c, 0xb3, 0x6a, 0xbe, 0x6c, 0xa4, 0x73, 0xbe, 0x0a, 0x17, 0x91, 0xbd, 0xb4, 0xcf, 0x4d, 0xbe, 0xcc, 0x04, 0x02, 0xbc, 0x6e, 0xe7, 0xbf, 0x3d, 0xb6, 0x51, 0x87, 0x3d, 0x07, 0x51, 0x76, 0xbe, 0x70, 0x34, 0x3e, 0xbe, 0x70, 0x8d, 0x93, 0x3d, 0xf6, 0x79, 0x81, 0xbe, 0xb4, 0x84, 0x07, 0x3e, 0x58, 0xb0, 0xd7, 0x3d, 0xb0, 0x2a, 0x54, 0xbd, 0x00, 0x1b, 0x9d, 0x3c, 0x83, 0xd6, 0x4e, 0x3e, 0xd4, 0x90, 0x38, 0xbd, 0x11, 0x4d, 0x33, 0x3e, 0x0c, 0x2a, 0x19, 0x3e, 0x5c, 0xc5, 0x5a, 0xbe, 0x37, 0x48, 0xa1, 0x3d, 0x90, 0xe1, 0x6e, 0xbe, 0x40, 0xba, 0xad, 0x3d, 0xb8, 0x47, 0xb2, 0xbd, 0xd0, 0xb7, 0x98, 0x3d, 0x80, 0x4f, 0x8f, 0xbb, 0xdb, 0xb6, 0xff, 0xbd, 0x7a, 0x9d, 0x02, 0x3e, 0x45, 0x97, 0xa5, 0x3d, 0xeb, 0xf3, 0x76, 0x3e, 0x17, 0xe0, 0xbd, 0x3d, 0xc0, 0x7e, 0xbc, 0x3d, 0x9c, 0x70, 0x76, 0xbe, 0x66, 0x69, 0xac, 0xbd, 0x50, 0x0e, 0x29, 0xbd, 0x45, 0x87, 0x63, 0xbe, 0x48, 0x02, 0x80, 0x3d, 0xcc, 0x57, 0x1a, 0xbe, 0x93, 0xe7, 0x9f, 0xbc, 0x30, 0x5f, 0x0c, 0xbd, 0xf8, 0x19, 0xa2, 0xbd, 0xb8, 0xe6, 0x98, 0xbd, 0x64, 0x85, 0x23, 0x3e, 0xbc, 0xe6, 0x1a, 0xbe, 0x8f, 0xf6, 0x72, 0x3d, 0x3b, 0x89, 0x3c, 0x3b, 0xc8, 0x68, 0xc0, 0x3d, 0x30, 0xb8, 0x37, 0xbe, 0x6a, 0x07, 0xb3, 0xbd, 0xad, 0xa0, 0x91, 0x3c, 0x48, 0x08, 0xfa, 0x3d, 0xb4, 0xfc, 0x6d, 0xbe, 0x6c, 0xa1, 0x4a, 0x3e, 0xb0, 0x17, 0x4d, 0xbe, 0xf4, 0xb1, 0x42, 0xbe, 0xd7, 0x85, 0x70, 0x3e, 0xd8, 0x3c, 0x9a, 0xbd, 0x88, 0xbf, 0x7b, 0xbe, 0x08, 0x09, 0x56, 0x3e, 0x98, 0xe5, 0xb3, 0x3d, 0xb8, 0xec, 0x63, 0xbe, 0x40, 0x7e, 0x36, 0xbd, 0xa8, 0x9d, 0x10, 0x3e, 0x3a, 0xdf, 0x3d, 0x3e, 0x68, 0x2b, 0x4f, 0x3e, 0x67, 0x2d, 0x78, 0x3c, 0x78, 0x11, 0x86, 0x3d, 0x8a, 0x8e, 0x37, 0xbe, 0x60, 0x03, 0xc5, 0xbc, 0x90, 0x53, 0x46, 0xbe, 0xc0, 0x55, 0x12, 0x3d, 0xc8, 0x84, 0xe9, 0x3d, 0x28, 0xbc, 0x1a, 0xbe, 0x22, 0xab, 0x23, 0x3c, 0xe4, 0x29, 0x67, 0x3e, 0xd9, 0x8e, 0xc9, 0xbd, 0x35, 0x03, 0xda, 0x3c, 0xb7, 0x83, 0x4f, 0xbe, 0x23, 0x07, 0x14, 0x3e, 0x20, 0xde, 0xbb, 0xbd, 0xcc, 0x91, 0x21, 0xbe, 0x90, 0xcb, 0x28, 0x3e, 0x00, 0x44, 0x39, 0xbb, 0x92, 0xa8, 0x00, 0x3d, 0xb8, 0x13, 0x95, 0xbd, 0x20, 0xf1, 0x7d, 0xbd, 0x02, 0x89, 0x78, 0xbe, 0x15, 0x74, 0xd0, 0xbd, 0x8c, 0xd2, 0xe3, 0xbd, 0x94, 0xf9, 0x4b, 0x3e, 0x70, 0xad, 0x52, 0xbe, 0x30, 0x95, 0xc8, 0xbd, 0xc0, 0xb4, 0x7b, 0xbe, 0x94, 0xd3, 0x12, 0xbe, 0x30, 0x06, 0xb5, 0xbd, 0x9c, 0x96, 0x25, 0xbe, 0x38, 0x36, 0x93, 0x3d, 0xb0, 0xf1, 0xe3, 0x3d, 0x28, 0x3e, 0x4c, 0xbe, 0xe0, 0x66, 0x14, 0xbd, 0x68, 0x4d, 0x71, 0xbe, 0x50, 0xd7, 0xbc, 0x3d, 0x10, 0xd8, 0x53, 0xbd, 0xb8, 0x17, 0x4a, 0xbe, 0xe4, 0x8a, 0x74, 0xbe, 0x54, 0xb5, 0x55, 0x3e, 0x6c, 0x76, 0x41, 0x3e, 0x80, 0x7b, 0x4d, 0x3c, 0xc4, 0xa7, 0x42, 0x3e, 0x90, 0x5f, 0x5e, 0x3d, 0x00, 0xb5, 0x78, 0xbd, 0xd4, 0xc1, 0x2a, 0x3e, 0x00, 0xe8, 0xe4, 0x3c, 0xf8, 0x3f, 0x3e, 0xbe, 0x20, 0xc8, 0x45, 0xbd, 0x70, 0xd9, 0xbe, 0x3d, 0xc0, 0xd3, 0x23, 0x3e, 0x58, 0xba, 0xa7, 0xbd, 0x58, 0x1f, 0x17, 0x3e, 0x40, 0x91, 0x08, 0x3d, 0x64, 0x23, 0x65, 0xbe, 0x44, 0x36, 0x71, 0xbe, 0xa0, 0xf6, 0xc3, 0x3d, 0xc8, 0xfb, 0x7d, 0xbe, 0x30, 0x9f, 0xb5, 0xbd, 0x78, 0x6f, 0xcf, 0x3d, 0xa4, 0x29, 0x6f, 0xbe, 0x70, 0x15, 0x97, 0xbd, 0xa0, 0xfb, 0xe1, 0xbd, 0xb4, 0xce, 0x0d, 0xbe, 0x60, 0x4b, 0x06, 0x3e, 0x08, 0x4b, 0x1d, 0xbe, 0x18, 0x3e, 0xb3, 0x3d, 0xf0, 0x44, 0x28, 0xbd, 0x40, 0x42, 0x4f, 0xbd, 0x40, 0x06, 0x43, 0x3c, 0x28, 0x58, 0x55, 0xbe, 0x00, 0x7e, 0x5b, 0xbe, 0xec, 0x7a, 0x54, 0xbe, 0x00, 0x7a, 0xf3, 0x3d, 0x08, 0x9c, 0x75, 0x3e, 0xa0, 0x39, 0x39, 0x3e, 0x94, 0x97, 0x7c, 0x3e, 0xf0, 0x05, 0xb6, 0x3d, 0x40, 0xd1, 0xbe, 0xbc, 0x00, 0xbd, 0xd6, 0xbb, 0x20, 0x4b, 0x20, 0xbd, 0x00, 0xa9, 0x37, 0x3b, 0xe4, 0xb1, 0x52, 0xbe, 0xc8, 0x91, 0xfe, 0x3d, 0x1c, 0xa4, 0x44, 0xbe, 0xd0, 0xe4, 0x20, 0x3e, 0x78, 0x57, 0x36, 0xbe, 0x70, 0x5d, 0xa3, 0xbd, 0x60, 0x71, 0x33, 0x3e, 0xc4, 0xf0, 0x44, 0xbe, 0x08, 0xed, 0x1e, 0xbe, 0x80, 0x3e, 0x93, 0x3d, 0x58, 0xf7, 0x43, 0x3e, 0xf3, 0x2d, 0x0a, 0xbc, 0x9f, 0xa4, 0x19, 0xbe, 0x88, 0xed, 0x85, 0x3d, 0x0f, 0x98, 0x13, 0xbe, 0xa0, 0xf6, 0x0d, 0x3d, 0x7e, 0x68, 0x20, 0x3e, 0x97, 0x4b, 0x0e, 0xbe, 0x98, 0x6f, 0x1f, 0xbe, 0x9b, 0x2a, 0xed, 0x3d, 0x53, 0x75, 0x09, 0xbe, 0xe9, 0x30, 0x82, 0xbd, 0x9c, 0xe5, 0x02, 0xbe, 0xd8, 0x7b, 0x3e, 0xbd, 0xc4, 0xc9, 0x01, 0x3e, 0x50, 0xe6, 0x04, 0x3d, 0x03, 0xd8, 0xb1, 0x3d, 0x79, 0xf4, 0x17, 0xbe, 0x08, 0x95, 0xf2, 0xbd, 0xd4, 0x8b, 0x20, 0xbe, 0x7d, 0x81, 0x82, 0x3d, 0x6d, 0xc2, 0x70, 0x3e, 0x19, 0x04, 0xf1, 0x3d, 0x35, 0x5b, 0xf1, 0x3d, 0xb0, 0xa3, 0x02, 0xbd, 0x28, 0xef, 0xa6, 0x3d, 0xd4, 0x16, 0x90, 0x3d, 0x58, 0x2f, 0x94, 0x3d, 0xc0, 0x2e, 0x2f, 0x3c, 0x4c, 0xec, 0x90, 0xbd, 0x8a, 0x3d, 0x43, 0xbe, 0x0b, 0x70, 0x00, 0xbe, 0xe4, 0xc1, 0x13, 0xbe, 0xc0, 0x6c, 0x6b, 0x3c, 0x58, 0xff, 0xa2, 0x3d, 0xa8, 0x8b, 0xde, 0xbd, 0x93, 0x70, 0x79, 0x3e, 0x30, 0x63, 0xb3, 0xbd, 0x08, 0x80, 0x64, 0x3e, 0xe2, 0x06, 0x0c, 0xbe, 0x3b, 0xb4, 0x4a, 0xbe, 0x1a, 0xc6, 0x91, 0x3b, 0x48, 0x27, 0xb8, 0x3d, 0xa0, 0xee, 0x4c, 0x3e, 0x7c, 0xb1, 0x6b, 0xbd, 0x40, 0xe1, 0xa0, 0x3c, 0x30, 0xf8, 0xa0, 0x3d, 0x80, 0x01, 0xa8, 0xbd, 0x80, 0x8e, 0xc3, 0x3b, 0x58, 0x19, 0x11, 0xbe, 0x7a, 0xe7, 0xb6, 0x3c, 0x74, 0x6b, 0x39, 0x3e, 0x7e, 0x45, 0x33, 0x3d, 0x50, 0x0f, 0x74, 0x3d, 0xb9, 0x71, 0x3b, 0xbe, 0x71, 0xb3, 0x2e, 0x3e, 0xa0, 0x1e, 0x44, 0xbd, 0xe4, 0xb9, 0x73, 0xbe, 0x38, 0xe6, 0xd0, 0xbd, 0xe4, 0xd6, 0x54, 0x3e, 0x2c, 0x51, 0x57, 0x3e, 0x40, 0x35, 0x67, 0x3e, 0xac, 0xa7, 0x0d, 0x3e, 0x00, 0xa5, 0x54, 0x3d, 0xa0, 0x5f, 0xd6, 0x3c, 0xa8, 0x42, 0x66, 0xbe, 0x30, 0xe1, 0x1c, 0xbd, 0xe4, 0xfc, 0x4d, 0xbe, 0xdc, 0xdb, 0x63, 0xbe, 0xc4, 0xe4, 0x13, 0xbe, 0x18, 0x97, 0xf5, 0xbd, 0x00, 0x08, 0x2e, 0x3c, 0x7c, 0x1d, 0x7b, 0xbe, 0x40, 0xb0, 0x22, 0xbc, 0x00, 0x1f, 0x84, 0x3c, 0xe0, 0xa1, 0xd5, 0x3d, 0xf8, 0x93, 0xaa, 0x3d, 0xe0, 0xee, 0xb1, 0x3c, 0x9c, 0x85, 0x2e, 0x3e, 0x80, 0x3c, 0xd6, 0x3d, 0xe0, 0xba, 0x97, 0xbd, 0x20, 0xfa, 0x37, 0x3e, 0x68, 0xcc, 0xfe, 0x3d, 0x90, 0x80, 0x66, 0x3d, 0x50, 0xc4, 0x49, 0x3e, 0x60, 0xcd, 0xe0, 0x3d, 0x80, 0xa5, 0xa6, 0x3c, 0xc8, 0x35, 0x25, 0x3e, 0x80, 0x7c, 0xab, 0xbc, 0x68, 0xd0, 0xa3, 0xbd, 0x10, 0x17, 0x80, 0xbd, 0xf8, 0xc1, 0x1d, 0xbe, 0x08, 0x24, 0xec, 0xbd, 0x00, 0xb8, 0x24, 0x3a, 0x04, 0x46, 0x1b, 0x3e, 0xf0, 0xca, 0x7d, 0xbe, 0x38, 0xa1, 0x83, 0x3d, 0x10, 0x4a, 0x57, 0xbd, 0x18, 0x24, 0x08, 0xbe, 0xb0, 0x12, 0xfa, 0x3d, 0x00, 0x35, 0x05, 0x3e, 0x34, 0xa4, 0x6a, 0xbe, 0xa0, 0x15, 0x3c, 0x3e, 0x94, 0x72, 0x12, 0x3e, 0xa4, 0x75, 0x77, 0xbe, 0xb0, 0xe0, 0xad, 0xbd, 0x00, 0x4b, 0xf6, 0xbc, 0x40, 0x64, 0xd7, 0xbc, 0x20, 0x1f, 0xd4, 0xbd, 0x98, 0x33, 0x03, 0xbe, 0x00, 0x3c, 0x33, 0xbd, 0x48, 0xc9, 0x76, 0x3e, 0x70, 0x6c, 0x4d, 0x3e, 0xd4, 0x4e, 0x46, 0x3e, 0xe8, 0x33, 0xa5, 0xbd, 0x00, 0x9a, 0x5f, 0xbe, 0x00, 0x39, 0xcb, 0xbd, 0x10, 0xb2, 0xdc, 0xbd, 0xf0, 0xd0, 0xc5, 0xbd, 0x70, 0xd3, 0x5c, 0x3d, 0x8c, 0xae, 0x06, 0x3e, 0x18, 0x6d, 0x84, 0xbd, 0xb8, 0xa8, 0xb0, 0x3d, 0x10, 0xd3, 0xe0, 0xbd, 0x42, 0x4a, 0xc9, 0xbd, 0x7b, 0xe3, 0x43, 0x3e, 0x8b, 0xed, 0x5e, 0x3e, 0xb8, 0x5a, 0x78, 0x3e, 0xe2, 0x63, 0x68, 0x3e, 0xa0, 0x82, 0x05, 0xbe, 0x80, 0xa8, 0x6c, 0x3e, 0xf1, 0x65, 0x6d, 0xbe, 0x88, 0x17, 0x81, 0xbd, 0xde, 0x12, 0x75, 0xbe, 0xc0, 0xa8, 0x36, 0x3d, 0x6c, 0x40, 0x52, 0x3e, 0xf4, 0x81, 0x10, 0x3e, 0x34, 0x76, 0x60, 0xbe, 0x40, 0x28, 0x44, 0x3d, 0x40, 0x33, 0x52, 0x3c, 0x28, 0x9f, 0x64, 0xbe, 0xa8, 0x27, 0x30, 0xbe, 0x6b, 0x5d, 0x64, 0xbe, 0x59, 0xed, 0xfc, 0x3d, 0x34, 0x39, 0x53, 0x3e, 0x08, 0x5f, 0x70, 0x3e, 0x64, 0xee, 0x61, 0xbe, 0x2a, 0xee, 0xa6, 0xbc, 0xe8, 0x1e, 0x48, 0xbe, 0xf0, 0x4e, 0x21, 0xbd, 0x84, 0x2b, 0x62, 0xbe, 0xcc, 0x6d, 0x0b, 0xbe, 0x2e, 0x5f, 0xd0, 0x3b, 0x68, 0xbf, 0xc9, 0x3c, 0xfc, 0x1b, 0x7c, 0xbe, 0x60, 0x8b, 0x5a, 0x3d, 0x63, 0x48, 0x80, 0xbc, 0x00, 0xce, 0x5e, 0xbe, 0xa4, 0x7c, 0x1e, 0xbe, 0x60, 0x98, 0x62, 0x3d, 0x48, 0x1e, 0xfb, 0x3d, 0x56, 0x10, 0x83, 0xbc, 0xad, 0xab, 0x9b, 0xbc, 0x54, 0x8b, 0x86, 0x3d, 0x30, 0xea, 0xc6, 0xbd, 0xaa, 0xed, 0x12, 0xbe, 0x80, 0x08, 0x5d, 0x3d, 0x50, 0x1a, 0x31, 0x3e, 0xb8, 0xc7, 0x91, 0x3d, 0x40, 0xf5, 0x44, 0x3e, 0x5f, 0x2b, 0x1a, 0xbd, 0x54, 0xff, 0x45, 0xbe, 0xe0, 0x7c, 0x08, 0xbe, 0xa5, 0x78, 0xcc, 0xbd, 0x13, 0x79, 0xa4, 0xbc, 0xb7, 0x94, 0xd9, 0x3d, 0x78, 0xac, 0x8d, 0x3d, 0xb0, 0x8a, 0xb6, 0x3d, 0xdc, 0xcb, 0x27, 0xbe, 0x80, 0x20, 0xba, 0x3c, 0xb0, 0xa9, 0x7d, 0x3d, 0xb1, 0xc4, 0xba, 0x3c, 0x10, 0xd2, 0xdc, 0xbd, 0x50, 0x12, 0x1b, 0xbe, 0x9a, 0xd1, 0x03, 0x3e, 0x88, 0xa2, 0x72, 0x3e, 0x5c, 0xf1, 0xbd, 0xbd, 0x2e, 0xa7, 0x33, 0x3e, 0x40, 0x46, 0xe8, 0x3d, 0xa5, 0x9b, 0x4a, 0x3d, 0x2a, 0x49, 0x96, 0x3d, 0x7b, 0x5d, 0xb0, 0xbd, 0xeb, 0x3d, 0x06, 0x3e, 0x9d, 0xd0, 0xe7, 0x3c, 0xd9, 0x05, 0x0b, 0xbe, 0x1c, 0x3e, 0x89, 0xbd, 0x3d, 0x49, 0x32, 0x3e, 0x17, 0x1c, 0x40, 0xbe, 0x1c, 0xdc, 0x2c, 0x3e, 0x25, 0xa5, 0xd8, 0x3c, 0x6c, 0xc2, 0xdf, 0xbd, 0x63, 0x58, 0xf5, 0x3c, 0x2f, 0x17, 0xf4, 0xbd, 0x1d, 0xad, 0x7a, 0x3e, 0xd6, 0x06, 0x65, 0x3e, 0xef, 0x74, 0x39, 0xbe, 0x46, 0x28, 0x1e, 0xbe, 0xac, 0x27, 0xf6, 0x3c, 0xf9, 0xf2, 0xff, 0x3d, 0x26, 0xb3, 0x6e, 0x3e, 0xe6, 0x5b, 0x22, 0x3e, 0xb8, 0x00, 0x6f, 0xbe, 0x43, 0xc1, 0xc4, 0x3d, 0x20, 0x13, 0x13, 0x3e, 0xdc, 0xea, 0x85, 0xbd, 0x06, 0x26, 0x73, 0xbd, 0xa5, 0xa1, 0x02, 0x3e, 0xd8, 0xf6, 0xe9, 0x3d, 0x64, 0x6a, 0x22, 0x3e, 0xf3, 0xd9, 0x0a, 0xbe, 0xa7, 0xc8, 0x5f, 0x3e, 0xec, 0x9e, 0x58, 0x3e, 0xa9, 0x06, 0x5f, 0xbe, 0x63, 0x51, 0x43, 0x3e, 0x9b, 0x77, 0x73, 0x3e, 0x66, 0xea, 0x6a, 0x3e, 0x5e, 0x4c, 0xba, 0x3c, 0xc4, 0xfe, 0xe7, 0xbb, 0xd3, 0x39, 0x0b, 0x3e, 0x3f, 0x68, 0x0c, 0x3e, 0x51, 0xdf, 0x8a, 0x3d, 0x6f, 0xaf, 0x78, 0xbc, 0x14, 0x09, 0x63, 0xbd, 0xc9, 0xce, 0x34, 0x3c, 0x33, 0xca, 0x60, 0xbe, 0x0f, 0x29, 0xb2, 0xbd, 0x7b, 0xc5, 0x3d, 0x3e, 0x28, 0xc5, 0x11, 0xbd, 0x4f, 0x42, 0x72, 0x3e, 0x27, 0xbd, 0x79, 0xbe, 0xc8, 0xa2, 0x54, 0x3d, 0xca, 0xc3, 0x52, 0xbe, 0xfa, 0x36, 0xeb, 0x3d, 0x08, 0xe6, 0xe8, 0x3d, 0xd1, 0xfd, 0x31, 0x3e, 0x72, 0xfa, 0xaa, 0x3c, 0x08, 0x41, 0x2a, 0x3d, 0x2b, 0x67, 0x68, 0xbd, 0x1a, 0xda, 0x17, 0x3e, 0x7f, 0xf3, 0x44, 0x3c, 0x7c, 0x11, 0xac, 0xbd, 0x4e, 0xcc, 0x13, 0xbe, 0x66, 0x3b, 0x62, 0x3d, 0x28, 0x07, 0xd5, 0x3d, 0xc1, 0xea, 0xe8, 0xbc, 0xfe, 0x38, 0xe6, 0xbd, 0x93, 0x48, 0x4f, 0x3e, 0x50, 0xa2, 0x5b, 0x3e, 0x98, 0x04, 0x6b, 0xbe, 0xba, 0x69, 0xad, 0x3d, 0xbc, 0x72, 0x66, 0x3e, 0x5b, 0x41, 0x5b, 0x3e, 0x10, 0x9f, 0xcd, 0xbd, 0xb0, 0x7c, 0x87, 0xbd, 0x2f, 0x6f, 0x2e, 0xbe, 0x10, 0x52, 0xed, 0x3d, 0x00, 0xe4, 0x79, 0xbc, 0x18, 0x6d, 0x0f, 0xbe, 0x00, 0xe1, 0x2e, 0x3b, 0x80, 0x67, 0xe7, 0xbd, 0x62, 0xf2, 0xc0, 0xbd, 0xee, 0xe9, 0x82, 0x3c, 0x58, 0x9b, 0xc3, 0xbd, 0xcc, 0xee, 0x06, 0xbe, 0xf5, 0xd8, 0x60, 0x3e, 0x98, 0xc9, 0xfd, 0x3d, 0x88, 0xb8, 0x00, 0xbe, 0xc8, 0x5b, 0x32, 0x3e, 0x00, 0x1a, 0x71, 0x3b, 0xd0, 0xcb, 0xe3, 0xbd, 0x67, 0xc2, 0xb1, 0x3c, 0x6d, 0x84, 0x43, 0xbd, 0x40, 0xcc, 0x10, 0x3d, 0x00, 0xac, 0x06, 0xbd, 0xa1, 0x90, 0x7a, 0x3e, 0x68, 0x21, 0x1a, 0x3e, 0xf8, 0x02, 0x66, 0xbe, 0x78, 0x7f, 0x9b, 0xbd, 0x40, 0xc2, 0x7d, 0xbd, 0x2f, 0x68, 0xd1, 0x3d, 0x55, 0x59, 0x4b, 0xbe, 0xcc, 0x06, 0x10, 0xbe, 0xcc, 0x95, 0x43, 0x3e, 0xd2, 0x85, 0x6d, 0x3d, 0x54, 0x87, 0x19, 0x3e, 0xa0, 0x3f, 0x32, 0xbe, 0x94, 0x70, 0x54, 0x3e, 0xa8, 0x54, 0x72, 0xbe, 0x2e, 0x49, 0x62, 0x3e, 0xa5, 0xd8, 0x5c, 0xbe, 0x58, 0x87, 0x3b, 0xbe, 0x46, 0xf2, 0x26, 0xbc, 0xea, 0x3b, 0x80, 0x3c, 0x8f, 0xfa, 0xcb, 0x3d, 0x78, 0x69, 0x09, 0xbe, 0x18, 0x45, 0xec, 0x3d, 0x0c, 0x4e, 0x36, 0x3e, 0xf0, 0x85, 0x92, 0x3d, 0x20, 0x90, 0xd5, 0x3c, 0xbd, 0xfc, 0x29, 0xbc, 0x60, 0xf9, 0x51, 0xbe, 0x80, 0x07, 0x3f, 0x3d, 0x55, 0x5a, 0x1b, 0xbe, 0x5a, 0x43, 0x01, 0xbe, 0x3d, 0x92, 0x1d, 0x3e, 0x3b, 0x65, 0x9b, 0x3d, 0xac, 0x8d, 0x13, 0xbe, 0x08, 0x2d, 0x92, 0x3d, 0x00, 0x80, 0x8b, 0x3a, 0xf4, 0xcc, 0x4b, 0xbe, 0xb0, 0x8b, 0xbf, 0x3d, 0xe9, 0x84, 0x48, 0xbd, 0x14, 0x38, 0x1e, 0x3e, 0xc8, 0xf6, 0x0f, 0xbe, 0x23, 0xc9, 0x1a, 0xbd, 0xb0, 0xb3, 0x9c, 0xbd, 0xcb, 0x00, 0xeb, 0x3c, 0x12, 0x10, 0x84, 0xbd, 0xe0, 0x26, 0xd4, 0xbd, 0xae, 0x55, 0x1e, 0x3c, 0xb1, 0x82, 0x72, 0x3e, 0xf3, 0x0d, 0x2a, 0xbe, 0x96, 0xfc, 0x56, 0xbd, 0x5d, 0x6f, 0x59, 0xbe, 0x40, 0x96, 0x15, 0x3e, 0xe0, 0xbf, 0x06, 0xbd, 0x03, 0x83, 0x43, 0x3e, 0x72, 0x9e, 0x34, 0x3e, 0x54, 0x7f, 0x2f, 0x3e, 0x20, 0x33, 0x92, 0xbc, 0x03, 0xf4, 0x15, 0xbe, 0x63, 0xa0, 0xa0, 0xbd, 0x41, 0xe4, 0xdd, 0x3d, 0x77, 0x65, 0x5e, 0xbd, 0x4c, 0x06, 0x7e, 0x3e, 0x44, 0xd3, 0x5a, 0x3e, 0x54, 0xe6, 0x7a, 0x3e, 0x7c, 0x01, 0x29, 0x3b, 0xcc, 0x2c, 0x10, 0xbe, 0xab, 0xb8, 0x2b, 0x3e, 0xbc, 0x23, 0x40, 0x3e, 0x9b, 0xc3, 0x16, 0xbd, 0x0c, 0xa4, 0xba, 0xbd, 0x40, 0x21, 0x22, 0x3d, 0x28, 0x37, 0x38, 0xbe, 0x50, 0x1e, 0x5f, 0xbd, 0xaa, 0x62, 0x3a, 0xbd, 0xf0, 0x66, 0x2a, 0x3d, 0x6b, 0x5c, 0xa0, 0xbd, 0x33, 0xbf, 0x61, 0x3e, 0x4a, 0x41, 0xe4, 0x3b, 0xdb, 0xa7, 0xe5, 0xbd, 0x68, 0x65, 0x61, 0x3e, 0x24, 0xb0, 0x31, 0xbe, 0x4b, 0x2e, 0xea, 0x3c, 0x18, 0x80, 0xab, 0xbd, 0xe0, 0x8b, 0xbd, 0xbc, 0xbc, 0x2c, 0x72, 0xbe, 0xc4, 0xd2, 0x71, 0xbe, 0xc1, 0x3d, 0xe1, 0x3d, 0xd2, 0x6c, 0x4e, 0xbe, 0x6e, 0xff, 0x84, 0xbd, 0x08, 0x64, 0xd8, 0x3d, 0x98, 0x78, 0x2c, 0x3e, 0x08, 0x77, 0x39, 0x3e, 0x09, 0xd0, 0xc4, 0xbd, 0x48, 0xa6, 0xda, 0xbd, 0xb8, 0x88, 0xb9, 0x3d, 0x18, 0xb9, 0x10, 0xbe, 0xb0, 0x85, 0x1b, 0xbd, 0x27, 0x5c, 0xae, 0xbd, 0x3a, 0xfd, 0x91, 0xbd, 0x35, 0x1d, 0x5e, 0x3e, 0x65, 0xcd, 0xc9, 0x3d, 0x91, 0xf7, 0x6b, 0xbe, 0xa4, 0xb1, 0x4e, 0xbe, 0x98, 0xcf, 0x0e, 0x3e, 0xcd, 0xe8, 0xda, 0x3d, 0x48, 0x15, 0x55, 0x3e, 0xb3, 0xae, 0xc7, 0x3d, 0x08, 0xcd, 0x6b, 0x3e, 0x20, 0x47, 0x1a, 0xbe, 0x19, 0xa0, 0xbc, 0xbd, 0xc0, 0x04, 0x7a, 0xbc, 0x3c, 0xf7, 0x51, 0xbe, 0x00, 0x3f, 0x77, 0xbb, 0x08, 0x50, 0x15, 0xbe, 0x58, 0x89, 0x00, 0x3e, 0x9f, 0x11, 0xaf, 0xba, 0x0d, 0x47, 0x42, 0x3d, 0xc0, 0x1a, 0x22, 0x3e, 0x68, 0x55, 0x16, 0x3e, 0x39, 0xe7, 0x65, 0x3e, 0x52, 0x3b, 0xd5, 0x3d, 0x64, 0xaa, 0x6f, 0xbe, 0x6c, 0x08, 0x5f, 0x3e, 0x68, 0xcd, 0xc4, 0xbd, 0x88, 0x9d, 0xc1, 0x3d, 0x42, 0xf4, 0x1f, 0x3d, 0x40, 0x46, 0xe8, 0x3d, 0x28, 0xb3, 0x36, 0xbe, 0xf8, 0xd0, 0x06, 0xbe, 0xf8, 0xf5, 0x53, 0xbe, 0xe0, 0x87, 0xe8, 0x3d, 0x3c, 0x27, 0x05, 0x3e, 0x80, 0x88, 0x9f, 0x3d, 0x00, 0x3a, 0xb7, 0xbd, 0x13, 0xde, 0x5b, 0xbd, 0x3a, 0x61, 0x3c, 0xbe, 0x99, 0x36, 0x15, 0x3e, 0x00, 0x90, 0x54, 0xbc, 0x46, 0x60, 0x3a, 0x3e, 0x68, 0x30, 0x3a, 0xbe, 0x78, 0xa9, 0x93, 0xbd, 0xf0, 0x1d, 0xa3, 0x3d, 0xb0, 0xd0, 0x28, 0x3e, 0x79, 0xab, 0x3b, 0x3d, 0x87, 0x39, 0x4f, 0xbe, 0x28, 0x23, 0x13, 0xbe, 0xfc, 0x6e, 0xe4, 0xba, 0xfd, 0xc4, 0x53, 0x3e, 0x2c, 0x61, 0x36, 0x3e, 0x32, 0x57, 0x27, 0x3e, 0x40, 0xbd, 0x02, 0xbd, 0x30, 0xcb, 0x0f, 0x3d, 0x58, 0xa4, 0x2c, 0xbe, 0x30, 0x8e, 0x23, 0xbe, 0x3d, 0x1a, 0x34, 0xbd, 0xa8, 0x76, 0xdd, 0x3d, 0xc0, 0x38, 0xeb, 0x3d, 0x52, 0xd7, 0xae, 0x3d, 0xbb, 0x35, 0x9c, 0xbd, 0x51, 0x0f, 0x18, 0xbd, 0xf7, 0x14, 0x56, 0x3e, 0xb2, 0xc8, 0x1b, 0x3e, 0x69, 0x8d, 0x58, 0x3e, 0xaf, 0x68, 0xb3, 0x3d, 0x6b, 0x64, 0x67, 0x3e, 0xd1, 0xa2, 0x7c, 0x3e, 0xbc, 0x79, 0x08, 0x3e, 0x50, 0x99, 0x9b, 0x3d, 0x1a, 0xfe, 0x59, 0x3d, 0xe0, 0xe6, 0x3c, 0x3e, 0x6a, 0x1a, 0x12, 0x3e, 0xe4, 0xba, 0x68, 0xbe, 0xe4, 0x6f, 0x1b, 0x3e, 0xfe, 0x77, 0x14, 0x3e, 0x98, 0xe5, 0x78, 0x3e, 0xf0, 0x43, 0x7c, 0xbe, 0x58, 0xac, 0xaf, 0x3d, 0xe0, 0xd1, 0x83, 0xbc, 0x40, 0x4b, 0xbe, 0xbc, 0x50, 0x82, 0x3f, 0x3d, 0x9d, 0xda, 0xbf, 0x3d, 0x88, 0xaf, 0xa4, 0xbd, 0x70, 0x2a, 0x97, 0x3d, 0x38, 0x67, 0x8b, 0xbd, 0x9e, 0x75, 0x6d, 0xbe, 0xd8, 0x8d, 0x7c, 0xbe, 0xe8, 0x29, 0x2a, 0x3e, 0xa0, 0x96, 0x04, 0x3d, 0x3c, 0x9f, 0x45, 0x3e, 0xda, 0x8c, 0x0c, 0x3e, 0x40, 0x9f, 0x33, 0xbd, 0x28, 0x7b, 0xcd, 0xbd, 0x30, 0x8a, 0x47, 0xbd, 0xc8, 0x7f, 0x26, 0x3e, 0x2c, 0xbd, 0x2d, 0x3e, 0x50, 0xf4, 0x68, 0xbd, 0xb8, 0xaf, 0xa8, 0x3d, 0x40, 0xce, 0xa3, 0xbc, 0xe1, 0xd8, 0x34, 0xbd, 0xff, 0xa4, 0x50, 0x3e, 0x56, 0x77, 0xcc, 0xbc, 0x50, 0xd6, 0x5a, 0x3d, 0x08, 0xf8, 0x80, 0x3e, 0xf8, 0xd6, 0xd5, 0xbd, 0x80, 0x51, 0x3d, 0x3c, 0x20, 0x45, 0xbb, 0x3d, 0x24, 0xd9, 0x61, 0xbe, 0x30, 0xde, 0xed, 0xbd, 0x26, 0x94, 0x2d, 0x3e, 0x90, 0x8d, 0x1a, 0x3d, 0x37, 0x2e, 0x3f, 0xbe, 0x8d, 0x91, 0x72, 0x3e, 0x59, 0x54, 0x00, 0x3e, 0xea, 0x98, 0x59, 0x3e, 0x08, 0xe7, 0xc9, 0x3d, 0xa0, 0x7d, 0x60, 0xbd, 0xc0, 0xd8, 0x46, 0xbd, 0xd0, 0x12, 0x1e, 0x3e, 0x29, 0xf0, 0x5d, 0x3d, 0xe0, 0xd4, 0x83, 0xbc, 0xa0, 0x3c, 0x9f, 0x3c, 0xfe, 0xd5, 0x07, 0x3e, 0x61, 0x49, 0x46, 0x3e, 0x5f, 0xa7, 0xf9, 0x3d, 0x7d, 0x4c, 0x71, 0x3c, 0xdc, 0x3a, 0x0f, 0x3e, 0xa0, 0x37, 0x6c, 0x3e, 0x38, 0xfc, 0xe3, 0xbd, 0x90, 0xfc, 0x0e, 0x3d, 0x00, 0x60, 0x7c, 0x3a, 0xa8, 0xc9, 0xf0, 0x3d, 0xb0, 0x2c, 0x32, 0xbd, 0xf0, 0xb6, 0x51, 0xbe, 0x70, 0xac, 0xcf, 0x3d, 0x80, 0x7d, 0xeb, 0xbd, 0x50, 0x1f, 0x8a, 0xbd, 0xc0, 0x3a, 0x6a, 0xbc, 0xb8, 0x1d, 0xf5, 0x3d, 0x8c, 0x24, 0x4e, 0x3e, 0xf8, 0xb4, 0x2d, 0xbe, 0x24, 0x26, 0x29, 0xbe, 0x94, 0x0f, 0x73, 0xbe, 0xf8, 0xa1, 0xd7, 0xbd, 0x6c, 0xcf, 0x24, 0x3e, 0x44, 0xc7, 0x02, 0xbe, 0x70, 0xc3, 0x16, 0x3d, 0xb0, 0x11, 0xb2, 0x3d, 0xa8, 0xac, 0xcf, 0x3d, 0x9c, 0x2c, 0x79, 0x3e, 0x00, 0xd7, 0xa4, 0xbd, 0x24, 0x87, 0x51, 0xbe, 0x00, 0xe8, 0x44, 0xba, 0xc8, 0xd3, 0x96, 0x3d, 0x74, 0x98, 0x3a, 0xbe, 0x50, 0xcf, 0x1f, 0xbe, 0x74, 0x2a, 0x39, 0xbe, 0xe8, 0xe3, 0x50, 0x3e, 0x88, 0x9a, 0x70, 0xbe, 0xe8, 0x18, 0xc6, 0xbd, 0xb8, 0xe4, 0xc0, 0x3d, 0xfc, 0x7b, 0x09, 0xbe, 0x28, 0x09, 0xaa, 0xbd, 0x98, 0x34, 0x40, 0xbe, 0x60, 0xd9, 0x00, 0xbd, 0xd8, 0x7e, 0xcc, 0x3d, 0x58, 0x7c, 0x13, 0xbe, 0xe4, 0x17, 0x79, 0x3e, 0x94, 0x5f, 0x02, 0xbe, 0x98, 0x82, 0x69, 0x3e, 0x20, 0x75, 0x3a, 0xbd, 0x08, 0x58, 0x59, 0x3e, 0xfc, 0x29, 0x35, 0x3e, 0x8c, 0x7d, 0x35, 0x3e, 0x60, 0xaa, 0xca, 0x3c, 0x88, 0xff, 0xea, 0x3d, 0xd0, 0x98, 0x98, 0x3d, 0x94, 0x48, 0x58, 0xbe, 0xc0, 0x4a, 0x41, 0xbd, 0x8c, 0x89, 0x45, 0x3e, 0xb0, 0xc8, 0x6a, 0xbe, 0xf4, 0x91, 0x28, 0xbe, 0xf0, 0x9f, 0xa7, 0xbd, 0x78, 0xdd, 0x30, 0xbe, 0x00, 0x39, 0xe0, 0x3b, 0x00, 0xcf, 0xb2, 0x3c, 0x48, 0x88, 0x81, 0xbd, 0x10, 0x2a, 0x36, 0xbd, 0x18, 0xe7, 0x5a, 0xbe, 0x50, 0x31, 0x26, 0x3e, 0xb4, 0x75, 0x7c, 0x3e, 0x88, 0x3d, 0x8b, 0x3d, 0xa4, 0xb7, 0x3a, 0x3e, 0xf0, 0xa5, 0x6d, 0x3d, 0x1c, 0xdc, 0x6c, 0x3e, 0x4c, 0xc0, 0x7d, 0xbd, 0x96, 0xc3, 0x4f, 0x3e, 0xc8, 0xcb, 0x17, 0xbe, 0xee, 0x28, 0xc7, 0xbc, 0xc4, 0x43, 0x35, 0x3e, 0xfa, 0x17, 0x3d, 0x3e, 0xda, 0x30, 0xaa, 0x3d, 0xf0, 0x0b, 0x3b, 0xbd, 0xfd, 0xac, 0x1f, 0x3e, 0xda, 0x6e, 0x1a, 0xbe, 0x23, 0x58, 0x10, 0x3d, 0x5d, 0x20, 0x77, 0xbe, 0x6d, 0x0b, 0x83, 0xbd, 0xa4, 0x82, 0x5f, 0xbe, 0x50, 0x83, 0xef, 0xbd, 0xb1, 0x1b, 0xb6, 0x3d, 0xe6, 0x02, 0x19, 0x3e, 0xb8, 0x83, 0x7d, 0xbe, 0x58, 0xa9, 0xa3, 0xbd, 0xbb, 0xef, 0x7f, 0xbd, 0x4c, 0x46, 0x24, 0xbc, 0xab, 0x34, 0xd9, 0xbd, 0xc1, 0xdd, 0x5d, 0xbe, 0x54, 0xfd, 0x41, 0x3e, 0xd0, 0x9d, 0x3c, 0xbe, 0x2c, 0x1a, 0x61, 0x3e, 0x6d, 0x11, 0x64, 0x3e, 0xbc, 0x52, 0x05, 0xbe, 0x18, 0xfc, 0x40, 0xbc, 0xc9, 0x2d, 0x73, 0x3e, 0xc0, 0x59, 0x3a, 0xbd, 0x77, 0x7b, 0x61, 0xbe, 0xf0, 0x26, 0x41, 0xbe, 0x70, 0x3d, 0x5a, 0xbd, 0x20, 0x81, 0xf7, 0x3d, 0x64, 0x56, 0xc1, 0x3d, 0x60, 0xe3, 0xa4, 0x3c, 0xeb, 0xcd, 0x27, 0x3e, 0x1f, 0xc7, 0x1a, 0x3e, 0x72, 0x5f, 0xa1, 0x3d, 0x6b, 0x84, 0x8c, 0xbc, 0x98, 0x5c, 0x88, 0x3d, 0x00, 0x61, 0x05, 0x3d, 0x34, 0x32, 0x4a, 0xbe, 0x50, 0x97, 0xc8, 0xbd, 0x2c, 0x6d, 0x21, 0x3e, 0x88, 0x05, 0x36, 0x3e, 0x30, 0x70, 0x89, 0xbd, 0x7e, 0x73, 0x75, 0xbd, 0x12, 0x23, 0xc6, 0x3d, 0x71, 0x30, 0xc4, 0xbc, 0x26, 0x57, 0xad, 0x3d, 0xe8, 0x88, 0x85, 0xbd, 0x91, 0x85, 0x39, 0x3e, 0x47, 0xb2, 0xc2, 0x3c, 0xac, 0xbe, 0x37, 0x3e, 0x60, 0xbc, 0x9e, 0xbc, 0xa0, 0x8b, 0x58, 0xbe, 0x98, 0x69, 0x22, 0x3e, 0x28, 0x8a, 0x35, 0xbe, 0xd8, 0x84, 0x57, 0xbe, 0xa0, 0x93, 0x93, 0xbc, 0x4c, 0x21, 0x33, 0xbe, 0x98, 0x30, 0x66, 0xbe, 0xcc, 0xf9, 0x6c, 0xbd, 0x53, 0x73, 0x21, 0xbc, 0x10, 0xc5, 0xf1, 0xbd, 0xa2, 0x90, 0x28, 0x3e, 0x90, 0x66, 0xd5, 0x3d, 0xb3, 0xfa, 0x1b, 0x3e, 0x1e, 0x57, 0x42, 0x3e, 0xf0, 0x62, 0xf0, 0xbd, 0x34, 0xd5, 0x1f, 0xbe, 0xd3, 0x4f, 0x57, 0x3d, 0x0c, 0x04, 0x1d, 0x3e, 0x6d, 0x1f, 0x74, 0x3e, 0xe5, 0x4b, 0x9c, 0xbd, 0x90, 0xdf, 0x8c, 0x3d, 0x10, 0x25, 0xb4, 0xbd, 0x33, 0xb1, 0x55, 0xbe, 0xcc, 0xe5, 0x67, 0x3d, 0x44, 0x93, 0x2b, 0xbe, 0xa8, 0x45, 0x0e, 0x3e, 0x9f, 0x80, 0xd6, 0x3d, 0xb6, 0xa5, 0x12, 0xbe, 0x2f, 0x20, 0x56, 0x3e, 0x24, 0x4d, 0x09, 0x3e, 0x6c, 0xe5, 0x52, 0x3e, 0x10, 0x3d, 0xe6, 0xbd, 0x5e, 0x18, 0xc9, 0x3d, 0x95, 0x76, 0xf1, 0x3c, 0x78, 0x70, 0x33, 0xbe, 0x1c, 0x9f, 0x80, 0xbd, 0xc3, 0x72, 0x13, 0xbe, 0x32, 0x06, 0x51, 0x3e, 0x6f, 0x93, 0x4a, 0x3e, 0xa4, 0x44, 0x48, 0xbe, 0x70, 0x26, 0x6a, 0x3d, 0x90, 0x2f, 0xfe, 0x3d, 0xc9, 0x50, 0xa0, 0x3d, 0x80, 0x3b, 0x0b, 0xbd, 0x28, 0x9a, 0x3f, 0x3c, 0xc0, 0xbd, 0xa8, 0x3d, 0xd4, 0x77, 0xc1, 0xbd, 0x60, 0x62, 0x6a, 0xbe, 0xa0, 0x82, 0x14, 0x3e, 0x6c, 0x0c, 0x08, 0xbe, 0xc2, 0xfb, 0x7b, 0xbe, 0x50, 0xf7, 0x75, 0xbe, 0x44, 0x62, 0x53, 0x3e, 0xa4, 0xd4, 0x68, 0x3e, 0x8c, 0xe4, 0x04, 0x3e, 0x68, 0x2f, 0x62, 0xbe, 0x3f, 0x13, 0x13, 0x3e, 0xf3, 0x63, 0x60, 0xbe, 0x98, 0xeb, 0x21, 0x3b, 0x30, 0x6b, 0x31, 0x3e, 0xae, 0xe5, 0x96, 0xbd, 0x2e, 0xf8, 0xc5, 0x3c, 0xe8, 0xf7, 0xa4, 0x3d, 0x84, 0xe6, 0x68, 0xbe, 0x8c, 0x54, 0x50, 0x3e, 0xc8, 0x49, 0xd7, 0x3d, 0xa8, 0x2b, 0x69, 0xbe, 0x40, 0xfc, 0x7b, 0xbc, 0x80, 0xdd, 0x98, 0xbb, 0x20, 0x1f, 0x3d, 0xbe, 0x40, 0x18, 0x65, 0x3c, 0x20, 0xa4, 0x42, 0xbe, 0xc8, 0x13, 0x45, 0xbe, 0xa0, 0x2d, 0xf1, 0xbd, 0xf0, 0x5c, 0xf2, 0x3d, 0xf0, 0xd2, 0x4c, 0xbd, 0xbc, 0x44, 0x67, 0xbe, 0xa8, 0x6d, 0xe6, 0xbd, 0xb4, 0x8b, 0x2b, 0x3e, 0x30, 0xc9, 0xc6, 0xbd, 0xc0, 0x60, 0xdb, 0xbd, 0x98, 0x6b, 0x1c, 0xbe, 0x80, 0x0d, 0x1d, 0xbd, 0xe4, 0x8b, 0x00, 0xbe, 0x08, 0xb0, 0x84, 0xbd, 0x40, 0x21, 0x94, 0x3c, 0xb0, 0xe3, 0x5a, 0xbd, 0x00, 0x52, 0x1e, 0xbe, 0xd8, 0x17, 0xa1, 0x3d, 0xc4, 0xfc, 0x1d, 0x3e, 0xc0, 0x3f, 0x9b, 0xbc, 0xa8, 0x11, 0x85, 0x3d, 0x60, 0x64, 0x4b, 0x3d, 0x80, 0x99, 0xd7, 0xbb, 0xd8, 0x6a, 0xce, 0x3d, 0x94, 0xf3, 0x6c, 0xbe, 0x70, 0x75, 0x15, 0x3d, 0x4c, 0x2f, 0x23, 0x3e, 0x50, 0x4e, 0x4d, 0x3d, 0xb4, 0xd7, 0x33, 0x3e, 0xc0, 0xa5, 0x3b, 0xbd, 0x50, 0xf7, 0x48, 0x3d, 0xd8, 0x24, 0xaf, 0xbd, 0x08, 0xd1, 0x5a, 0xbe, 0xc0, 0xaa, 0x76, 0xbc, 0xb0, 0xaa, 0xb5, 0xbd, 0xd0, 0xff, 0xa4, 0x3d, 0x50, 0x68, 0x22, 0x3d, 0xe8, 0x17, 0xe0, 0x3d, 0x54, 0x81, 0x3e, 0x3e, 0x70, 0x91, 0x2e, 0x3e, 0x10, 0xfb, 0x58, 0xbd, 0xc8, 0xe1, 0xb2, 0xbd, 0x38, 0xcd, 0x77, 0xbe, 0x20, 0x05, 0x8e, 0xbc, 0xd0, 0x77, 0x62, 0xbe, 0xa0, 0xcc, 0x10, 0x3d, 0x38, 0xe9, 0x3a, 0x3e, 0xe0, 0xa5, 0x61, 0xbe, 0x18, 0x23, 0xf6, 0xbd, 0x98, 0x16, 0x39, 0x3e, 0xe8, 0xef, 0x42, 0xbe, 0x00, 0x5b, 0x35, 0xbd, 0x18, 0x85, 0x0c, 0xbe, 0xc0, 0x61, 0xbb, 0xbc, 0x20, 0xe5, 0x74, 0xbd, 0x00, 0xb9, 0x30, 0xbd, 0xe4, 0x09, 0x3c, 0x3e, 0x60, 0x94, 0x15, 0xbd, 0xa0, 0x1a, 0x35, 0xbe, 0xec, 0x25, 0x63, 0xbe, 0x90, 0x9e, 0xdb, 0x3d, 0x0c, 0x81, 0x47, 0xbe, 0x54, 0xe5, 0x15, 0x3e, 0xb8, 0x2e, 0x26, 0x3e, 0x70, 0x9a, 0x33, 0x3e, 0x38, 0x0b, 0xdf, 0x3d, 0xb0, 0x46, 0x45, 0xbe, 0x24, 0xc5, 0x59, 0xbe, 0xe0, 0x2a, 0x8f, 0x3c, 0x18, 0xfe, 0xd5, 0x3d, 0x88, 0x63, 0x66, 0x3e, 0x94, 0xcf, 0x6a, 0xbe, 0x34, 0x8b, 0x35, 0xbe, 0xb0, 0x7d, 0xe3, 0xbd, 0xc0, 0xe3, 0x4f, 0x3e, 0x48, 0xb9, 0x8e, 0xbd, 0x80, 0xa7, 0xff, 0x3c, 0x18, 0x90, 0x24, 0xbe, 0x80, 0x55, 0xb1, 0x3d, 0x68, 0x72, 0xc6, 0x3d, 0x78, 0x68, 0x08, 0x3e, 0x48, 0xbc, 0x69, 0x3e, 0x6c, 0xd8, 0x34, 0xbe, 0x40, 0x8e, 0x85, 0x3c, 0x80, 0xd3, 0x3b, 0xbc, 0xb0, 0x24, 0xae, 0xbd, 0xf8, 0x20, 0x89, 0x3d, 0xe0, 0x20, 0x1a, 0x3e, 0xfc, 0xe4, 0x3b, 0xbe, 0xac, 0x86, 0x2b, 0xbe, 0x20, 0xb4, 0x86, 0x3c, 0x08, 0x1e, 0xab, 0xbd, 0xdc, 0x3b, 0x22, 0xbe, 0x68, 0xc3, 0x6c, 0x3e, 0xdc, 0x6b, 0x65, 0x3e, 0x38, 0x52, 0x40, 0xbe, 0x00, 0x7b, 0x0c, 0xbe, 0xf0, 0x83, 0xb4, 0xbd, 0x38, 0x0e, 0x5c, 0xbe, 0x44, 0x01, 0x7e, 0xbe, 0x28, 0x8b, 0x9e, 0x3d, 0xd8, 0x2b, 0x87, 0x3d, 0xc8, 0x35, 0x18, 0x3e, 0x20, 0xaa, 0xbb, 0xbd, 0x00, 0x67, 0x1d, 0xbb, 0x68, 0x2b, 0x28, 0xbe, 0x90, 0x0a, 0x4d, 0x3d, 0xd0, 0x20, 0x39, 0xbe, 0x60, 0x38, 0xe3, 0xbc, 0x80, 0x75, 0xe2, 0x3d, 0x80, 0x59, 0x09, 0x3e, 0x20, 0xec, 0xbe, 0x3d, 0x18, 0x45, 0x71, 0xbe, 0xd0, 0x76, 0x65, 0x3d, 0xac, 0xc8, 0x4e, 0xbe, 0x94, 0xd8, 0x3a, 0x3e, 0xd0, 0x78, 0x1a, 0xbd, 0x68, 0x49, 0x40, 0x3e, 0x24, 0x85, 0x2d, 0xbe, 0x68, 0x3e, 0xdd, 0x3d, 0xe4, 0x3a, 0x03, 0x3e, 0x64, 0x28, 0x6f, 0xbe, 0x80, 0xac, 0x1b, 0x3e, 0x28, 0xa9, 0x1b, 0x3e, 0xc0, 0x71, 0x85, 0xbc, 0xcc, 0x3a, 0x44, 0xbe, 0x74, 0x06, 0x25, 0x3e, 0x48, 0x95, 0xb9, 0x3d, 0xd0, 0x77, 0x79, 0xbe, 0x20, 0x12, 0xed, 0xbd, 0x70, 0x6a, 0x14, 0xbd, 0xc0, 0x8b, 0x9f, 0x3c, 0xb4, 0xe0, 0x49, 0xbe, 0x34, 0x74, 0x28, 0xbe, 0xb4, 0xde, 0x23, 0x3e, 0x5c, 0x53, 0x0d, 0x3e, 0x10, 0xb3, 0xd6, 0xbd, 0xc0, 0xc2, 0x02, 0x3c, 0x28, 0xd2, 0x72, 0xbe, 0xf8, 0x1d, 0x88, 0x3d, 0x68, 0x5e, 0x5e, 0x3e, 0xd0, 0x32, 0xc5, 0x3d, 0xc4, 0x86, 0x0b, 0x3e, 0x00, 0x3c, 0x00, 0xbe, 0x20, 0x28, 0xcf, 0xbd, 0x90, 0x82, 0x2c, 0xbd, 0xb4, 0xef, 0x28, 0xbe, 0x90, 0x97, 0x46, 0xbe, 0x00, 0x24, 0x5d, 0x3d, 0x80, 0x34, 0xf8, 0xbb, 0x34, 0xde, 0x43, 0xbe, 0x9c, 0x00, 0x00, 0xbe, 0xa0, 0xe6, 0x17, 0x3e, 0xe0, 0xa3, 0x7a, 0xbe, 0x80, 0x25, 0x65, 0x3c, 0x68, 0x1d, 0x2e, 0xbe, 0x00, 0x5e, 0xaf, 0x3b, 0x78, 0x7c, 0x80, 0x3d, 0x48, 0x5f, 0x7a, 0x3e, 0x74, 0x9a, 0x0e, 0x3e, 0xc4, 0xb6, 0x22, 0x3e, 0x48, 0x40, 0xcf, 0xbd, 0x60, 0x67, 0xd8, 0xbd, 0xb0, 0x6a, 0x52, 0x3d, 0xb8, 0x83, 0x3f, 0xbe, 0x34, 0x13, 0x3a, 0x3e, 0x30, 0xe7, 0x3f, 0x3e, 0xe0, 0x4a, 0xfd, 0x3c, 0x00, 0x5b, 0xe0, 0xbd, 0xc0, 0x31, 0x05, 0x3e, 0x00, 0xc2, 0xd3, 0xbc, 0x50, 0x4c, 0x66, 0xbd, 0xa8, 0x64, 0x03, 0xbe, 0x80, 0x72, 0x55, 0xbe, 0x00, 0x15, 0x95, 0xbc, 0x4c, 0x6a, 0x7d, 0xbe, 0x6c, 0x5d, 0x73, 0x3e, 0x64, 0x0f, 0x5c, 0x3e, 0x14, 0xc5, 0x22, 0xbe, 0x80, 0xa6, 0x8e, 0xbd, 0xf0, 0xe1, 0x59, 0x3d, 0x00, 0x03, 0xbd, 0xbb, 0x60, 0x65, 0x8a, 0x3d, 0x1c, 0x1f, 0x58, 0x3e, 0x8c, 0x29, 0x46, 0xbe, 0x40, 0x15, 0xfe, 0x3c, 0xd0, 0x87, 0xc9, 0x3d, 0x5b, 0xa7, 0x86, 0xbc, 0x66, 0xa8, 0xe2, 0xbb, 0x8a, 0x35, 0xda, 0x3d, 0xb2, 0x86, 0x91, 0xbd, 0x57, 0x49, 0x07, 0xbe, 0x30, 0xab, 0x4f, 0xbe, 0x8c, 0x77, 0x35, 0xbe, 0x58, 0xb3, 0xe6, 0xbd, 0x90, 0x85, 0xc6, 0x3d, 0xc6, 0x28, 0xb9, 0xbc, 0x00, 0xa9, 0xb8, 0xbc, 0xa0, 0x4b, 0xc7, 0xbd, 0x88, 0x80, 0xa2, 0xbd, 0x48, 0x2c, 0x7b, 0x3e, 0xf0, 0x45, 0xa8, 0xbd, 0xd0, 0xb5, 0x48, 0xbe, 0x08, 0xbd, 0x1d, 0x3e, 0x80, 0xb3, 0x11, 0xbc, 0xa8, 0x57, 0x76, 0xbe, 0x99, 0x6e, 0xc4, 0x3d, 0x60, 0xc3, 0x71, 0x3d, 0xa0, 0x35, 0x83, 0xbd, 0xb3, 0xff, 0x80, 0x3e, 0x78, 0x7a, 0xad, 0x3d, 0x64, 0x40, 0x14, 0x3e, 0x14, 0xb8, 0x01, 0x3e, 0x10, 0x2c, 0x48, 0x3e, 0x70, 0x72, 0x21, 0x3e, 0xd5, 0x89, 0x1c, 0xbd, 0x74, 0x99, 0xcb, 0x3d, 0x9c, 0x41, 0x18, 0xbe, 0x20, 0x5c, 0xd8, 0x3d, 0x51, 0x10, 0x56, 0xbe, 0x78, 0x61, 0xb1, 0x3d, 0x18, 0x17, 0xcf, 0xbd, 0xc0, 0x65, 0x00, 0xbd, 0x3c, 0xb4, 0x7f, 0x3e, 0x08, 0x26, 0x41, 0x3d, 0xac, 0xde, 0x8f, 0x3d, 0x75, 0x2f, 0x5d, 0xbd, 0xe0, 0x46, 0x1a, 0x3d, 0x9f, 0xce, 0x0a, 0x3e, 0x54, 0xbf, 0x3e, 0xbe, 0x3c, 0x21, 0x2d, 0xbe, 0x04, 0x53, 0x01, 0x3e, 0x64, 0x5f, 0x75, 0xbe, 0x4a, 0x6b, 0xad, 0xbd, 0x76, 0x8f, 0x12, 0xbd, 0x08, 0xf8, 0xdb, 0xbd, 0x45, 0x9c, 0x8d, 0xbd, 0xe0, 0xa3, 0xd5, 0x3d, 0x5e, 0x0f, 0xc2, 0xbd, 0xbc, 0x45, 0x87, 0x3d, 0xa0, 0xdf, 0x05, 0xbd, 0x40, 0xff, 0xdc, 0xbd, 0x10, 0xa2, 0x86, 0xbd, 0xd0, 0xd7, 0x34, 0x3e, 0x4e, 0x84, 0x3d, 0xbb, 0x28, 0xbb, 0x6c, 0xbe, 0xf8, 0x4c, 0x44, 0xbe, 0xfd, 0x9c, 0x57, 0x3e, 0x38, 0x2f, 0x9f, 0x3c, 0xa1, 0x5f, 0x47, 0x3e, 0xfb, 0x23, 0x57, 0xbe, 0xa8, 0x3f, 0x80, 0x3d, 0xe8, 0x20, 0x05, 0x3e, 0xb0, 0xf7, 0xad, 0xbd, 0xd8, 0x12, 0x41, 0xbe, 0x38, 0xc3, 0x35, 0xbe, 0x6e, 0xb5, 0x8e, 0x3d, 0x12, 0xe0, 0x39, 0x3e, 0xc0, 0x20, 0x5e, 0x3d, 0xca, 0x89, 0x05, 0x3e, 0x90, 0x53, 0x5b, 0x3e, 0xc3, 0x8d, 0xe7, 0x3d, 0xa1, 0xa0, 0x67, 0xbe, 0x28, 0x68, 0xc3, 0xbd, 0x19, 0x7a, 0x4e, 0x3e, 0x29, 0x5e, 0x05, 0xbe, 0x58, 0x67, 0xfc, 0x3d, 0x90, 0x97, 0x45, 0xbe, 0x1e, 0x12, 0xc8, 0x3c, 0xb0, 0xe3, 0xd2, 0x3d, 0xb0, 0xb1, 0x12, 0xbd, 0xcb, 0x60, 0x5c, 0x3e, 0xf8, 0xb5, 0x6e, 0x3e, 0xcc, 0x95, 0x39, 0x3e, 0x7c, 0xe0, 0x0a, 0xbe, 0x4f, 0xeb, 0x66, 0x3e, 0x1b, 0x04, 0x32, 0x3e, 0x21, 0xdf, 0x7a, 0x3e, 0xb8, 0x02, 0x31, 0x3d, 0x44, 0x54, 0x7b, 0x3e, 0x40, 0x4c, 0x4f, 0x3c, 0xc6, 0xbb, 0x69, 0xbd, 0x23, 0xd6, 0xac, 0x3d, 0x04, 0xeb, 0x21, 0xbe, 0x0d, 0x9f, 0x51, 0xbe, 0xe0, 0xdc, 0xd1, 0x3d, 0x2e, 0xa7, 0x4d, 0xbe, 0x05, 0x79, 0x6a, 0xbe, 0x98, 0x9f, 0xcb, 0xbd, 0xf8, 0x53, 0xfb, 0xbd, 0x5c, 0x5a, 0x68, 0x3e, 0x16, 0x49, 0x74, 0x3e, 0x54, 0x77, 0x50, 0x3e, 0x98, 0x6a, 0x51, 0x3e, 0xb7, 0xae, 0x57, 0x3e, 0xff, 0xad, 0xd8, 0x3b, 0x12, 0x6e, 0xfc, 0x3c, 0x98, 0x66, 0xdc, 0x3d, 0x20, 0xd1, 0xe4, 0xbd, 0x26, 0xb2, 0x2a, 0x3e, 0x30, 0x60, 0xfc, 0xbd, 0xa0, 0x69, 0x57, 0x3d, 0xb0, 0x22, 0x7d, 0xbd, 0xc0, 0x4b, 0x2c, 0x3d, 0x2b, 0xac, 0x25, 0x3e, 0x24, 0x3f, 0x77, 0xbe, 0x4f, 0x31, 0x31, 0xbe, 0xf8, 0xa5, 0x41, 0xbe, 0x80, 0x52, 0x32, 0xbe, 0x2d, 0x10, 0x3c, 0xbe, 0xd8, 0x8a, 0xdf, 0x3d, 0xdc, 0x87, 0x1d, 0xbe, 0xc8, 0x99, 0x62, 0xbe, 0x5c, 0xbf, 0x64, 0x3e, 0x40, 0x0b, 0x19, 0x3d, 0x78, 0xc3, 0x52, 0xbe, 0x14, 0x0c, 0x13, 0x3e, 0x80, 0xcb, 0x3a, 0x3c, 0xe0, 0x01, 0x22, 0x3e, 0x90, 0xcd, 0xa0, 0x3d, 0x13, 0x1b, 0xcf, 0x3d, 0xad, 0xf4, 0xea, 0x3c, 0x90, 0x9d, 0x53, 0xbe, 0x8b, 0x40, 0x22, 0x3e, 0x08, 0xe6, 0x32, 0xbe, 0x7c, 0x4e, 0xf3, 0xbc, 0x81, 0x52, 0x43, 0x3e, 0x70, 0xd7, 0x3c, 0x3e, 0xc5, 0x56, 0x17, 0xbe, 0xdd, 0x1f, 0x21, 0x3e, 0x4f, 0x1f, 0xcf, 0x3d, 0x68, 0x4c, 0x18, 0x3e, 0x75, 0x14, 0x23, 0x3d, 0x08, 0x04, 0x39, 0xbe, 0x1c, 0x16, 0x6d, 0xbe, 0xca, 0xf6, 0xb5, 0x3c, 0xcd, 0xa3, 0x9b, 0x3c, 0x68, 0x16, 0x56, 0x3e, 0x70, 0x7b, 0xa2, 0xbd, 0xe3, 0x95, 0xe9, 0x3d, 0xf8, 0x17, 0x18, 0xbe, 0xb6, 0x84, 0xc5, 0xbd, 0x74, 0xa7, 0xae, 0xbd, 0x14, 0x70, 0x22, 0xbe, 0x90, 0xcf, 0xea, 0x3d, 0xea, 0x43, 0x92, 0x3b, 0xb4, 0x80, 0xd2, 0xbd, 0x30, 0x83, 0x28, 0xbe, 0xb8, 0x70, 0x90, 0xbd, 0x7e, 0xb0, 0x4f, 0x3d, 0x16, 0x41, 0x45, 0xbd, 0x38, 0x89, 0x49, 0x3e, 0xc0, 0x1a, 0xf8, 0xbc, 0x70, 0x1f, 0x49, 0x3d, 0xd4, 0x53, 0x4c, 0xbe, 0xe2, 0xf1, 0x37, 0x3e, 0xe4, 0xf8, 0x14, 0x3e, 0xbb, 0xb2, 0x6f, 0x3e, 0x7d, 0x36, 0x50, 0x3d, 0x05, 0x55, 0xa6, 0xbd, 0x11, 0x18, 0xc9, 0xbd, 0x88, 0x1e, 0x37, 0xbe, 0x00, 0x9e, 0x9f, 0x3c, 0xe3, 0xa1, 0x4c, 0x3e, 0x30, 0x3b, 0x7e, 0x3d, 0x98, 0x8d, 0x99, 0x3d, 0xf8, 0x5b, 0xd2, 0xbd, 0x94, 0x8a, 0x60, 0xbe, 0xaa, 0x09, 0x32, 0x3e, 0x62, 0x0d, 0x8b, 0xbb, 0x5c, 0x56, 0x5e, 0x3d, 0x83, 0xd0, 0xc8, 0xbd, 0x18, 0xca, 0x5c, 0x3e, 0xb7, 0xe9, 0x79, 0xbe, 0x33, 0xbc, 0x3a, 0xbe, 0xe4, 0xec, 0x2c, 0x3e, 0x64, 0xfc, 0x22, 0xbe, 0x70, 0x27, 0x6e, 0xbe, 0x60, 0x54, 0x69, 0xbe, 0x48, 0x01, 0x57, 0xbe, 0xec, 0x50, 0x35, 0x3e, 0x40, 0x96, 0x19, 0xbe, 0xa4, 0xf4, 0x02, 0x3e, 0x18, 0x05, 0x4d, 0xbe, 0x14, 0x01, 0x6e, 0xbe, 0x90, 0x28, 0x46, 0xbe, 0x4c, 0x8e, 0x5a, 0xbe, 0x88, 0xd3, 0x37, 0x3e, 0x10, 0xc2, 0x31, 0xbe, 0x40, 0x3b, 0x2c, 0xbc, 0xc8, 0x9d, 0x5e, 0x3e, 0xa0, 0xe8, 0x46, 0x3d, 0x68, 0xee, 0xb5, 0x3d, 0x20, 0x00, 0x2e, 0xbd, 0xe0, 0x17, 0xd5, 0xbd, 0xf0, 0xee, 0xac, 0x3d, 0x60, 0xf0, 0x21, 0xbe, 0xd0, 0x85, 0x77, 0x3e, 0x10, 0xa6, 0x08, 0x3e, 0xd4, 0x50, 0x19, 0xbe, 0x40, 0x66, 0xb7, 0x3d, 0x00, 0xc0, 0x44, 0x39, 0x10, 0xa5, 0x5a, 0x3e, 0x40, 0xfd, 0x4e, 0x3d, 0x00, 0x20, 0xfe, 0xba, 0x80, 0x9b, 0x36, 0x3c, 0x04, 0x82, 0x52, 0x3e, 0x00, 0x08, 0x6c, 0xba, 0x98, 0x4e, 0xd2, 0x3d, 0x70, 0xed, 0x13, 0xbe, 0x28, 0xc9, 0xee, 0x3d, 0xf0, 0xad, 0x4e, 0xbd, 0x00, 0x25, 0x60, 0xbe, 0x00, 0xaf, 0x3c, 0xbd, 0xa8, 0xe8, 0x9b, 0xbd, 0x80, 0xa0, 0xad, 0x3b, 0x90, 0x3c, 0xf2, 0x3d, 0x90, 0xa3, 0x6d, 0xbd, 0xa8, 0x5e, 0x56, 0x3e, 0x38, 0x31, 0x8d, 0xbd, 0xf4, 0x48, 0x06, 0xbe, 0x94, 0xdf, 0x45, 0x3e, 0x30, 0x33, 0x5c, 0x3e, 0x5c, 0xe8, 0x45, 0xbe, 0xb0, 0x54, 0x37, 0xbd, 0x68, 0xf9, 0xc1, 0x3d, 0x14, 0x24, 0x72, 0x3e, 0x5c, 0xb6, 0x35, 0x3e, 0xc8, 0x20, 0x0d, 0xbe, 0x70, 0x88, 0x4e, 0xbe, 0x04, 0x89, 0x4c, 0xbe, 0x0c, 0xbf, 0x67, 0x3e, 0xa0, 0x99, 0x9a, 0x3c, 0xcc, 0x4a, 0x44, 0x3e, 0xc0, 0x78, 0x88, 0xbd, 0xd0, 0xaf, 0x01, 0xbe, 0xd8, 0xee, 0x84, 0x3d, 0x00, 0x88, 0x1c, 0xbe, 0x20, 0xfa, 0xe8, 0xbd, 0x40, 0x6f, 0x33, 0xbe, 0x40, 0xc1, 0x55, 0xbd, 0x74, 0xb5, 0x77, 0x3e, 0xfc, 0xa1, 0x02, 0x3e, 0xee, 0xfc, 0xa9, 0x3d, 0xa8, 0x2a, 0x02, 0xbe, 0x83, 0x19, 0xc8, 0x3d, 0xa8, 0xdc, 0x4c, 0x3e, 0x51, 0x28, 0x47, 0xbe, 0xb0, 0x2e, 0xd3, 0x3d, 0xf9, 0x10, 0x86, 0x3c, 0x0d, 0x66, 0x53, 0x3e, 0x24, 0xe2, 0x45, 0xbe, 0x18, 0xd4, 0x22, 0x3d, 0x65, 0x16, 0x52, 0x3e, 0x1c, 0x22, 0xdd, 0x3d, 0x93, 0x7f, 0x45, 0xbd, 0xc2, 0xe6, 0x20, 0xbe, 0x4b, 0x3b, 0x7f, 0x3c, 0xc6, 0x9b, 0xef, 0x3d, 0x48, 0x8d, 0x6d, 0x3d, 0x7c, 0x12, 0x14, 0xbe, 0xfa, 0x89, 0x1a, 0xbe, 0xd1, 0x64, 0x3a, 0xbe, 0x86, 0xb9, 0x3c, 0x3e, 0xf6, 0x36, 0x09, 0x3e, 0xe6, 0x4c, 0x61, 0x3e, 0xe3, 0xfe, 0x0e, 0xbd, 0xcd, 0x6b, 0x90, 0xbd, 0xe4, 0x5d, 0x42, 0xbe, 0x7a, 0x08, 0x2f, 0xbe, 0x08, 0xfb, 0x44, 0x3c, 0x02, 0xaa, 0xdd, 0x3b, 0xe1, 0x10, 0x76, 0xbe, 0x16, 0x25, 0xeb, 0x3d, 0x1f, 0xad, 0x80, 0x3e, 0x4a, 0x86, 0x23, 0x3c, 0x0c, 0x2c, 0x8b, 0xbd, 0xf3, 0x2a, 0x71, 0x3e, 0x75, 0x6e, 0x53, 0x3e, 0x80, 0x20, 0x9d, 0x3d, 0x62, 0x3a, 0x6e, 0x3d, 0x30, 0x6b, 0x58, 0xbe, 0x05, 0xc5, 0x2e, 0x3e, 0x40, 0x1f, 0x39, 0xbd, 0x6b, 0xd5, 0x28, 0xbe, 0xff, 0x96, 0x07, 0xbd, 0xa2, 0x63, 0xb4, 0x3a, 0xf5, 0x02, 0x16, 0x3e, 0xb5, 0xc2, 0x37, 0xbe, 0x88, 0xe1, 0x4d, 0x3e, 0xa8, 0x95, 0x24, 0xbe, 0xaf, 0x84, 0x0e, 0xbe, 0x35, 0xb9, 0x69, 0x3e, 0x7d, 0xe7, 0x0b, 0xbe, 0x17, 0x3a, 0x69, 0x3e, 0x33, 0x4c, 0x4f, 0xbd, 0x3b, 0x19, 0x43, 0xbe, 0x83, 0x8b, 0x42, 0xbe, 0x3c, 0x43, 0x5f, 0xbd, 0xca, 0xaf, 0xbe, 0x3d, 0xbd, 0x13, 0x88, 0x3d, 0x55, 0x5a, 0x57, 0x3d, 0x40, 0x0f, 0xdf, 0x3c, 0xd6, 0x46, 0xf6, 0x3d, 0x0d, 0xcb, 0xa9, 0xbd, 0x93, 0x3c, 0x69, 0x3d, 0x57, 0xb1, 0x45, 0x3e, 0xc8, 0xd1, 0x8c, 0x3d, 0xc0, 0x53, 0xf2, 0xbd, 0x90, 0x4c, 0x7f, 0xbe, 0x28, 0x69, 0x90, 0xbd, 0xd8, 0x8b, 0x1f, 0xbe, 0x78, 0xfa, 0x2e, 0x3e, 0x94, 0x1a, 0x28, 0xbe, 0x10, 0x75, 0x14, 0x3d, 0x08, 0xf6, 0xe8, 0x3d, 0xa4, 0xa4, 0x33, 0xbe, 0x50, 0x81, 0xa9, 0xbd, 0x0c, 0x7b, 0x45, 0xbe, 0xc4, 0xa9, 0x0d, 0xbe, 0x50, 0x21, 0x30, 0x3d, 0x78, 0x94, 0x71, 0xbe, 0x30, 0x39, 0x45, 0x3e, 0xc0, 0x1c, 0x8a, 0x3c, 0x80, 0x53, 0x56, 0xbc, 0x20, 0xac, 0xb3, 0x3c, 0x88, 0x5d, 0x82, 0xbd, 0x50, 0xdb, 0x4a, 0x3e, 0xa0, 0x5a, 0xcf, 0xbd, 0xb0, 0x06, 0xc7, 0x3d, 0x68, 0xe1, 0x62, 0xbe, 0x30, 0x3b, 0xc8, 0x3d, 0x9c, 0xe7, 0x40, 0x3e, 0x8c, 0xd3, 0x4d, 0x3e, 0xac, 0x42, 0x48, 0xbe, 0x20, 0x1c, 0x03, 0xbd, 0xd8, 0x81, 0x8b, 0x3d, 0xd8, 0xb6, 0x01, 0xbe, 0x94, 0x06, 0x2b, 0x3e, 0x00, 0x06, 0x4c, 0xbd, 0x58, 0xd3, 0xdc, 0xbd, 0x00, 0x8d, 0xae, 0xbb, 0xdc, 0x83, 0x1f, 0x3e, 0xf0, 0xcb, 0xf4, 0x3d, 0x20, 0xda, 0x86, 0xbd, 0x70, 0x01, 0x4e, 0xbe, 0xd0, 0xc7, 0x21, 0x3e, 0x80, 0x25, 0x11, 0xbc, 0xec, 0x99, 0x57, 0x3e, 0xdc, 0xbc, 0x50, 0xbe, 0x70, 0x5b, 0xac, 0xbd, 0x80, 0x68, 0x08, 0xbe, 0x80, 0x05, 0xed, 0xbd, 0x7c, 0x9d, 0x28, 0x3e, 0xc8, 0x5f, 0xef, 0xbd, 0x10, 0x3e, 0xd1, 0xbd, 0x0c, 0x36, 0x4f, 0x3e, 0x34, 0x15, 0x60, 0x3e, 0xdc, 0x2c, 0x1a, 0xbe, 0x08, 0x7f, 0x85, 0xbd, 0x38, 0x02, 0x73, 0xbe, 0xf8, 0xda, 0x89, 0xbd, 0x40, 0xc3, 0xca, 0xbd, 0x5c, 0xb0, 0x29, 0xbe, 0x60, 0x97, 0x0e, 0xbe, 0x8c, 0x57, 0x6f, 0x3e, 0x80, 0x44, 0x47, 0xbe, 0x54, 0x80, 0x36, 0x3e, 0x80, 0x43, 0x24, 0x3d, 0x14, 0x91, 0x76, 0x3e, 0x90, 0x5f, 0x26, 0xbe, 0x93, 0x9a, 0x3d, 0xbe, 0xf5, 0xf4, 0x88, 0x3d, 0x74, 0x87, 0x2b, 0x3e, 0x94, 0x10, 0xed, 0x3d, 0x2b, 0x3d, 0x46, 0xbd, 0xf6, 0xc7, 0x57, 0x3e, 0x87, 0x38, 0x67, 0x3e, 0xb1, 0x15, 0x3c, 0x3e, 0x2f, 0xcf, 0x75, 0x3d, 0xfa, 0xed, 0x50, 0x3e, 0xe9, 0xb1, 0xba, 0x3b, 0xf7, 0xa8, 0x9d, 0xbd, 0x63, 0x41, 0x60, 0x3d, 0x12, 0x20, 0x01, 0x3d, 0xc5, 0xb9, 0x26, 0x3e, 0x17, 0x4c, 0x2f, 0xbe, 0x5b, 0x8a, 0xbd, 0x3d, 0xbd, 0x1d, 0x1c, 0x3d, 0xba, 0xb4, 0x0b, 0xbd, 0x12, 0x6b, 0x28, 0x3d, 0xf9, 0x50, 0x65, 0xbd, 0x1f, 0xff, 0x74, 0x3e, 0x7c, 0xe3, 0x4f, 0xbd, 0xef, 0x21, 0x7e, 0x3d, 0x9d, 0x63, 0x39, 0xbe, 0x63, 0x1e, 0xea, 0x3d, 0xab, 0xfa, 0x10, 0xbd, 0x4b, 0xbe, 0x57, 0xbe, 0x38, 0x4d, 0x42, 0xbd, 0x37, 0x5d, 0xe4, 0x3c, 0x45, 0xf1, 0x1a, 0x3e, 0xc7, 0x56, 0x01, 0xbe, 0x5a, 0x18, 0x9e, 0x3d, 0x3a, 0x67, 0x52, 0xbe, 0xe5, 0xc9, 0xe2, 0xbd, 0xae, 0x24, 0xd5, 0x3d, 0x13, 0x81, 0x29, 0x3e, 0x38, 0x56, 0xd7, 0x3d, 0x9c, 0x13, 0x49, 0xbe, 0xbb, 0x36, 0xf5, 0x3d, 0x22, 0xf7, 0x30, 0xbd, 0x2f, 0x94, 0x72, 0xbe, 0x22, 0x61, 0x0d, 0x3e, 0x39, 0xa1, 0x4a, 0xbe, 0xae, 0x73, 0x1e, 0xbd, 0x1a, 0x7e, 0xea, 0xbd, 0x41, 0x09, 0x6d, 0x3e, 0x91, 0x5a, 0x25, 0xbe, 0x9f, 0xa2, 0x39, 0x3e, 0x04, 0xcd, 0x32, 0x3d, 0xac, 0x7d, 0x56, 0x3d, 0xe5, 0xc8, 0x7a, 0xbe, 0xc5, 0xb4, 0xef, 0x3d, 0x88, 0x2e, 0x6f, 0x3e, 0x0b, 0xa7, 0x8b, 0xbc, 0xb5, 0xfd, 0x5f, 0xbc, 0x98, 0x3b, 0x71, 0xbe, 0xfd, 0x81, 0xf8, 0xbd, 0xf8, 0x47, 0x59, 0x3e, 0xb4, 0xb6, 0x09, 0xbd, 0xcf, 0xe7, 0x7d, 0x3d, 0xde, 0x61, 0xc4, 0x3d, 0xe2, 0x3d, 0x36, 0xbe, 0xa6, 0x6e, 0xec, 0xbc, 0x2c, 0x8c, 0x15, 0x3e, 0xb0, 0xff, 0x62, 0xbd, 0xc0, 0x7d, 0x95, 0xbd, 0xb8, 0x6f, 0x91, 0x3d, 0xc8, 0x6c, 0x7e, 0x3e, 0xb8, 0x68, 0x93, 0x3d, 0x70, 0x99, 0x3c, 0xbe, 0x50, 0x06, 0xa4, 0xbd, 0xc0, 0x0c, 0x3d, 0x3e, 0x70, 0xed, 0x37, 0xbd, 0xf0, 0xf3, 0x5f, 0x3d, 0x00, 0x39, 0xd6, 0x3b, 0x88, 0x89, 0xf3, 0xbd, 0xc4, 0x40, 0x43, 0x3e, 0x18, 0x79, 0x44, 0xbe, 0x60, 0xa2, 0x63, 0xbd, 0xa0, 0xbd, 0xa9, 0x3c, 0xcc, 0x04, 0x46, 0xbe, 0xb8, 0x5e, 0xf6, 0x3d, 0x40, 0xfb, 0xc7, 0xbd, 0x00, 0xa8, 0x93, 0xbb, 0x08, 0xf6, 0x5f, 0xbe, 0xa0, 0x7b, 0xf5, 0x3c, 0x28, 0x6c, 0x89, 0xbd, 0xc8, 0xae, 0x71, 0xbe, 0xc8, 0x72, 0xfa, 0x3d, 0x60, 0xf1, 0x2d, 0xbe, 0xe0, 0xd1, 0x68, 0x3d, 0xe4, 0x2c, 0x3f, 0x3e, 0x58, 0x46, 0x03, 0x3e, 0x20, 0x1c, 0xb9, 0xbd, 0xc0, 0xfd, 0xc8, 0x3d, 0x48, 0xdf, 0xbf, 0xbd, 0x08, 0xdb, 0xd7, 0x3d, 0x50, 0xca, 0xa9, 0x3d, 0x74, 0xfe, 0x07, 0x3e, 0x54, 0xe7, 0x1c, 0x3e, 0xc0, 0xf7, 0x27, 0xbc, 0x90, 0x66, 0x9a, 0xbd, 0x44, 0x1e, 0x44, 0xbe, 0x80, 0x8c, 0x65, 0x3e, 0x60, 0x1e, 0x04, 0xbe, 0xb8, 0xdf, 0x7f, 0x3e, 0x40, 0x7d, 0x39, 0xbc, 0x30, 0xfb, 0x22, 0x3e, 0x04, 0xa4, 0x57, 0xbe, 0x88, 0x6e, 0x35, 0xbe, 0x10, 0x6a, 0x03, 0xbd, 0x40, 0x6f, 0xdb, 0x3c, 0x20, 0xff, 0xf7, 0xbc, 0x28, 0x84, 0xd2, 0x3d, 0xa8, 0x19, 0x1b, 0x3e, 0x10, 0x08, 0x35, 0xbd, 0x34, 0x44, 0x52, 0xbe, 0x84, 0x84, 0x42, 0xbe, 0x40, 0xb6, 0xef, 0xbc, 0x48, 0x53, 0xd7, 0x3d, 0x80, 0x89, 0x51, 0xbe, 0x60, 0x95, 0x4f, 0xbd, 0xd8, 0x34, 0x47, 0xbe, 0x54, 0x68, 0x6a, 0x3e, 0xa0, 0xc7, 0x09, 0x3d, 0xe8, 0x49, 0xf2, 0xbd, 0x00, 0x02, 0xf3, 0x3a, 0x6c, 0x31, 0x04, 0x3e, 0x3c, 0xd5, 0x06, 0x3e, 0x68, 0x92, 0xf1, 0xbd, 0xb0, 0x16, 0xa5, 0x3d, 0x20, 0x77, 0x0f, 0x3d, 0xad, 0x3e, 0x4d, 0x3e, 0x37, 0x29, 0x38, 0xbc, 0x38, 0x44, 0x57, 0x3e, 0x5b, 0x21, 0x5e, 0xbe, 0xe8, 0x5c, 0x72, 0x3e, 0x38, 0xe5, 0xf1, 0x3d, 0x13, 0xef, 0x48, 0x3b, 0x64, 0xe6, 0x11, 0xbe, 0x1e, 0xa0, 0x20, 0xbd, 0x06, 0x41, 0x9b, 0xbd, 0xf0, 0xee, 0x79, 0x3e, 0xd7, 0x0c, 0x94, 0x3d, 0x9c, 0x4e, 0x90, 0xbd, 0xd0, 0xe1, 0x2c, 0xbd, 0x30, 0x7b, 0x58, 0x3e, 0x59, 0x1e, 0xf5, 0x3d, 0x2a, 0x09, 0x81, 0xbe, 0x60, 0x4c, 0x30, 0x3d, 0x00, 0xd6, 0x13, 0xbd, 0x26, 0x0f, 0x9f, 0x3c, 0x94, 0x30, 0x7c, 0xbd, 0x36, 0x17, 0x42, 0x3e, 0x00, 0x60, 0x02, 0x3d, 0xe8, 0x88, 0x2d, 0xbe, 0xc0, 0x76, 0x29, 0xbc, 0x77, 0x3b, 0x87, 0xbd, 0x80, 0x2f, 0x7a, 0x3e, 0x00, 0xbb, 0x2f, 0xbe, 0x0f, 0x25, 0x43, 0x3e, 0xdf, 0x5c, 0xe6, 0x3c, 0x88, 0x43, 0x4f, 0x3e, 0xae, 0x67, 0x15, 0x3e, 0xc0, 0xc8, 0x93, 0xbc, 0xf8, 0x30, 0x60, 0xbe, 0xb0, 0x6a, 0xb4, 0x3d, 0xd1, 0x87, 0xbc, 0x3c, 0xfc, 0xce, 0x53, 0x3e, 0x93, 0x71, 0x90, 0xbd, 0xa2, 0xf3, 0x5e, 0xbe, 0x33, 0x94, 0x1b, 0xbe, 0x81, 0xf5, 0x6d, 0x3e, 0x00, 0x97, 0x61, 0xbe, 0x80, 0xfc, 0xc5, 0x3c, 0xaa, 0xcf, 0xc7, 0xbd, 0x00, 0xfb, 0x3a, 0xbd, 0x58, 0xf0, 0xc6, 0xbd, 0x24, 0x4c, 0x1c, 0xbe, 0x50, 0xec, 0xe1, 0x3d, 0x99, 0xc1, 0xf0, 0xbc, 0xfa, 0xf9, 0x6a, 0x3e, 0x7e, 0x6b, 0x07, 0xbe, 0x03, 0xac, 0x56, 0xbe, 0xd0, 0x85, 0xed, 0xbd, 0xff, 0x2f, 0x8e, 0x3d, 0x54, 0x74, 0x6f, 0xbe, 0xd0, 0x44, 0xf1, 0x3d, 0x88, 0xa3, 0xdf, 0xbd, 0xe8, 0x58, 0xfa, 0xbd, 0xf8, 0x4b, 0xa7, 0x3d, 0x66, 0xfe, 0xff, 0xff, 0x04, 0x00, 0x00, 0x00, 0x00, 0x01, 0x00, 0x00, 0xe1, 0x09, 0xa0, 0xbe, 0xc0, 0xaa, 0xb0, 0x3e, 0xa9, 0xae, 0x69, 0x3e, 0x22, 0xc5, 0xab, 0xbe, 0xaa, 0xff, 0x2a, 0x3e, 0x30, 0x3d, 0x43, 0x3e, 0xfa, 0xed, 0xcf, 0x3e, 0x65, 0x0b, 0x58, 0x3c, 0x6a, 0x76, 0x6a, 0x3e, 0x2d, 0x1e, 0x61, 0x3e, 0x68, 0x91, 0x4d, 0x3d, 0xeb, 0x59, 0xc6, 0x3e, 0x5d, 0x51, 0x61, 0xbc, 0xb7, 0x54, 0xa5, 0x3e, 0x59, 0x22, 0x55, 0xbd, 0x84, 0x7b, 0xa7, 0x3e, 0x4b, 0xf5, 0x10, 0xbd, 0x66, 0xc2, 0x09, 0x3e, 0x1e, 0x0c, 0x82, 0xbe, 0xd2, 0x78, 0x99, 0x3e, 0x1e, 0x82, 0x94, 0xbe, 0x91, 0x82, 0x8d, 0x3e, 0x26, 0xc6, 0x21, 0x3e, 0x41, 0x3a, 0x41, 0xbe, 0xb7, 0x5b, 0x61, 0xbe, 0x61, 0x79, 0x37, 0xbe, 0x49, 0xed, 0xaf, 0x3e, 0x03, 0x3d, 0xda, 0xbd, 0xe5, 0x77, 0xca, 0x3e, 0x27, 0x38, 0x8f, 0xbe, 0x1a, 0x72, 0xc7, 0xbe, 0x70, 0xf0, 0x9e, 0xbd, 0xb7, 0xa5, 0xcc, 0xbe, 0x36, 0x2d, 0x35, 0xbe, 0x14, 0xe5, 0xb1, 0xbe, 0xdb, 0xc5, 0x0e, 0x3e, 0xf7, 0xbc, 0x95, 0xbe, 0x99, 0xa7, 0x58, 0xbe, 0x62, 0x7f, 0xa2, 0xbe, 0x8d, 0x10, 0x2e, 0x3e, 0x18, 0xbd, 0x0b, 0xbe, 0x96, 0x67, 0x86, 0xbe, 0x6c, 0xf2, 0xb7, 0xbe, 0x6d, 0xf7, 0xe1, 0x3d, 0xb6, 0xe2, 0x8e, 0x3e, 0x5e, 0xd1, 0x8d, 0x3d, 0xed, 0x62, 0x8f, 0x3e, 0xcb, 0x37, 0x55, 0xbe, 0xd4, 0x47, 0x6b, 0xbe, 0x50, 0xe3, 0xe7, 0xbc, 0x15, 0xfc, 0x13, 0xbe, 0x10, 0x05, 0x37, 0x3e, 0xe9, 0xf2, 0x80, 0x3e, 0x19, 0x7b, 0xb9, 0x3e, 0xc1, 0x25, 0x80, 0xbe, 0x83, 0xcb, 0x6d, 0xbe, 0x09, 0xfb, 0x6a, 0xbe, 0x5b, 0x20, 0x94, 0xbe, 0x3d, 0x52, 0x68, 0xbe, 0x37, 0x1a, 0xc1, 0x3e, 0x38, 0x42, 0xa2, 0x3d, 0x8f, 0xe0, 0x4f, 0x3e, 0x58, 0x3b, 0xd0, 0xbd, 0x29, 0x52, 0xb7, 0xbe, 0x90, 0xf8, 0xff, 0xff, 0x94, 0xf8, 0xff, 0xff, 0x0f, 0x00, 0x00, 0x00, 0x4d, 0x4c, 0x49, 0x52, 0x20, 0x43, 0x6f, 0x6e, 0x76, 0x65, 0x72, 0x74, 0x65, 0x64, 0x2e, 0x00, 0x01, 0x00, 0x00, 0x00, 0x14, 0x00, 0x00, 0x00, 0x00, 0x00, 0x0e, 0x00, 0x18, 0x00, 0x14, 0x00, 0x10, 0x00, 0x0c, 0x00, 0x08, 0x00, 0x04, 0x00, 0x0e, 0x00, 0x00, 0x00, 0x14, 0x00, 0x00, 0x00, 0x1c, 0x00, 0x00, 0x00, 0x94, 0x01, 0x00, 0x00, 0x98, 0x01, 0x00, 0x00, 0x9c, 0x01, 0x00, 0x00, 0x04, 0x00, 0x00, 0x00, 0x6d, 0x61, 0x69, 0x6e, 0x00, 0x00, 0x00, 0x00, 0x06, 0x00, 0x00, 0x00, 0x4c, 0x01, 0x00, 0x00, 0x08, 0x01, 0x00, 0x00, 0xb4, 0x00, 0x00, 0x00, 0x78, 0x00, 0x00, 0x00, 0x40, 0x00, 0x00, 0x00, 0x04, 0x00, 0x00, 0x00, 0x1a, 0xff, 0xff, 0xff, 0x1c, 0x00, 0x00, 0x00, 0x00, 0x00, 0x00, 0x09, 0x1c, 0x00, 0x00, 0x00, 0x20, 0x00, 0x00, 0x00, 0x03, 0x00, 0x00, 0x00, 0x00, 0x00, 0x06, 0x00, 0x08, 0x00, 0x04, 0x00, 0x06, 0x00, 0x00, 0x00, 0x00, 0x00, 0x80, 0x3f, 0x01, 0x00, 0x00, 0x00, 0x0e, 0x00, 0x00, 0x00, 0x01, 0x00, 0x00, 0x00, 0x0d, 0x00, 0x00, 0x00, 0x52, 0xff, 0xff, 0xff, 0x14, 0x00, 0x00, 0x00, 0x00, 0x00, 0x00, 0x08, 0x10, 0x00, 0x00, 0x00, 0x14, 0x00, 0x00, 0x00, 0x02, 0x00, 0x00, 0x00, 0x54, 0xf9, 0xff, 0xff, 0x01, 0x00, 0x00, 0x00, 0x0d, 0x00, 0x00, 0x00, 0x03, 0x00, 0x00, 0x00, 0x0c, 0x00, 0x00, 0x00, 0x01, 0x00, 0x00, 0x00, 0x08, 0x00, 0x00, 0x00, 0x86, 0xff, 0xff, 0xff, 0x14, 0x00, 0x00, 0x00, 0x00, 0x00, 0x00, 0x08, 0x14, 0x00, 0x00, 0x00, 0x18, 0x00, 0x00, 0x00, 0x02, 0x00, 0x00, 0x00, 0xc6, 0xff, 0xff, 0xff, 0x00, 0x00, 0x00, 0x01, 0x01, 0x00, 0x00, 0x00, 0x0c, 0x00, 0x00, 0x00, 0x03, 0x00, 0x00, 0x00, 0x0b, 0x00, 0x00, 0x00, 0x02, 0x00, 0x00, 0x00, 0x06, 0x00, 0x00, 0x00, 0xbe, 0xff, 0xff, 0xff, 0x1c, 0x00, 0x00, 0x00, 0x00, 0x00, 0x00, 0x08, 0x1c, 0x00, 0x00, 0x00, 0x20, 0x00, 0x00, 0x00, 0x02, 0x00, 0x00, 0x00, 0x00, 0x00, 0x06, 0x00, 0x08, 0x00, 0x07, 0x00, 0x06, 0x00, 0x00, 0x00, 0x00, 0x00, 0x00, 0x01, 0x01, 0x00, 0x00, 0x00, 0x0b, 0x00, 0x00, 0x00, 0x03, 0x00, 0x00, 0x00, 0x0a, 0x00, 0x00, 0x00, 0x03, 0x00, 0x00, 0x00, 0x07, 0x00, 0x00, 0x00, 0x00, 0x00, 0x0e, 0x00, 0x18, 0x00, 0x14, 0x00, 0x10, 0x00, 0x0c, 0x00, 0x0b, 0x00, 0x04, 0x00, 0x0e, 0x00, 0x00, 0x00, 0x14, 0x00, 0x00, 0x00, 0x00, 0x00, 0x00, 0x15, 0x10, 0x00, 0x00, 0x00, 0x14, 0x00, 0x00, 0x00, 0x01, 0x00, 0x00, 0x00, 0x10, 0xfa, 0xff, 0xff, 0x01, 0x00, 0x00, 0x00, 0x0a, 0x00, 0x00, 0x00, 0x02, 0x00, 0x00, 0x00, 0x09, 0x00, 0x00, 0x00, 0x04, 0x00, 0x00, 0x00, 0x00, 0x00, 0x0e, 0x00, 0x14, 0x00, 0x00, 0x00, 0x10, 0x00, 0x0c, 0x00, 0x0b, 0x00, 0x04, 0x00, 0x0e, 0x00, 0x00, 0x00, 0x10, 0x00, 0x00, 0x00, 0x00, 0x00, 0x00, 0x1c, 0x0c, 0x00, 0x00, 0x00, 0x10, 0x00, 0x00, 0x00, 0x4c, 0xfa, 0xff, 0xff, 0x01, 0x00, 0x00, 0x00, 0x09, 0x00, 0x00, 0x00, 0x02, 0x00, 0x00, 0x00, 0x00, 0x00, 0x00, 0x00, 0x05, 0x00, 0x00, 0x00, 0x01, 0x00, 0x00, 0x00, 0x0e, 0x00, 0x00, 0x00, 0x01, 0x00, 0x00, 0x00, 0x00, 0x00, 0x00, 0x00, 0x0f, 0x00, 0x00, 0x00, 0x60, 0x05, 0x00, 0x00, 0x08, 0x05, 0x00, 0x00, 0xb0, 0x04, 0x00, 0x00, 0x70, 0x04, 0x00, 0x00, 0x30, 0x04, 0x00, 0x00, 0xf8, 0x03, 0x00, 0x00, 0xa0, 0x03, 0x00, 0x00, 0x4c, 0x03, 0x00, 0x00, 0xf4, 0x02, 0x00, 0x00, 0x90, 0x02, 0x00, 0x00, 0x04, 0x02, 0x00, 0x00, 0x74, 0x01, 0x00, 0x00, 0xdc, 0x00, 0x00, 0x00, 0x60, 0x00, 0x00, 0x00, 0x04, 0x00, 0x00, 0x00, 0xf2, 0xfa, 0xff, 0xff, 0x00, 0x00, 0x00, 0x01, 0x14, 0x00, 0x00, 0x00, 0x1c, 0x00, 0x00, 0x00, 0x1c, 0x00, 0x00, 0x00, 0x0f, 0x00, 0x00, 0x00, 0x34, 0x00, 0x00, 0x00, 0x02, 0x00, 0x00, 0x00, 0xff, 0xff, 0xff, 0xff, 0x02, 0x00, 0x00, 0x00, 0xdc, 0xfa, 0xff, 0xff, 0x1b, 0x00, 0x00, 0x00, 0x53, 0x74, 0x61, 0x74, 0x65, 0x66, 0x75, 0x6c, 0x50, 0x61, 0x72, 0x74, 0x69, 0x74, 0x69, 0x6f, 0x6e, 0x65, 0x64, 0x43, 0x61, 0x6c, 0x6c, 0x5f, 0x31, 0x3a, 0x30, 0x00, 0x02, 0x00, 0x00, 0x00, 0x01, 0x00, 0x00, 0x00, 0x02, 0x00, 0x00, 0x00, 0x4a, 0xfb, 0xff, 0xff, 0x00, 0x00, 0x00, 0x01, 0x14, 0x00, 0x00, 0x00, 0x1c, 0x00, 0x00, 0x00, 0x1c, 0x00, 0x00, 0x00, 0x0e, 0x00, 0x00, 0x00, 0x54, 0x00, 0x00, 0x00, 0x02, 0x00, 0x00, 0x00, 0xff, 0xff, 0xff, 0xff, 0x02, 0x00, 0x00, 0x00, 0x34, 0xfb, 0xff, 0xff, 0x38, 0x00, 0x00, 0x00, 0x73, 0x65, 0x71, 0x75, 0x65, 0x6e, 0x74, 0x69, 0x61, 0x6c, 0x5f, 0x31, 0x2f, 0x64, 0x65, 0x6e, 0x73, 0x65, 0x5f, 0x32, 0x5f, 0x31, 0x2f, 0x4d, 0x61, 0x74, 0x4d, 0x75, 0x6c, 0x3b, 0x73, 0x65, 0x71, 0x75, 0x65, 0x6e, 0x74, 0x69, 0x61, 0x6c, 0x5f, 0x31, 0x2f, 0x64, 0x65, 0x6e, 0x73, 0x65, 0x5f, 0x32, 0x5f, 0x31, 0x2f, 0x41, 0x64, 0x64, 0x00, 0x00, 0x00, 0x00, 0x02, 0x00, 0x00, 0x00, 0x01, 0x00, 0x00, 0x00, 0x02, 0x00, 0x00, 0x00, 0xc2, 0xfb, 0xff, 0xff, 0x00, 0x00, 0x00, 0x01, 0x14, 0x00, 0x00, 0x00, 0x1c, 0x00, 0x00, 0x00, 0x1c, 0x00, 0x00, 0x00, 0x0d, 0x00, 0x00, 0x00, 0x70, 0x00, 0x00, 0x00, 0x02, 0x00, 0x00, 0x00, 0xff, 0xff, 0xff, 0xff, 0x20, 0x00, 0x00, 0x00, 0xac, 0xfb, 0xff, 0xff, 0x54, 0x00, 0x00, 0x00, 0x73, 0x65, 0x71, 0x75, 0x65, 0x6e, 0x74, 0x69, 0x61, 0x6c, 0x5f, 0x31, 0x2f, 0x64, 0x65, 0x6e, 0x73, 0x65, 0x5f, 0x31, 0x5f, 0x32, 0x2f, 0x4d, 0x61, 0x74, 0x4d, 0x75, 0x6c, 0x3b, 0x73, 0x65, 0x71, 0x75, 0x65, 0x6e, 0x74, 0x69, 0x61, 0x6c, 0x5f, 0x31, 0x2f, 0x64, 0x65, 0x6e, 0x73, 0x65, 0x5f, 0x31, 0x5f, 0x32, 0x2f, 0x52, 0x65, 0x6c, 0x75, 0x3b, 0x73, 0x65, 0x71, 0x75, 0x65, 0x6e, 0x74, 0x69, 0x61, 0x6c, 0x5f, 0x31, 0x2f, 0x64, 0x65, 0x6e, 0x73, 0x65, 0x5f, 0x31, 0x5f, 0x32, 0x2f, 0x41, 0x64, 0x64, 0x00, 0x00, 0x00, 0x00, 0x02, 0x00, 0x00, 0x00, 0x01, 0x00, 0x00, 0x00, 0x20, 0x00, 0x00, 0x00, 0x56, 0xfc, 0xff, 0xff, 0x00, 0x00, 0x00, 0x01, 0x14, 0x00, 0x00, 0x00, 0x1c, 0x00, 0x00, 0x00, 0x1c, 0x00, 0x00, 0x00, 0x0c, 0x00, 0x00, 0x00, 0x68, 0x00, 0x00, 0x00, 0x02, 0x00, 0x00, 0x00, 0xff, 0xff, 0xff, 0xff, 0x40, 0x00, 0x00, 0x00, 0x40, 0xfc, 0xff, 0xff, 0x4e, 0x00, 0x00, 0x00, 0x73, 0x65, 0x71, 0x75, 0x65, 0x6e, 0x74, 0x69, 0x61, 0x6c, 0x5f, 0x31, 0x2f, 0x64, 0x65, 0x6e, 0x73, 0x65, 0x5f, 0x31, 0x2f, 0x4d, 0x61, 0x74, 0x4d, 0x75, 0x6c, 0x3b, 0x73, 0x65, 0x71, 0x75, 0x65, 0x6e, 0x74, 0x69, 0x61, 0x6c, 0x5f, 0x31, 0x2f, 0x64, 0x65, 0x6e, 0x73, 0x65, 0x5f, 0x31, 0x2f, 0x52, 0x65, 0x6c, 0x75, 0x3b, 0x73, 0x65, 0x71, 0x75, 0x65, 0x6e, 0x74, 0x69, 0x61, 0x6c, 0x5f, 0x31, 0x2f, 0x64, 0x65, 0x6e, 0x73, 0x65, 0x5f, 0x31, 0x2f, 0x41, 0x64, 0x64, 0x00, 0x00, 0x02, 0x00, 0x00, 0x00, 0x01, 0x00, 0x00, 0x00, 0x40, 0x00, 0x00, 0x00, 0xe2, 0xfc, 0xff, 0xff, 0x00, 0x00, 0x00, 0x01, 0x14, 0x00, 0x00, 0x00, 0x1c, 0x00, 0x00, 0x00, 0x1c, 0x00, 0x00, 0x00, 0x0b, 0x00, 0x00, 0x00, 0x64, 0x00, 0x00, 0x00, 0x02, 0x00, 0x00, 0x00, 0xff, 0xff, 0xff, 0xff, 0x05, 0x00, 0x00, 0x00, 0xcc, 0xfc, 0xff, 0xff, 0x49, 0x00, 0x00, 0x00, 0x73, 0x65, 0x71, 0x75, 0x65, 0x6e, 0x74, 0x69, 0x61, 0x6c, 0x5f, 0x31, 0x2f, 0x6e, 0x6f, 0x72, 0x6d, 0x61, 0x6c, 0x69, 0x7a, 0x61, 0x74, 0x69, 0x6f, 0x6e, 0x5f, 0x31, 0x2f, 0x74, 0x72, 0x75, 0x65, 0x64, 0x69, 0x76, 0x3b, 0x73, 0x65, 0x71, 0x75, 0x65, 0x6e, 0x74, 0x69, 0x61, 0x6c, 0x5f, 0x31, 0x2f, 0x6e, 0x6f, 0x72, 0x6d, 0x61, 0x6c, 0x69, 0x7a, 0x61, 0x74, 0x69, 0x6f, 0x6e, 0x5f, 0x31, 0x2f, 0x4d, 0x61, 0x78, 0x69, 0x6d, 0x75, 0x6d, 0x00, 0x00, 0x00, 0x02, 0x00, 0x00, 0x00, 0x01, 0x00, 0x00, 0x00, 0x05, 0x00, 0x00, 0x00, 0x6a, 0xfd, 0xff, 0xff, 0x00, 0x00, 0x00, 0x01, 0x14, 0x00, 0x00, 0x00, 0x1c, 0x00, 0x00, 0x00, 0x1c, 0x00, 0x00, 0x00, 0x0a, 0x00, 0x00, 0x00, 0x3c, 0x00, 0x00, 0x00, 0x02, 0x00, 0x00, 0x00, 0xff, 0xff, 0xff, 0xff, 0x05, 0x00, 0x00, 0x00, 0x54, 0xfd, 0xff, 0xff, 0x20, 0x00, 0x00, 0x00, 0x73, 0x65, 0x71, 0x75, 0x65, 0x6e, 0x74, 0x69, 0x61, 0x6c, 0x5f, 0x31, 0x2f, 0x6e, 0x6f, 0x72, 0x6d, 0x61, 0x6c, 0x69, 0x7a, 0x61, 0x74, 0x69, 0x6f, 0x6e, 0x5f, 0x31, 0x2f, 0x53, 0x75, 0x62, 0x00, 0x00, 0x00, 0x00, 0x02, 0x00, 0x00, 0x00, 0x01, 0x00, 0x00, 0x00, 0x05, 0x00, 0x00, 0x00, 0x1e, 0xfe, 0xff, 0xff, 0x00, 0x00, 0x00, 0x01, 0x10, 0x00, 0x00, 0x00, 0x10, 0x00, 0x00, 0x00, 0x09, 0x00, 0x00, 0x00, 0x38, 0x00, 0x00, 0x00, 0xa4, 0xfd, 0xff, 0xff, 0x29, 0x00, 0x00, 0x00, 0x73, 0x65, 0x71, 0x75, 0x65, 0x6e, 0x74, 0x69, 0x61, 0x6c, 0x5f, 0x31, 0x2f, 0x64, 0x65, 0x6e, 0x73, 0x65, 0x5f, 0x32, 0x5f, 0x31, 0x2f, 0x41, 0x64, 0x64, 0x2f, 0x52, 0x65, 0x61, 0x64, 0x56, 0x61, 0x72, 0x69, 0x61, 0x62, 0x6c, 0x65, 0x4f, 0x70, 0x00, 0x00, 0x00, 0x01, 0x00, 0x00, 0x00, 0x02, 0x00, 0x00, 0x00, 0x72, 0xfe, 0xff, 0xff, 0x00, 0x00, 0x00, 0x01, 0x10, 0x00, 0x00, 0x00, 0x10, 0x00, 0x00, 0x00, 0x08, 0x00, 0x00, 0x00, 0x34, 0x00, 0x00, 0x00, 0xf8, 0xfd, 0xff, 0xff, 0x27, 0x00, 0x00, 0x00, 0x73, 0x65, 0x71, 0x75, 0x65, 0x6e, 0x74, 0x69, 0x61, 0x6c, 0x5f, 0x31, 0x2f, 0x64, 0x65, 0x6e, 0x73, 0x65, 0x5f, 0x31, 0x2f, 0x41, 0x64, 0x64, 0x2f, 0x52, 0x65, 0x61, 0x64, 0x56, 0x61, 0x72, 0x69, 0x61, 0x62, 0x6c, 0x65, 0x4f, 0x70, 0x00, 0x01, 0x00, 0x00, 0x00, 0x40, 0x00, 0x00, 0x00, 0xc2, 0xfe, 0xff, 0xff, 0x00, 0x00, 0x00, 0x01, 0x10, 0x00, 0x00, 0x00, 0x10, 0x00, 0x00, 0x00, 0x07, 0x00, 0x00, 0x00, 0x38, 0x00, 0x00, 0x00, 0x48, 0xfe, 0xff, 0xff, 0x29, 0x00, 0x00, 0x00, 0x73, 0x65, 0x71, 0x75, 0x65, 0x6e, 0x74, 0x69, 0x61, 0x6c, 0x5f, 0x31, 0x2f, 0x64, 0x65, 0x6e, 0x73, 0x65, 0x5f, 0x31, 0x5f, 0x32, 0x2f, 0x41, 0x64, 0x64, 0x2f, 0x52, 0x65, 0x61, 0x64, 0x56, 0x61, 0x72, 0x69, 0x61, 0x62, 0x6c, 0x65, 0x4f, 0x70, 0x00, 0x00, 0x00, 0x01, 0x00, 0x00, 0x00, 0x20, 0x00, 0x00, 0x00, 0x16, 0xff, 0xff, 0xff, 0x00, 0x00, 0x00, 0x01, 0x10, 0x00, 0x00, 0x00, 0x10, 0x00, 0x00, 0x00, 0x06, 0x00, 0x00, 0x00, 0x14, 0x00, 0x00, 0x00, 0x9c, 0xfe, 0xff, 0xff, 0x07, 0x00, 0x00, 0x00, 0x43, 0x6f, 0x6e, 0x73, 0x74, 0x5f, 0x31, 0x00, 0x02, 0x00, 0x00, 0x00, 0x01, 0x00, 0x00, 0x00, 0x05, 0x00, 0x00, 0x00, 0x4a, 0xff, 0xff, 0xff, 0x00, 0x00, 0x00, 0x01, 0x10, 0x00, 0x00, 0x00, 0x10, 0x00, 0x00, 0x00, 0x05, 0x00, 0x00, 0x00, 0x1c, 0x00, 0x00, 0x00, 0xd0, 0xfe, 0xff, 0xff, 0x0f, 0x00, 0x00, 0x00, 0x61, 0x72, 0x69, 0x74, 0x68, 0x2e, 0x63, 0x6f, 0x6e, 0x73, 0x74, 0x61, 0x6e, 0x74, 0x33, 0x00, 0x02, 0x00, 0x00, 0x00, 0x01, 0x00, 0x00, 0x00, 0x05, 0x00, 0x00, 0x00, 0x86, 0xff, 0xff, 0xff, 0x00, 0x00, 0x00, 0x01, 0x10, 0x00, 0x00, 0x00, 0x10, 0x00, 0x00, 0x00, 0x04, 0x00, 0x00, 0x00, 0x1c, 0x00, 0x00, 0x00, 0x0c, 0xff, 0xff, 0xff, 0x0f, 0x00, 0x00, 0x00, 0x61, 0x72, 0x69, 0x74, 0x68, 0x2e, 0x63, 0x6f, 0x6e, 0x73, 0x74, 0x61, 0x6e, 0x74, 0x32, 0x00, 0x02, 0x00, 0x00, 0x00, 0x40, 0x00, 0x00, 0x00, 0x05, 0x00, 0x00, 0x00, 0xc2, 0xff, 0xff, 0xff, 0x00, 0x00, 0x00, 0x01, 0x10, 0x00, 0x00, 0x00, 0x10, 0x00, 0x00, 0x00, 0x03, 0x00, 0x00, 0x00, 0x1c, 0x00, 0x00, 0x00, 0x48, 0xff, 0xff, 0xff, 0x0f, 0x00, 0x00, 0x00, 0x61, 0x72, 0x69, 0x74, 0x68, 0x2e, 0x63, 0x6f, 0x6e, 0x73, 0x74, 0x61, 0x6e, 0x74, 0x31, 0x00, 0x02, 0x00, 0x00, 0x00, 0x20, 0x00, 0x00, 0x00, 0x40, 0x00, 0x00, 0x00, 0x00, 0x00, 0x16, 0x00, 0x18, 0x00, 0x14, 0x00, 0x00, 0x00, 0x10, 0x00, 0x0c, 0x00, 0x08, 0x00, 0x00, 0x00, 0x00, 0x00, 0x00, 0x00, 0x07, 0x00, 0x16, 0x00, 0x00, 0x00, 0x00, 0x00, 0x00, 0x01, 0x10, 0x00, 0x00, 0x00, 0x10, 0x00, 0x00, 0x00, 0x02, 0x00, 0x00, 0x00, 0x1c, 0x00, 0x00, 0x00, 0x9c, 0xff, 0xff, 0xff, 0x0e, 0x00, 0x00, 0x00, 0x61, 0x72, 0x69, 0x74, 0x68, 0x2e, 0x63, 0x6f, 0x6e, 0x73, 0x74, 0x61, 0x6e, 0x74, 0x00, 0x00, 0x02, 0x00, 0x00, 0x00, 0x02, 0x00, 0x00, 0x00, 0x20, 0x00, 0x00, 0x00, 0x00, 0x00, 0x16, 0x00, 0x1c, 0x00, 0x18, 0x00, 0x00, 0x00, 0x14, 0x00, 0x10, 0x00, 0x0c, 0x00, 0x00, 0x00, 0x00, 0x00, 0x08, 0x00, 0x07, 0x00, 0x16, 0x00, 0x00, 0x00, 0x00, 0x00, 0x00, 0x01, 0x14, 0x00, 0x00, 0x00, 0x20, 0x00, 0x00, 0x00, 0x20, 0x00, 0x00, 0x00, 0x01, 0x00, 0x00, 0x00, 0x3c, 0x00, 0x00, 0x00, 0x02, 0x00, 0x00, 0x00, 0xff, 0xff, 0xff, 0xff, 0x05, 0x00, 0x00, 0x00, 0x04, 0x00, 0x04, 0x00, 0x04, 0x00, 0x00, 0x00, 0x1e, 0x00, 0x00, 0x00, 0x73, 0x65, 0x72, 0x76, 0x69, 0x6e, 0x67, 0x5f, 0x64, 0x65, 0x66, 0x61, 0x75, 0x6c, 0x74, 0x5f, 0x6b, 0x65, 0x72, 0x61, 0x73, 0x5f, 0x74, 0x65, 0x6e, 0x73, 0x6f, 0x72, 0x3a, 0x30, 0x00, 0x00, 0x02, 0x00, 0x00, 0x00, 0x01, 0x00, 0x00, 0x00, 0x05, 0x00, 0x00, 0x00, 0x04, 0x00, 0x00, 0x00, 0x40, 0x00, 0x00, 0x00, 0x24, 0x00, 0x00, 0x00, 0x14, 0x00, 0x00, 0x00, 0x04, 0x00, 0x00, 0x00, 0xdc, 0xff, 0xff, 0xff, 0x19, 0x00, 0x00, 0x00, 0x00, 0x00, 0x00, 0x19, 0xe8, 0xff, 0xff, 0xff, 0x09, 0x00, 0x00, 0x00, 0x00, 0x00, 0x00, 0x09, 0xf4, 0xff, 0xff, 0xff, 0x12, 0x00, 0x00, 0x00, 0x00, 0x00, 0x00, 0x12, 0x0c, 0x00, 0x0c, 0x00, 0x0b, 0x00, 0x00, 0x00, 0x00, 0x00, 0x04, 0x00, 0x0c, 0x00, 0x00, 0x00, 0x29, 0x00, 0x00, 0x00, 0x00, 0x00, 0x00, 0x29
};
