alignas(16) const unsigned char model[] = {0x1c, 0x00, 0x00, 0x00, 0x54, 0x46, 0x4c, 0x33, 0x14, 0x00, 0x20, 0x00, 0x1c, 0x00, 0x18, 0x00, 0x14, 0x00, 0x10, 0x00, 0x0c, 0x00, 0x00, 0x00, 0x08, 0x00, 0x04, 0x00, 0x14, 0x00, 0x00, 0x00, 0x1c, 0x00, 0x00, 0x00, 0x98, 0x00, 0x00, 0x00, 0xf0, 0x00, 0x00, 0x00, 0xf8, 0x2a, 0x00, 0x00, 0x08, 0x2b, 0x00, 0x00, 0x90, 0x32, 0x00, 0x00, 0x03, 0x00, 0x00, 0x00, 0x01, 0x00, 0x00, 0x00, 0x10, 0x00, 0x00, 0x00, 0x00, 0x00, 0x0a, 0x00, 0x10, 0x00, 0x0c, 0x00, 0x08, 0x00, 0x04, 0x00, 0x0a, 0x00, 0x00, 0x00, 0x0c, 0x00, 0x00, 0x00, 0x1c, 0x00, 0x00, 0x00, 0x3c, 0x00, 0x00, 0x00, 0x0f, 0x00, 0x00, 0x00, 0x73, 0x65, 0x72, 0x76, 0x69, 0x6e, 0x67, 0x5f, 0x64, 0x65, 0x66, 0x61, 0x75, 0x6c, 0x74, 0x00, 0x01, 0x00, 0x00, 0x00, 0x04, 0x00, 0x00, 0x00, 0x90, 0xff, 0xff, 0xff, 0x0e, 0x00, 0x00, 0x00, 0x04, 0x00, 0x00, 0x00, 0x08, 0x00, 0x00, 0x00, 0x6f, 0x75, 0x74, 0x70, 0x75, 0x74, 0x5f, 0x30, 0x00, 0x00, 0x00, 0x00, 0x01, 0x00, 0x00, 0x00, 0x04, 0x00, 0x00, 0x00, 0xf6, 0xd4, 0xff, 0xff, 0x04, 0x00, 0x00, 0x00, 0x0c, 0x00, 0x00, 0x00, 0x6b, 0x65, 0x72, 0x61, 0x73, 0x5f, 0x74, 0x65, 0x6e, 0x73, 0x6f, 0x72, 0x00, 0x00, 0x00, 0x00, 0x02, 0x00, 0x00, 0x00, 0x34, 0x00, 0x00, 0x00, 0x04, 0x00, 0x00, 0x00, 0xdc, 0xff, 0xff, 0xff, 0x11, 0x00, 0x00, 0x00, 0x04, 0x00, 0x00, 0x00, 0x13, 0x00, 0x00, 0x00, 0x43, 0x4f, 0x4e, 0x56, 0x45, 0x52, 0x53, 0x49, 0x4f, 0x4e, 0x5f, 0x4d, 0x45, 0x54, 0x41, 0x44, 0x41, 0x54, 0x41, 0x00, 0x08, 0x00, 0x0c, 0x00, 0x08, 0x00, 0x04, 0x00, 0x08, 0x00, 0x00, 0x00, 0x10, 0x00, 0x00, 0x00, 0x04, 0x00, 0x00, 0x00, 0x13, 0x00, 0x00, 0x00, 0x6d, 0x69, 0x6e, 0x5f, 0x72, 0x75, 0x6e, 0x74, 0x69, 0x6d, 0x65, 0x5f, 0x76, 0x65, 0x72, 0x73, 0x69, 0x6f, 0x6e, 0x00, 0x12, 0x00, 0x00, 0x00, 0x04, 0x2a, 0x00, 0x00, 0xfc, 0x29, 0x00, 0x00, 0xec, 0x27, 0x00, 0x00, 0xdc, 0x07, 0x00, 0x00, 0xcc, 0x02, 0x00, 0x00, 0xa8, 0x02, 0x00, 0x00, 0x84, 0x02, 0x00, 0x00, 0xf4, 0x01, 0x00, 0x00, 0xe4, 0x00, 0x00, 0x00, 0xc4, 0x00, 0x00, 0x00, 0xbc, 0x00, 0x00, 0x00, 0xb4, 0x00, 0x00, 0x00, 0xac, 0x00, 0x00, 0x00, 0xa4, 0x00, 0x00, 0x00, 0x9c, 0x00, 0x00, 0x00, 0x94, 0x00, 0x00, 0x00, 0x74, 0x00, 0x00, 0x00, 0x04, 0x00, 0x00, 0x00, 0xba, 0xd5, 0xff, 0xff, 0x04, 0x00, 0x00, 0x00, 0x60, 0x00, 0x00, 0x00, 0x10, 0x00, 0x00, 0x00, 0x00, 0x00, 0x00, 0x00, 0x08, 0x00, 0x0e, 0x00, 0x08, 0x00, 0x04, 0x00, 0x08, 0x00, 0x00, 0x00, 0x10, 0x00, 0x00, 0x00, 0x24, 0x00, 0x00, 0x00, 0x00, 0x00, 0x06, 0x00, 0x08, 0x00, 0x04, 0x00, 0x06, 0x00, 0x00, 0x00, 0x04, 0x00, 0x00, 0x00, 0x00, 0x00, 0x00, 0x00, 0x0c, 0x00, 0x18, 0x00, 0x14, 0x00, 0x10, 0x00, 0x0c, 0x00, 0x04, 0x00, 0x0c, 0x00, 0x00, 0x00, 0xd4, 0x90, 0xd0, 0xb3, 0xdf, 0xac, 0x35, 0x91, 0x02, 0x00, 0x00, 0x00, 0x02, 0x00, 0x00, 0x00, 0x04, 0x00, 0x00, 0x00, 0x06, 0x00, 0x00, 0x00, 0x32, 0x2e, 0x31, 0x38, 0x2e, 0x30, 0x00, 0x00, 0x26, 0xd6, 0xff, 0xff, 0x04, 0x00, 0x00, 0x00, 0x10, 0x00, 0x00, 0x00, 0x31, 0x2e, 0x36, 0x2e, 0x30, 0x00, 0x00, 0x00, 0x00, 0x00, 0x00, 0x00, 0x00, 0x00, 0x00, 0x00, 0x60, 0xcf, 0xff, 0xff, 0x64, 0xcf, 0xff, 0xff, 0x68, 0xcf, 0xff, 0xff, 0x6c, 0xcf, 0xff, 0xff, 0x70, 0xcf, 0xff, 0xff, 0x74, 0xcf, 0xff, 0xff, 0x5a, 0xd6, 0xff, 0xff, 0x04, 0x00, 0x00, 0x00, 0x10, 0x00, 0x00, 0x00, 0x4b, 0x3c, 0xcd, 0x3c, 0xc8, 0xef, 0x27, 0x3c, 0x7c, 0x96, 0x16, 0xbd, 0x88, 0xc5, 0x94, 0xba, 0x76, 0xd6, 0xff, 0xff, 0x04, 0x00, 0x00, 0x00, 0x00, 0x01, 0x00, 0x00, 0x1e, 0x00, 0x0c, 0x3d, 0xc8, 0x50, 0x8b, 0xbc, 0x5d, 0x94, 0x33, 0x3d, 0x7a, 0x82, 0xbc, 0x3c, 0xf5, 0xf9, 0x0a, 0xbd, 0x37, 0x0b, 0x62, 0xbb, 0xad, 0x39, 0xb2, 0x3c, 0x85, 0x08, 0x81, 0xbc, 0x53, 0x5d, 0xe8, 0x3c, 0xff, 0xd6, 0xe4, 0xbb, 0x61, 0xc4, 0xda, 0xbc, 0x8b, 0x37, 0x38, 0x3d, 0xbc, 0x53, 0xaa, 0x3c, 0xb3, 0xbd, 0x23, 0xbd, 0xa1, 0xa1, 0x3c, 0x3d, 0xd0, 0x25, 0x47, 0x3d, 0x25, 0xe3, 0x46, 0x3d, 0xf4, 0x79, 0x20, 0x3d, 0xf7, 0x54, 0xe1, 0x3c, 0xb6, 0x17, 0x07, 0xbd, 0x94, 0x89, 0x58, 0x3c, 0x8e, 0xdc, 0x36, 0x3d, 0x52, 0xc8, 0x3c, 0x3d, 0xca, 0x7d, 0xcd, 0x3c, 0x7a, 0x7b, 0x84, 0x3c, 0xbe, 0xbf, 0x35, 0x3d, 0x8a, 0xa6, 0xe4, 0x3c, 0x4d, 0x83, 0x30, 0x3d, 0xdc, 0x93, 0x00, 0x3d, 0x39, 0xb8, 0x38, 0x3d, 0xaf, 0xb8, 0x3a, 0x3d, 0xb6, 0x5a, 0x0a, 0x3d, 0xd0, 0x7d, 0xa1, 0x3c, 0xd3, 0xa8, 0x53, 0x3d, 0x8d, 0x4a, 0xb1, 0xbc, 0x48, 0xed, 0x14, 0xbd, 0xbe, 0x23, 0x52, 0x3d, 0x6e, 0x63, 0x20, 0xba, 0x97, 0xfc, 0x12, 0xbd, 0x49, 0xee, 0xbf, 0xbc, 0x9a, 0xb8, 0x4e, 0x3d, 0x4a, 0xa4, 0x42, 0x3d, 0xdd, 0x92, 0x31, 0x3c, 0xde, 0xdc, 0x46, 0x3c, 0xad, 0x7e, 0x55, 0x3d, 0xcc, 0x14, 0x37, 0x3d, 0x80, 0x32, 0xad, 0xbc, 0x36, 0x11, 0xca, 0x3a, 0x54, 0x1f, 0xbc, 0x3b, 0x97, 0x5c, 0x40, 0x3d, 0x59, 0xc2, 0x01, 0xbd, 0xe7, 0x1b, 0x40, 0x3d, 0x56, 0x92, 0xd7, 0x3c, 0x3a, 0x64, 0x46, 0x3d, 0xee, 0x0e, 0xd2, 0x3c, 0xda, 0x35, 0x47, 0x3d, 0x98, 0x8f, 0x46, 0x3d, 0x0d, 0xff, 0x2c, 0xbd, 0xc2, 0x55, 0x5a, 0x3d, 0x62, 0xef, 0x35, 0xbc, 0x85, 0x0e, 0x40, 0x3d, 0x85, 0x78, 0x28, 0x3d, 0x5e, 0x59, 0xcb, 0x3b, 0x85, 0x16, 0xd8, 0xba, 0x82, 0xd7, 0xff, 0xff, 0x04, 0x00, 0x00, 0x00, 0x80, 0x00, 0x00, 0x00, 0xc4, 0x16, 0xbe, 0x3c, 0xef, 0x2b, 0x17, 0x3d, 0xa7, 0x85, 0xc0, 0xbb, 0x4c, 0x13, 0x24, 0x3d, 0xf1, 0xa5, 0x2f, 0x3d, 0x4a, 0xe7, 0x40, 0x3d, 0x5c, 0x1f, 0xe2, 0x3c, 0x00, 0x00, 0x00, 0x00, 0x2c, 0x94, 0x01, 0x3d, 0xdb, 0x31, 0x0a, 0x3d, 0x88, 0xf0, 0xe3, 0x3c, 0x99, 0x8a, 0x35, 0x3d, 0xca, 0x60, 0xaa, 0xbc, 0xb4, 0xb6, 0x1a, 0x3d, 0x5a, 0xb9, 0x87, 0xbc, 0x00, 0x00, 0x00, 0x00, 0x93, 0x35, 0x21, 0x3d, 0xc3, 0x1a, 0x55, 0x3d, 0x4a, 0x71, 0x39, 0x3d, 0xbb, 0xae, 0x57, 0x3d, 0xf8, 0x4e, 0x24, 0x3d, 0x54, 0xb6, 0x08, 0xbd, 0x92, 0xdc, 0x30, 0x3d, 0xe7, 0xca, 0x05, 0xbd, 0x90, 0xab, 0x9c, 0xbc, 0xd6, 0x90, 0x80, 0xbc, 0x00, 0x00, 0x00, 0x00, 0x1d, 0xc1, 0x36, 0x3d, 0x16, 0x36, 0x46, 0x3d, 0xf6, 0xf1, 0x94, 0xbc, 0x00, 0x00, 0x00, 0x00, 0xff, 0x9a, 0xb6, 0xbc, 0x0e, 0xd8, 0xff, 0xff, 0x04, 0x00, 0x00, 0x00, 0x14, 0x00, 0x00, 0x00, 0x0e, 0x34, 0x7a, 0x45, 0x90, 0xb4, 0xac, 0x45, 0x97, 0xc6, 0xac, 0x45, 0x22, 0x27, 0x9c, 0x45, 0x8b, 0xc0, 0xf3, 0x45, 0x2e, 0xd8, 0xff, 0xff, 0x04, 0x00, 0x00, 0x00, 0x14, 0x00, 0x00, 0x00, 0x05, 0xd8, 0x8d, 0x39, 0xeb, 0xe6, 0x12, 0x3a, 0xce, 0xee, 0x12, 0x3a, 0x1d, 0x63, 0x91, 0x39, 0xa8, 0x39, 0x1c, 0x3b, 0x4e, 0xd8, 0xff, 0xff, 0x04, 0x00, 0x00, 0x00, 0x00, 0x05, 0x00, 0x00, 0xc2, 0xfe, 0x2e, 0xbe, 0x76, 0x77, 0x10, 0xbd, 0x0d, 0xab, 0x9a, 0x3e, 0xee, 0xf2, 0x61, 0x3e, 0xf4, 0x6a, 0x92, 0xbe, 0xea, 0xd6, 0x54, 0x3e, 0x16, 0xf8, 0x5e, 0x3e, 0x8e, 0xb4, 0x3a, 0x3e, 0xbd, 0xcc, 0x3c, 0x3e, 0xe1, 0x3d, 0xf5, 0x3d, 0x9b, 0x77, 0xaa, 0xbe, 0x25, 0x3a, 0x91, 0x3e, 0xe0, 0xa7, 0x4f, 0x3e, 0xcc, 0xe3, 0x2e, 0x3d, 0x12, 0x09, 0x9a, 0xbe, 0x1e, 0x04, 0x39, 0x3d, 0xc7, 0x54, 0x82, 0x3e, 0x5d, 0x4f, 0x90, 0x3b, 0x5d, 0x91, 0xf3, 0xbd, 0x66, 0xc3, 0x8c, 0xbe, 0x03, 0x35, 0x47, 0xbe, 0x46, 0x16, 0xa9, 0xbd, 0xfa, 0xe2, 0x8a, 0x3c, 0xd3, 0x68, 0x93, 0xbd, 0xa3, 0xdc, 0x97, 0x3d, 0xe4, 0x5b, 0x11, 0x3e, 0xef, 0x35, 0x55, 0x3d, 0xaf, 0x97, 0x5a, 0x3e, 0x31, 0x5d, 0x00, 0x3d, 0xc1, 0x2b, 0x25, 0xbd, 0xd5, 0x1b, 0x06, 0x3e, 0x89, 0xa8, 0x3a, 0xbd, 0x79, 0xda, 0xd1, 0x3d, 0x85, 0xf0, 0x88, 0x3e, 0xc7, 0xfd, 0x93, 0xbe, 0xba, 0x73, 0xb5, 0xbc, 0x8e, 0x91, 0x5d, 0xbe, 0x77, 0xb5, 0x5a, 0x3e, 0x40, 0x33, 0x70, 0x3e, 0xb0, 0x40, 0xaf, 0xba, 0xc2, 0x55, 0x27, 0x3d, 0xff, 0x59, 0xa9, 0x3d, 0x7e, 0x4c, 0x0c, 0x3e, 0xa0, 0x66, 0xa2, 0x3d, 0xe4, 0xf5, 0x7e, 0x3d, 0x48, 0xd5, 0x43, 0xbe, 0xb4, 0x17, 0x96, 0xbe, 0xa9, 0x0f, 0x91, 0x3c, 0x36, 0x42, 0xb5, 0xbd, 0xc1, 0xc6, 0x92, 0xbd, 0xbd, 0xb1, 0x18, 0x3c, 0xb9, 0x62, 0x1b, 0xbe, 0x7a, 0xee, 0x46, 0x3e, 0xeb, 0x55, 0x60, 0x3e, 0x96, 0xb6, 0xcb, 0xbc, 0x64, 0xcd, 0x89, 0xbd, 0xfc, 0xd8, 0x8b, 0xbe, 0xb4, 0x0a, 0x6c, 0xbc, 0xd8, 0x09, 0x89, 0xbe, 0xe7, 0x85, 0x3f, 0xbe, 0x2f, 0xe0, 0xbf, 0xbb, 0xae, 0x11, 0x98, 0x3e, 0x58, 0xe5, 0x89, 0xbd, 0xcf, 0x85, 0xfd, 0xbd, 0x9d, 0x3b, 0x82, 0x3e, 0xf8, 0xe7, 0x89, 0x3e, 0x2f, 0x61, 0x8b, 0x3d, 0x7c, 0x45, 0xae, 0x3d, 0x52, 0x58, 0x57, 0x3d, 0x18, 0xfa, 0x7d, 0xbe, 0xd3, 0x5a, 0x95, 0xbe, 0x51, 0x3e, 0x8d, 0xbd, 0xe4, 0xf1, 0x92, 0x3d, 0x1d, 0xe7, 0x51, 0x3e, 0x39, 0x36, 0x9d, 0x3e, 0xb0, 0x90, 0xd9, 0x3c, 0x2e, 0x59, 0x85, 0xbe, 0x94, 0x35, 0x4e, 0x3e, 0xbb, 0xc4, 0x93, 0xbe, 0x2b, 0xee, 0x3c, 0xbe, 0x7f, 0x90, 0xaa, 0xbe, 0x3d, 0x2f, 0x60, 0xbc, 0x15, 0x15, 0x1b, 0x3e, 0xeb, 0x99, 0x89, 0xbe, 0x34, 0x62, 0x92, 0xbe, 0xd0, 0xa3, 0xe0, 0xbd, 0x70, 0x2d, 0xea, 0xbd, 0x54, 0xb9, 0xc3, 0xbd, 0xa8, 0x62, 0x6e, 0xbe, 0xc5, 0xca, 0x3d, 0x3e, 0x9c, 0xd5, 0x86, 0x3e, 0x2c, 0x17, 0x62, 0xbe, 0x87, 0xa7, 0x0f, 0x3d, 0xd6, 0x6d, 0xa8, 0xbd, 0xf7, 0x88, 0x5e, 0x3e, 0x59, 0xd5, 0x68, 0xbe, 0x1f, 0x7d, 0x3e, 0xbd, 0x5b, 0x37, 0x50, 0xbe, 0xdc, 0x0e, 0x00, 0xbe, 0xeb, 0xa9, 0xfa, 0x3c, 0xef, 0xd1, 0xf7, 0x3d, 0x79, 0xa7, 0x64, 0x3e, 0xa1, 0x2d, 0xd2, 0xbc, 0xda, 0xe5, 0xe4, 0x3d, 0xc9, 0x30, 0x33, 0x3e, 0x4c, 0xd4, 0x53, 0xbe, 0xe1, 0x0e, 0x02, 0xbe, 0x2b, 0x8e, 0x35, 0xbe, 0x3f, 0x49, 0x95, 0x3c, 0xab, 0x6d, 0x7a, 0xbe, 0x58, 0x61, 0xe0, 0xbd, 0xa7, 0x33, 0x8e, 0x3d, 0xec, 0x0a, 0x9e, 0xbe, 0xcf, 0x43, 0xa0, 0xbe, 0x42, 0x90, 0x4b, 0xbc, 0x76, 0xc4, 0x89, 0xbe, 0x18, 0x44, 0x80, 0xbe, 0xf8, 0xe7, 0x4d, 0xbd, 0x0f, 0xac, 0xde, 0x3d, 0x13, 0x87, 0xca, 0xbd, 0x68, 0x88, 0x88, 0xbe, 0x06, 0xe2, 0xf7, 0xbd, 0xfc, 0x16, 0x63, 0x3e, 0xec, 0xa6, 0x7e, 0x3e, 0x90, 0x3e, 0x10, 0x3d, 0xe2, 0xcb, 0x88, 0x3e, 0x2d, 0xf7, 0x10, 0x3d, 0x65, 0xa7, 0xdf, 0x3d, 0x61, 0x94, 0x2b, 0x3e, 0xe6, 0xb1, 0xac, 0x3e, 0x49, 0xd0, 0x2b, 0x3c, 0xcc, 0x59, 0x94, 0xbe, 0x5f, 0xf2, 0x02, 0x3d, 0xa1, 0x7f, 0x9e, 0x3d, 0x72, 0xe7, 0x97, 0x3e, 0xd4, 0xdb, 0x3f, 0x3e, 0x5b, 0x1d, 0x8c, 0xbe, 0x82, 0x64, 0x53, 0xbe, 0x45, 0xfd, 0x58, 0x3c, 0x8d, 0x93, 0x52, 0xbe, 0xfa, 0xaf, 0x95, 0x3e, 0xdc, 0x26, 0x93, 0x3d, 0xf8, 0xb9, 0x68, 0x3e, 0xf8, 0x4d, 0x56, 0x3e, 0x1c, 0x20, 0xa5, 0x3c, 0x6c, 0x52, 0xc4, 0x3d, 0x1e, 0x39, 0x04, 0x3e, 0x14, 0x3f, 0xe7, 0xbd, 0x9c, 0x71, 0x88, 0xbe, 0xc6, 0x91, 0x79, 0x3e, 0x0c, 0xff, 0x05, 0x3d, 0xc5, 0x77, 0x90, 0xbe, 0x33, 0x40, 0x6f, 0x3e, 0x5f, 0x9e, 0x9e, 0xbe, 0x75, 0x0f, 0xfc, 0x3d, 0xc6, 0xf4, 0x70, 0x3e, 0xaf, 0xbe, 0x41, 0xbe, 0x29, 0xcf, 0x45, 0x3e, 0xdd, 0xa6, 0x07, 0xbe, 0xe8, 0x7f, 0x41, 0x3e, 0x46, 0xb4, 0x9c, 0x3e, 0x72, 0x3c, 0x7f, 0x3d, 0x1e, 0x95, 0x0f, 0xbe, 0x95, 0x88, 0xa0, 0x3d, 0x88, 0x0a, 0xab, 0xbd, 0x7f, 0xd5, 0x5b, 0xbe, 0x77, 0xc1, 0x24, 0x3e, 0x8d, 0x74, 0x86, 0xbe, 0xd0, 0xa2, 0x1b, 0x3e, 0x41, 0x4d, 0x88, 0x3d, 0xa4, 0x6f, 0x67, 0x3e, 0x5e, 0xbe, 0x96, 0x3e, 0x80, 0xf8, 0x0b, 0x3d, 0x7e, 0x15, 0x49, 0x3c, 0xa6, 0xae, 0x57, 0x3e, 0x1c, 0xe3, 0x58, 0x3d, 0xfb, 0x44, 0x8e, 0x3d, 0xa7, 0x77, 0x26, 0x3e, 0x0c, 0x2d, 0x75, 0x3e, 0xac, 0x45, 0x1e, 0x3e, 0x35, 0x47, 0x6e, 0xbc, 0x5e, 0x1d, 0xab, 0x3e, 0x13, 0x11, 0x49, 0x3e, 0x74, 0x25, 0xb8, 0x3d, 0x8a, 0xf6, 0x1c, 0xbd, 0xb0, 0x65, 0x5d, 0x3d, 0x98, 0x8a, 0x66, 0x3e, 0xee, 0xe4, 0x9a, 0xbe, 0x22, 0x87, 0x91, 0x3d, 0xa9, 0x87, 0xe9, 0x3c, 0xf5, 0xa0, 0x58, 0xbe, 0x5b, 0x63, 0x45, 0xbd, 0x33, 0x65, 0x69, 0x3e, 0x09, 0x8f, 0x32, 0xbe, 0x37, 0x89, 0xf3, 0x3d, 0x4d, 0xe7, 0xf8, 0xbd, 0x50, 0xc6, 0x3e, 0x3d, 0xa7, 0xef, 0x48, 0x3e, 0x70, 0xce, 0x33, 0x3e, 0xc8, 0x91, 0x77, 0x3d, 0x93, 0x46, 0x33, 0x3e, 0x78, 0xba, 0x7b, 0x3e, 0x25, 0x4f, 0x20, 0x3e, 0x05, 0x96, 0x9c, 0xbe, 0x91, 0xca, 0x51, 0xbe, 0xb9, 0xf6, 0xd8, 0x3d, 0x17, 0x8a, 0x98, 0xbe, 0x6c, 0x9a, 0x30, 0xbe, 0xab, 0xac, 0xb7, 0xbd, 0x3a, 0xf0, 0xfd, 0x3a, 0xe4, 0x8b, 0x80, 0x3e, 0x34, 0xbe, 0x48, 0xbe, 0xc8, 0x16, 0x15, 0x3e, 0xa8, 0x75, 0xdb, 0x3d, 0xe0, 0x67, 0x09, 0x3e, 0x16, 0xaa, 0x10, 0x3d, 0x82, 0xe5, 0xba, 0xbd, 0xba, 0xee, 0x40, 0xbd, 0xe8, 0xcd, 0x7b, 0xbe, 0x51, 0xc6, 0xff, 0xbd, 0x8d, 0x46, 0x62, 0x3e, 0xce, 0x2c, 0xa4, 0x3e, 0xf1, 0x05, 0xa5, 0x3c, 0x8f, 0xad, 0xea, 0xbc, 0x14, 0x1b, 0xcd, 0xbd, 0x39, 0x27, 0x9e, 0xbc, 0x13, 0x66, 0xd7, 0xbd, 0xf3, 0x4b, 0x0c, 0xbe, 0xfb, 0xed, 0xa4, 0xbe, 0x55, 0x9e, 0x99, 0x3e, 0x7c, 0xf4, 0xcb, 0x3c, 0xcb, 0xc9, 0x49, 0x3e, 0xa9, 0x76, 0xa4, 0x3e, 0x6b, 0x55, 0xd8, 0x3c, 0xa8, 0x52, 0x5e, 0xbd, 0x75, 0xc2, 0xa4, 0x3e, 0x88, 0x12, 0xea, 0x3b, 0x1d, 0x4a, 0xc6, 0x3c, 0x19, 0x72, 0x20, 0xbe, 0x2c, 0xfd, 0x56, 0xbd, 0x12, 0xac, 0x6e, 0xbe, 0xe3, 0xdd, 0x31, 0xbe, 0x3e, 0x84, 0x87, 0xbe, 0x66, 0x4e, 0x06, 0x3e, 0x63, 0xd1, 0x1e, 0xbe, 0x92, 0xe0, 0x29, 0xbe, 0x82, 0x09, 0xa9, 0xbe, 0x1d, 0x41, 0xe0, 0xbc, 0x1d, 0xfc, 0x6d, 0xbe, 0xc1, 0x3a, 0xc7, 0xbd, 0x6a, 0x69, 0x26, 0xbe, 0xef, 0x7d, 0x90, 0x3e, 0x26, 0xcc, 0x37, 0x3d, 0x67, 0x7f, 0x04, 0xbe, 0x0e, 0x31, 0x4b, 0xbd, 0x15, 0x01, 0x92, 0xbe, 0x19, 0xa5, 0xf8, 0xbd, 0x82, 0xfa, 0x5a, 0x3e, 0xdd, 0xcb, 0x74, 0xbe, 0x77, 0xb0, 0x17, 0x3e, 0x52, 0x06, 0xa4, 0x3e, 0x0a, 0xdf, 0x7b, 0x3d, 0x8b, 0x5c, 0x89, 0xbe, 0xb6, 0xdf, 0xbd, 0x3c, 0x83, 0x41, 0x8e, 0xbd, 0xbd, 0xa8, 0x73, 0xbd, 0x80, 0xa7, 0x0d, 0x3e, 0x68, 0x83, 0x64, 0xbe, 0xde, 0xff, 0x7a, 0xbe, 0x07, 0x0a, 0x79, 0xbe, 0x58, 0xf6, 0x82, 0x3e, 0x21, 0x03, 0x82, 0x3e, 0x74, 0x5b, 0x7d, 0x3d, 0xd5, 0x04, 0x48, 0xbd, 0xdc, 0xbb, 0x4e, 0x3e, 0x73, 0xb1, 0x73, 0xbe, 0x73, 0x5d, 0x65, 0xbe, 0xda, 0xb1, 0x62, 0xbd, 0x6c, 0xd5, 0x98, 0x3e, 0x30, 0x4a, 0x48, 0xbe, 0x11, 0xf0, 0x6b, 0xbe, 0x40, 0xcb, 0x9c, 0xbd, 0x79, 0xc1, 0x51, 0xbe, 0x96, 0x9f, 0x13, 0xbe, 0xd2, 0x30, 0xab, 0xbe, 0x46, 0x56, 0xfc, 0xbc, 0xd8, 0x46, 0x94, 0xbc, 0xfa, 0x3e, 0xdf, 0x3c, 0x5b, 0xc5, 0xcb, 0xbd, 0xea, 0x71, 0x9f, 0x3d, 0x1d, 0x42, 0x60, 0xbe, 0xa1, 0xa0, 0x06, 0x3e, 0x61, 0x0a, 0xb9, 0x3d, 0xd6, 0x57, 0xd9, 0xbd, 0xa9, 0x95, 0x0f, 0x3d, 0x40, 0x59, 0xae, 0xbd, 0x8a, 0x69, 0xd2, 0x3c, 0xfc, 0xec, 0x9e, 0x3e, 0xcc, 0x81, 0x90, 0xbd, 0x69, 0x9c, 0x64, 0x3e, 0x69, 0x8c, 0x0d, 0x3e, 0xba, 0xaa, 0xad, 0xbd, 0xcc, 0x4e, 0x30, 0x3d, 0xe1, 0x18, 0x83, 0x3e, 0x68, 0xd3, 0x9e, 0x3e, 0x32, 0xd5, 0x00, 0x3e, 0x14, 0x06, 0x83, 0x3e, 0x61, 0x02, 0x50, 0xbe, 0xb4, 0x85, 0x79, 0x3e, 0x66, 0xfa, 0x34, 0x3e, 0x1b, 0x6b, 0x01, 0xbe, 0x0b, 0x30, 0x4a, 0x3d, 0x8c, 0x1c, 0x41, 0xbe, 0xce, 0x54, 0x74, 0x3e, 0xee, 0xa9, 0x17, 0x3e, 0x02, 0x39, 0x92, 0x3e, 0x6f, 0x89, 0xb0, 0xbc, 0x79, 0x56, 0x05, 0xbe, 0xfe, 0xae, 0x1b, 0x3e, 0x06, 0x42, 0x62, 0xbe, 0x5a, 0xdd, 0xff, 0xff, 0x04, 0x00, 0x00, 0x00, 0x00, 0x20, 0x00, 0x00, 0x87, 0x83, 0x57, 0x3e, 0x93, 0xae, 0x35, 0x3e, 0x3f, 0xc0, 0x1c, 0x3e, 0x1d, 0x25, 0x88, 0xbe, 0xd1, 0xf2, 0x3c, 0xbe, 0x13, 0x64, 0x95, 0x3d, 0x34, 0x89, 0x1a, 0xbe, 0xcc, 0x0e, 0x80, 0x3d, 0x6b, 0xb1, 0x0f, 0xbd, 0x09, 0x4b, 0x92, 0xbd, 0x11, 0x68, 0x6b, 0xbd, 0x8a, 0x76, 0x3c, 0x3e, 0xd8, 0xa6, 0x0e, 0xbe, 0x34, 0x43, 0x77, 0xbe, 0x72, 0x8e, 0xb7, 0xbc, 0x3a, 0x91, 0x82, 0x3c, 0xf4, 0x5f, 0xc5, 0xbd, 0x79, 0xc6, 0xd2, 0x3d, 0xc7, 0xc5, 0x8d, 0x3e, 0x75, 0x33, 0x26, 0x3e, 0xd3, 0x60, 0xc2, 0xbc, 0xb3, 0xe6, 0x8b, 0xbd, 0xa6, 0xf4, 0x47, 0xbe, 0xac, 0xec, 0x94, 0xbd, 0xe7, 0x2a, 0x23, 0xbe, 0x09, 0x01, 0x82, 0x3e, 0xe8, 0x86, 0xb1, 0xbc, 0xa4, 0xc1, 0x3f, 0xbe, 0x01, 0x10, 0x9e, 0x3d, 0xca, 0x2d, 0xbb, 0x3c, 0xb4, 0x72, 0x69, 0xbe, 0x14, 0x92, 0x55, 0x3e, 0x76, 0x93, 0x8b, 0x3e, 0xcc, 0x2f, 0x1f, 0xbd, 0x5b, 0xb1, 0x3c, 0x3e, 0x37, 0x0a, 0x2c, 0xbe, 0xd5, 0x80, 0x7c, 0xbd, 0x30, 0x99, 0x48, 0x3e, 0xb0, 0xa7, 0x03, 0xbe, 0xca, 0x8b, 0x25, 0x3e, 0x9b, 0xcb, 0x32, 0x3e, 0xed, 0xf3, 0xc6, 0x3d, 0x35, 0x34, 0x90, 0x3d, 0xef, 0x58, 0xb0, 0x3c, 0x0b, 0x2d, 0x15, 0xbe, 0x61, 0x86, 0x36, 0x3e, 0x74, 0x39, 0xcc, 0x3d, 0x63, 0x12, 0xd0, 0x3c, 0x0c, 0x4d, 0x01, 0xbe, 0x8d, 0x42, 0xed, 0x3d, 0x8e, 0x9b, 0x18, 0x3e, 0x72, 0x4c, 0x89, 0xbe, 0x9d, 0x4e, 0xb9, 0xbc, 0xa0, 0xb5, 0x36, 0xbe, 0xff, 0xa6, 0xf9, 0x3c, 0x6f, 0x51, 0xac, 0x39, 0xda, 0xf4, 0x48, 0xbe, 0xc5, 0x92, 0x9d, 0x3d, 0x44, 0x9e, 0x5e, 0xbc, 0x40, 0x68, 0x4d, 0xbe, 0x99, 0x37, 0x01, 0x3e, 0x69, 0xd2, 0x16, 0xbd, 0x8e, 0xb7, 0x95, 0x3d, 0xa5, 0x49, 0x17, 0x3c, 0x32, 0x9c, 0x2c, 0x3e, 0x60, 0x6e, 0xba, 0x3d, 0xfb, 0x48, 0x38, 0xbe, 0xfe, 0x7d, 0xd0, 0x3b, 0xbf, 0x40, 0x78, 0x3d, 0x03, 0xde, 0x00, 0xbe, 0x38, 0xe4, 0x11, 0xbe, 0xd4, 0xbb, 0xbe, 0xbd, 0x51, 0x50, 0x9a, 0xbd, 0x69, 0x89, 0xfa, 0x3d, 0xd7, 0x24, 0x7f, 0x3e, 0xec, 0x6b, 0x4f, 0x3d, 0x30, 0x00, 0x93, 0x3e, 0x90, 0x4c, 0x2e, 0xbe, 0x5a, 0xbe, 0xff, 0xbc, 0x1a, 0x59, 0xd8, 0x3d, 0xd8, 0xe7, 0x2f, 0x3e, 0x09, 0x17, 0x92, 0x3d, 0x78, 0x47, 0x3c, 0xbe, 0xe8, 0xf5, 0x81, 0xbd, 0xd0, 0x1b, 0x0e, 0xbd, 0x8f, 0x15, 0xef, 0xbd, 0xd5, 0x69, 0xd5, 0x3d, 0x37, 0x7b, 0xbc, 0xbd, 0x9b, 0xaf, 0x3b, 0x3d, 0x75, 0xf6, 0x63, 0x3d, 0xed, 0x3f, 0x63, 0xbe, 0x5b, 0x83, 0x61, 0xbe, 0xd6, 0xfc, 0x91, 0x3e, 0x67, 0x0f, 0x1d, 0xbd, 0x8b, 0x9b, 0x1b, 0xbe, 0x01, 0x78, 0x3d, 0xbd, 0x89, 0x44, 0x2b, 0xbe, 0x35, 0x74, 0x15, 0x3e, 0xa7, 0xb4, 0x61, 0x3d, 0xef, 0x2c, 0x49, 0x3e, 0x09, 0xa7, 0x8b, 0x3e, 0x73, 0x30, 0x40, 0x3d, 0xce, 0x2e, 0x64, 0xbe, 0xfb, 0x5c, 0xcb, 0xbd, 0x33, 0xf8, 0x77, 0x3e, 0xd9, 0xbf, 0x76, 0xbe, 0x93, 0x35, 0x5c, 0xbd, 0x05, 0xf7, 0x89, 0xbe, 0x9f, 0x7c, 0x3f, 0xbd, 0x21, 0x4b, 0x29, 0xbe, 0x30, 0x4c, 0xa4, 0x3d, 0x20, 0xde, 0x51, 0x3e, 0x04, 0x85, 0x7e, 0x3d, 0x61, 0xdb, 0x69, 0xbe, 0x5a, 0x1f, 0x66, 0x3e, 0xca, 0xba, 0x68, 0xbe, 0xf9, 0xc5, 0x8a, 0xbc, 0x2d, 0xb2, 0xaf, 0xbd, 0x99, 0xf6, 0xcf, 0x3c, 0x19, 0xdb, 0x47, 0x3e, 0x75, 0x69, 0x18, 0xbe, 0xec, 0x30, 0x57, 0xbe, 0x45, 0xf7, 0x71, 0x3e, 0x5e, 0xe9, 0x0b, 0xba, 0xef, 0xce, 0x73, 0x3e, 0x43, 0xaa, 0x93, 0x3e, 0x01, 0x91, 0xb7, 0xbc, 0x85, 0xa1, 0x2f, 0x3e, 0x50, 0xeb, 0x6b, 0xbd, 0xdb, 0x73, 0x2c, 0xbe, 0x9c, 0xe5, 0x54, 0xbe, 0xc0, 0x06, 0x6c, 0xbd, 0x00, 0x27, 0xd9, 0xbd, 0x78, 0xef, 0x96, 0xbd, 0x5b, 0x6f, 0xb3, 0xbc, 0xa1, 0xee, 0x07, 0xbd, 0xce, 0xd9, 0x5d, 0x3e, 0x0c, 0x05, 0x63, 0xbe, 0x65, 0xb6, 0x5e, 0xbd, 0x68, 0xbd, 0x81, 0xbd, 0xfd, 0x92, 0x37, 0xbe, 0x72, 0x7f, 0x09, 0xbe, 0xf2, 0x47, 0x08, 0x3e, 0x20, 0x70, 0x56, 0xbe, 0x98, 0x40, 0x7f, 0xbe, 0x38, 0x4e, 0x1b, 0x3d, 0x22, 0xb1, 0x3c, 0x3e, 0xb4, 0xe3, 0x3b, 0x3e, 0x1e, 0xa7, 0x3b, 0xbe, 0x20, 0x79, 0xf1, 0x3d, 0x80, 0xb3, 0xb5, 0xbc, 0x44, 0x88, 0x14, 0x3e, 0x40, 0xdb, 0x26, 0x3d, 0x95, 0xc4, 0x92, 0xbc, 0x61, 0xbc, 0x1f, 0xbd, 0xd5, 0x0f, 0x78, 0xbe, 0xc0, 0xf6, 0x6e, 0x3e, 0xc5, 0xfb, 0x9c, 0xbd, 0xb0, 0xd6, 0xe0, 0xbd, 0x61, 0x31, 0x43, 0xbe, 0x75, 0x96, 0x5e, 0xbe, 0x3e, 0x3a, 0x45, 0xbe, 0x8d, 0xb1, 0x5b, 0xbe, 0x6b, 0xe8, 0x12, 0x3d, 0xa0, 0x38, 0xd6, 0xbc, 0xa4, 0x1a, 0x5b, 0x3d, 0x28, 0x99, 0x17, 0xbe, 0x3c, 0x70, 0x6b, 0xbe, 0xa0, 0x62, 0x3a, 0x3e, 0xc7, 0xd6, 0x60, 0x3e, 0x5d, 0x2c, 0x56, 0x3e, 0xc4, 0xa4, 0x3d, 0x3e, 0x20, 0x90, 0x3f, 0xbe, 0x2c, 0xdc, 0x87, 0x3d, 0xd0, 0x2e, 0x43, 0xbd, 0xe2, 0x61, 0x16, 0x3d, 0x22, 0xcc, 0xea, 0xbd, 0x28, 0xc7, 0xdc, 0xbd, 0x30, 0x4b, 0x57, 0x3d, 0x38, 0x81, 0x15, 0xbe, 0xd3, 0x09, 0x29, 0xbe, 0xd8, 0x9d, 0x8c, 0x3d, 0xc0, 0xf7, 0x6b, 0xbd, 0x2b, 0x9d, 0x44, 0xbe, 0x88, 0xbe, 0x21, 0xbe, 0xb0, 0xe5, 0x1c, 0xbe, 0x10, 0x54, 0x3a, 0x3d, 0xd0, 0xec, 0xd2, 0x3d, 0x4b, 0x6e, 0xda, 0x3b, 0x01, 0x0e, 0xec, 0x3c, 0x5c, 0xcb, 0x2d, 0xbe, 0xc1, 0xb3, 0x1d, 0x3e, 0x02, 0xe0, 0x31, 0xbe, 0x94, 0xfb, 0x93, 0xbe, 0xad, 0xe9, 0x97, 0x3d, 0xb7, 0x21, 0xf5, 0xbb, 0x0d, 0x01, 0x8a, 0x3d, 0xca, 0x94, 0x47, 0xbe, 0xfc, 0xab, 0x54, 0xbe, 0xda, 0xf0, 0x4e, 0x3e, 0x08, 0xf6, 0x88, 0xbe, 0x03, 0xaf, 0xdf, 0x3d, 0x9b, 0xc5, 0x22, 0xbe, 0x07, 0x47, 0x83, 0x3e, 0x82, 0x36, 0x3b, 0x3e, 0x9a, 0xef, 0x20, 0x3e, 0xb5, 0x2a, 0x7d, 0xbc, 0xc0, 0xe4, 0x14, 0xbe, 0xa2, 0xe1, 0x8c, 0x3e, 0x69, 0xa8, 0x1a, 0xbe, 0x5d, 0xbf, 0xf8, 0x3d, 0x77, 0x35, 0xc4, 0x3c, 0x77, 0xaf, 0x7a, 0xbe, 0x24, 0x7a, 0x43, 0x3d, 0xd2, 0x47, 0xcb, 0x3c, 0x97, 0x41, 0xc5, 0xbc, 0xb6, 0x1d, 0x9b, 0xbc, 0x75, 0xc5, 0x41, 0x3e, 0xc1, 0xc9, 0x0b, 0xbc, 0x4f, 0x8b, 0x94, 0xba, 0x57, 0x85, 0x1e, 0x3e, 0xcb, 0xbb, 0x34, 0xbd, 0x84, 0xc4, 0x19, 0x3d, 0xac, 0x29, 0xdd, 0xbd, 0x0d, 0x6c, 0x04, 0xbe, 0x43, 0x0f, 0xa5, 0x3d, 0xb8, 0x46, 0x23, 0x3e, 0x33, 0x19, 0x3e, 0xbe, 0xa8, 0x13, 0x70, 0xbc, 0x54, 0x73, 0x9e, 0xbd, 0x97, 0xc3, 0xd1, 0xbd, 0x7a, 0xf7, 0xcd, 0x3b, 0xc8, 0xf9, 0x77, 0x3e, 0x5c, 0xda, 0x78, 0x3d, 0x92, 0x16, 0x5c, 0x3d, 0x71, 0x5f, 0x88, 0xbd, 0xd7, 0x50, 0x6a, 0xbe, 0xe5, 0xc0, 0x97, 0xbd, 0xdb, 0x14, 0x6b, 0xbe, 0xce, 0x70, 0xeb, 0x3c, 0xf9, 0x72, 0x46, 0xbe, 0xdd, 0xe2, 0x7b, 0x3e, 0x0e, 0x2c, 0xb7, 0xbd, 0x99, 0xb8, 0x91, 0x3e, 0x73, 0x1c, 0xb2, 0x3d, 0x50, 0xa3, 0x85, 0x3e, 0x3d, 0xf5, 0xe5, 0x3c, 0x66, 0x62, 0x4e, 0xbe, 0x63, 0x3a, 0x61, 0x3e, 0x5a, 0x42, 0x8a, 0x3e, 0x3b, 0xb9, 0x89, 0xbd, 0x19, 0x1c, 0x8e, 0x3d, 0xf2, 0x57, 0x07, 0x3e, 0xa4, 0x8c, 0x23, 0xbe, 0x47, 0xb0, 0x50, 0x3e, 0xce, 0x35, 0x3b, 0xbd, 0x7d, 0x25, 0x45, 0xbe, 0x40, 0x76, 0x1c, 0xbd, 0x6b, 0x7e, 0x15, 0x3e, 0x51, 0x4b, 0x85, 0xbd, 0x59, 0x32, 0x2c, 0xbe, 0xf0, 0x07, 0x82, 0x3e, 0x7a, 0xb6, 0x86, 0x3b, 0xd9, 0x00, 0x57, 0x3e, 0xc4, 0xa4, 0x1f, 0x3e, 0x9b, 0x59, 0x1c, 0xbd, 0xde, 0xe8, 0x4d, 0xbe, 0xc0, 0x16, 0x18, 0xbe, 0x5d, 0x7e, 0x35, 0xbe, 0xd7, 0xbd, 0x41, 0x3e, 0x01, 0x11, 0x55, 0x3d, 0x88, 0x4d, 0x0c, 0x3e, 0x08, 0xd1, 0x55, 0x3e, 0x49, 0xcc, 0x4d, 0x3e, 0x6c, 0x78, 0x54, 0xbe, 0xef, 0x25, 0xf4, 0x3d, 0xe2, 0xda, 0xe6, 0xbd, 0xd0, 0xa2, 0x34, 0x3e, 0x90, 0xb1, 0xd5, 0xbd, 0xed, 0x14, 0x69, 0x3e, 0xef, 0x47, 0x2c, 0x3e, 0xe9, 0xed, 0x93, 0xbc, 0xc7, 0xc2, 0xbd, 0x3d, 0xe7, 0x65, 0x36, 0x3e, 0xfe, 0x2f, 0x20, 0xbd, 0x07, 0xcf, 0x62, 0x3e, 0x73, 0x52, 0x21, 0x3e, 0xa0, 0xf9, 0x22, 0x3e, 0xd0, 0xd6, 0x2b, 0xbe, 0x95, 0xed, 0xb8, 0x3d, 0x3e, 0xaf, 0x0e, 0x3e, 0xe5, 0xa1, 0x8e, 0xbd, 0x76, 0x94, 0x68, 0x3e, 0x0e, 0x99, 0xb4, 0xbd, 0x09, 0xd4, 0x2d, 0x3e, 0xd9, 0xfe, 0x57, 0x3c, 0x84, 0x0e, 0x4e, 0x3d, 0x6e, 0x91, 0x42, 0x3e, 0x75, 0xb4, 0x09, 0x3e, 0x29, 0xf7, 0x90, 0x3c, 0x5a, 0xf2, 0x8b, 0x3e, 0x5b, 0x89, 0x58, 0x3e, 0xda, 0x07, 0xbd, 0xbd, 0x8e, 0xc4, 0x46, 0xbe, 0x7d, 0x3f, 0xb4, 0x3d, 0x97, 0xd0, 0xd3, 0xbc, 0x1a, 0x82, 0xd3, 0xbd, 0x6a, 0x4e, 0x1d, 0x3e, 0xc2, 0x8b, 0x06, 0xbe, 0x23, 0x8e, 0xd4, 0x3d, 0x04, 0xd6, 0x30, 0xbe, 0x69, 0xe8, 0x4a, 0x3e, 0x30, 0xff, 0x0c, 0x3e, 0xb2, 0x92, 0x0e, 0xbe, 0x40, 0x3f, 0x77, 0x3e, 0xdc, 0x72, 0x3d, 0xbe, 0xe0, 0x39, 0x59, 0xbe, 0x8d, 0x2b, 0x4a, 0xbe, 0x66, 0x3e, 0x94, 0x3c, 0xb8, 0x03, 0xc7, 0xbc, 0x2a, 0xb6, 0x0b, 0xbe, 0x37, 0x24, 0x5a, 0xbd, 0x12, 0x22, 0x25, 0xbe, 0x9a, 0xcc, 0xd9, 0x3c, 0x69, 0x36, 0xae, 0x3d, 0x19, 0x33, 0xf0, 0x3d, 0x8f, 0x33, 0x3c, 0xbe, 0xb7, 0x54, 0x40, 0xbe, 0xa2, 0x80, 0x5e, 0xbd, 0xba, 0x96, 0x04, 0x3e, 0x94, 0x91, 0x4b, 0xbe, 0x9c, 0x07, 0x8c, 0xbd, 0xe6, 0x93, 0x34, 0x3e, 0x30, 0x80, 0xd8, 0x3d, 0x1f, 0xdf, 0x26, 0x3e, 0x06, 0x6d, 0xf6, 0xbc, 0xd0, 0xc4, 0x18, 0xbe, 0xad, 0x4d, 0x3b, 0xbe, 0x48, 0x7a, 0x3f, 0x3e, 0x89, 0xda, 0xb5, 0xbd, 0x75, 0x69, 0x95, 0x3e, 0xec, 0x5f, 0x1c, 0xbd, 0x7f, 0x21, 0x16, 0x3c, 0xc4, 0x24, 0x70, 0xbe, 0x26, 0xde, 0x09, 0x3e, 0xd7, 0xd1, 0x7a, 0x3e, 0x98, 0x61, 0x5e, 0x3e, 0x41, 0xf6, 0x22, 0x3e, 0xbd, 0xca, 0xbd, 0xbd, 0xea, 0x44, 0x17, 0xbd, 0xdf, 0x61, 0x40, 0x3e, 0xca, 0x77, 0x8a, 0x3c, 0x0c, 0x51, 0xf7, 0x3d, 0x76, 0x18, 0x16, 0xba, 0xad, 0xc3, 0x46, 0xbe, 0xd3, 0xe0, 0x19, 0xbb, 0xa2, 0xa0, 0x9b, 0x3d, 0x8b, 0x07, 0x16, 0xbe, 0x59, 0xfd, 0x58, 0xbd, 0x81, 0x2e, 0xfe, 0xbd, 0x6b, 0xa6, 0xc4, 0xbc, 0x48, 0x09, 0x59, 0x3d, 0xdd, 0x6e, 0xe2, 0x3d, 0x23, 0x6e, 0x02, 0xbe, 0x61, 0x21, 0x94, 0x3e, 0x62, 0xbe, 0x88, 0xbd, 0xef, 0x84, 0x36, 0xbe, 0x54, 0x98, 0x92, 0x3e, 0x9a, 0x4c, 0x8f, 0x3d, 0xc7, 0xd2, 0x8a, 0xbe, 0x44, 0xc1, 0x3f, 0xbc, 0xe8, 0x1c, 0x11, 0xbd, 0x4a, 0x82, 0x86, 0x3e, 0x3d, 0xdf, 0x2c, 0xbe, 0x7e, 0xea, 0x8d, 0x3b, 0xe8, 0xc7, 0x30, 0x3c, 0xd2, 0x51, 0x84, 0xbe, 0xd8, 0xae, 0x11, 0x3b, 0xe1, 0x54, 0xc6, 0x3d, 0x8b, 0xb1, 0x57, 0x3e, 0x87, 0xf0, 0x6d, 0x3e, 0x10, 0x1b, 0x18, 0x3e, 0x45, 0xcf, 0x33, 0x3e, 0x45, 0x05, 0x82, 0xbc, 0x37, 0xa0, 0x7d, 0x3e, 0x51, 0xb7, 0xcb, 0x3d, 0xaf, 0x58, 0x84, 0x3e, 0xd1, 0x59, 0x4e, 0x3d, 0x48, 0x18, 0x05, 0x3e, 0xe1, 0x47, 0xe0, 0x3d, 0xb5, 0x02, 0xd9, 0xbd, 0x9d, 0x2c, 0x58, 0x3c, 0x9d, 0xe2, 0x38, 0xbe, 0x00, 0x9e, 0x16, 0x3e, 0xdf, 0x85, 0x8b, 0xbd, 0x12, 0xa6, 0x0a, 0x3d, 0x44, 0xeb, 0x82, 0xbe, 0x50, 0x07, 0xe8, 0xbd, 0x72, 0xe8, 0xfc, 0xbd, 0x09, 0xaf, 0x48, 0xbe, 0x20, 0x63, 0x80, 0x3d, 0xf9, 0xce, 0x4f, 0xbe, 0xaf, 0x34, 0x05, 0xbe, 0xbe, 0x68, 0xc3, 0x3d, 0x81, 0x4b, 0xe6, 0x3b, 0x67, 0x06, 0x3d, 0x3d, 0x5d, 0x03, 0xe0, 0xbd, 0x28, 0xb0, 0xa4, 0xbd, 0xdb, 0x45, 0x22, 0x3e, 0xa7, 0x30, 0x30, 0x3e, 0x8e, 0x65, 0x5c, 0x3e, 0x70, 0x62, 0xe9, 0x3d, 0xe7, 0x41, 0x61, 0xbe, 0x6c, 0xd4, 0x16, 0xbd, 0x0c, 0x4d, 0x31, 0x3e, 0xd3, 0x9e, 0xcc, 0x3d, 0xdd, 0x54, 0x3d, 0x3e, 0xdd, 0xd9, 0x2d, 0x3e, 0xc5, 0x86, 0xbf, 0x3c, 0x01, 0x30, 0x6b, 0xbe, 0x4c, 0xf7, 0x30, 0x3d, 0x2a, 0xac, 0x46, 0x3e, 0x46, 0x73, 0x44, 0x3e, 0xcc, 0x0c, 0x6f, 0xbe, 0x8d, 0xa8, 0xcb, 0xbd, 0x8e, 0xa2, 0x36, 0x3e, 0x75, 0x2b, 0xae, 0x3d, 0xf6, 0x22, 0x10, 0x3e, 0x3c, 0xf9, 0x3a, 0x3e, 0xac, 0xdd, 0x0f, 0xbe, 0x32, 0xe5, 0x5f, 0xbe, 0x5c, 0x4f, 0x9a, 0x3b, 0xae, 0x21, 0x8e, 0xbd, 0x13, 0x14, 0x34, 0xbe, 0x53, 0xbd, 0x8c, 0xbb, 0x78, 0x28, 0x3a, 0xbc, 0x71, 0x20, 0x2a, 0x3e, 0x36, 0x98, 0x82, 0x3d, 0xe2, 0xc4, 0x86, 0x3d, 0x06, 0x34, 0x34, 0xbe, 0x86, 0xaa, 0x91, 0xbd, 0x6a, 0x5c, 0x12, 0xbd, 0x84, 0x71, 0x56, 0x3e, 0x14, 0xd4, 0x79, 0x3d, 0xae, 0x8f, 0xab, 0x3d, 0x02, 0x1f, 0x33, 0x3e, 0x89, 0x0b, 0x8a, 0x3e, 0x63, 0x70, 0xba, 0x3d, 0x54, 0x36, 0x49, 0xbe, 0x70, 0x85, 0x54, 0xbe, 0xf8, 0xcc, 0x2a, 0x3e, 0x00, 0x72, 0x1b, 0xbd, 0xfc, 0x0b, 0x47, 0x3e, 0x18, 0x1f, 0xd6, 0xbd, 0x90, 0x1f, 0x66, 0xbd, 0x28, 0x25, 0x44, 0xbe, 0xd0, 0x31, 0xe8, 0xbd, 0xe0, 0xd0, 0x8f, 0x3c, 0x00, 0x4b, 0x20, 0xbe, 0x24, 0x85, 0x27, 0x3e, 0x30, 0x7d, 0x73, 0x3d, 0xe0, 0x53, 0x3d, 0x3d, 0x00, 0x6c, 0xdd, 0xbd, 0xc0, 0x15, 0x13, 0xbc, 0xf8, 0x3e, 0x00, 0x3e, 0xf4, 0x7f, 0x07, 0x3e, 0x58, 0xa7, 0xdb, 0xbd, 0x04, 0x73, 0x6c, 0xbe, 0x4c, 0xe1, 0x57, 0x3e, 0xc0, 0x5f, 0xf6, 0x3d, 0x1c, 0x5e, 0x13, 0xbe, 0xe0, 0xa5, 0xe2, 0x3c, 0x3c, 0x86, 0x2b, 0xbe, 0xc0, 0x7b, 0x04, 0x3d, 0xc0, 0x10, 0xf5, 0x3c, 0xb4, 0xa4, 0x50, 0xbe, 0xe8, 0xbb, 0xd3, 0x3d, 0xa0, 0xf2, 0x4b, 0x3d, 0xc0, 0x35, 0x60, 0x3d, 0x40, 0x81, 0x62, 0x3d, 0x64, 0x82, 0x78, 0x3e, 0xf0, 0xfd, 0x98, 0xbd, 0x34, 0x0d, 0x15, 0xbe, 0x80, 0xb6, 0xc1, 0x3c, 0x80, 0x44, 0xfb, 0xbd, 0x10, 0x46, 0x5e, 0xbe, 0xbc, 0xcb, 0x23, 0xbe, 0xc0, 0x72, 0x2a, 0xbd, 0x80, 0x95, 0x52, 0xbc, 0xe0, 0xff, 0xd5, 0xbc, 0x40, 0x28, 0x5d, 0xbd, 0x5c, 0x89, 0x47, 0xbe, 0x50, 0x2a, 0x64, 0xbe, 0x60, 0x8a, 0xfd, 0x3d, 0x80, 0x13, 0x88, 0xbb, 0x00, 0x47, 0x11, 0xbd, 0xd0, 0x31, 0x9f, 0x3d, 0xd4, 0x7d, 0x1b, 0xbe, 0x48, 0xe2, 0xd1, 0xbd, 0x40, 0x7a, 0xcc, 0xbc, 0x08, 0x86, 0xbc, 0x3d, 0x08, 0x04, 0x9a, 0xbd, 0xf8, 0xd7, 0x1a, 0xbe, 0xdc, 0xa0, 0x27, 0x3e, 0x68, 0xc6, 0x03, 0xbe, 0xb0, 0xf3, 0x57, 0xbd, 0x10, 0x39, 0xa1, 0x3d, 0xd4, 0xcf, 0x22, 0xbe, 0xe0, 0x48, 0x46, 0x3d, 0x58, 0xe9, 0x89, 0x3d, 0x20, 0x65, 0xda, 0x3c, 0x7c, 0x06, 0x3f, 0xbe, 0x74, 0x79, 0x42, 0x3e, 0xae, 0xa2, 0x91, 0xbd, 0x2d, 0x36, 0x35, 0xbe, 0x99, 0x2b, 0xc8, 0xbd, 0x5b, 0xae, 0x02, 0x3e, 0xea, 0x87, 0xf6, 0x3d, 0x51, 0xe7, 0xe9, 0x3d, 0xec, 0x81, 0x1b, 0xbe, 0x94, 0x08, 0xd1, 0xbd, 0x70, 0x33, 0x7e, 0xbe, 0x83, 0x82, 0xbc, 0x3d, 0xc4, 0xd0, 0x01, 0x3e, 0xb2, 0xd2, 0x8d, 0x3e, 0x79, 0xe6, 0x49, 0x3e, 0x75, 0x3e, 0x74, 0x3e, 0xe8, 0xb2, 0x7c, 0xbe, 0x74, 0xa6, 0xae, 0xbd, 0x81, 0x4f, 0xda, 0xbd, 0xe5, 0x85, 0x66, 0x3e, 0xc4, 0x4e, 0x51, 0xbe, 0x9b, 0x0a, 0x0c, 0x3d, 0xa2, 0xd1, 0x49, 0xbe, 0x15, 0x43, 0x25, 0xbe, 0x60, 0x03, 0x79, 0xbe, 0xed, 0x3e, 0x45, 0xbe, 0xc3, 0xc6, 0x45, 0x3e, 0xcb, 0x12, 0x61, 0x3c, 0xc9, 0xa7, 0x30, 0xbd, 0xfb, 0x13, 0x91, 0x3e, 0x1b, 0xc9, 0x0f, 0x3d, 0x4b, 0x0d, 0x89, 0xbe, 0x56, 0x37, 0x08, 0x3e, 0x80, 0xf7, 0x3c, 0xbe, 0x7e, 0xef, 0x37, 0x3e, 0x62, 0xb6, 0x32, 0x3e, 0xea, 0xe3, 0x64, 0x3d, 0xcb, 0x18, 0x5b, 0xbe, 0xc7, 0x7a, 0xfc, 0x3d, 0x25, 0x31, 0xf7, 0x3d, 0x5b, 0x6c, 0xff, 0xbd, 0xbc, 0xa2, 0x14, 0xbe, 0x40, 0x68, 0x37, 0xbe, 0xa7, 0x17, 0x98, 0x3e, 0xe8, 0x98, 0x04, 0xbe, 0xe5, 0xf5, 0xde, 0x3c, 0x8f, 0xa5, 0x61, 0x3e, 0xb2, 0xa7, 0xd2, 0x3d, 0xcc, 0x27, 0xbb, 0x3c, 0xdd, 0xdf, 0x60, 0xbe, 0x16, 0xce, 0x6e, 0xbe, 0x05, 0xc2, 0xc5, 0x3c, 0xa3, 0x92, 0xac, 0x3d, 0xcd, 0x44, 0xbc, 0x3d, 0x16, 0x9b, 0xf2, 0x3d, 0x56, 0x1d, 0x43, 0xbd, 0x10, 0x69, 0x89, 0xbe, 0x62, 0xb5, 0xda, 0x3c, 0x55, 0x21, 0xc9, 0xbd, 0xbf, 0x99, 0x50, 0x3e, 0x37, 0x5c, 0xaa, 0x3d, 0x3e, 0x4a, 0x58, 0xbd, 0x6a, 0xc7, 0xa7, 0xbd, 0xc3, 0x80, 0x3b, 0x3d, 0x9e, 0x4e, 0x6e, 0x3d, 0x49, 0xca, 0x7f, 0xbe, 0x71, 0x55, 0xb3, 0xbc, 0xec, 0xb2, 0xb4, 0xbc, 0x14, 0xf5, 0xbe, 0x3d, 0x79, 0x2e, 0x05, 0xbe, 0x04, 0x4e, 0x6d, 0x3e, 0x37, 0xe2, 0x8f, 0xbe, 0x3d, 0x34, 0x4c, 0xbe, 0x58, 0xe8, 0xd2, 0xbd, 0x46, 0x07, 0x7e, 0x3e, 0x8a, 0x9e, 0xb9, 0x3c, 0xeb, 0x1f, 0x71, 0x3e, 0xd8, 0xc3, 0xc1, 0x3d, 0x23, 0x8b, 0x16, 0x3e, 0xd7, 0x11, 0x85, 0x3e, 0x20, 0xff, 0xe7, 0xbc, 0x7c, 0x64, 0x1d, 0x3e, 0xd1, 0xa5, 0x4d, 0x3e, 0x76, 0x39, 0x12, 0x3e, 0xc7, 0x79, 0x15, 0x3e, 0x70, 0xb6, 0x11, 0x3d, 0xef, 0xf3, 0x88, 0x3e, 0x33, 0xe1, 0x88, 0x3e, 0xe3, 0xa5, 0xc3, 0x3d, 0x93, 0x22, 0x5d, 0x3e, 0x43, 0xd5, 0x20, 0x3e, 0x07, 0x02, 0x6a, 0x3e, 0x0f, 0x7b, 0x28, 0x3e, 0x25, 0xfd, 0x0c, 0xbe, 0x85, 0x9f, 0x9b, 0xbd, 0xbb, 0xe6, 0xc0, 0xbd, 0x75, 0xc3, 0x9a, 0x3d, 0x08, 0xc0, 0x5d, 0xbe, 0x33, 0xab, 0x55, 0x3e, 0xb3, 0xcd, 0xf1, 0xbd, 0xea, 0xfb, 0xff, 0x3d, 0x9f, 0xa9, 0x33, 0x3e, 0x1e, 0x48, 0x2b, 0x3d, 0x73, 0x19, 0x64, 0x3e, 0xc1, 0x91, 0x32, 0x3e, 0x0b, 0xe9, 0x43, 0xbe, 0xff, 0xbd, 0x3c, 0x3d, 0x48, 0x5a, 0x18, 0x3e, 0xfd, 0x4f, 0x9d, 0x3d, 0xfa, 0x98, 0x55, 0x3e, 0x6a, 0xb3, 0x32, 0xbe, 0x21, 0xc9, 0xae, 0x3d, 0x17, 0x1d, 0x20, 0xbd, 0x27, 0x1c, 0xc6, 0x3d, 0x29, 0x4d, 0xb1, 0xbd, 0x19, 0x45, 0x43, 0x3e, 0x4e, 0xf5, 0x97, 0x3e, 0x0a, 0x59, 0xc7, 0xbd, 0xf2, 0x71, 0x04, 0x3d, 0xa7, 0xb2, 0x16, 0x3e, 0x89, 0xb9, 0x44, 0xbd, 0x3e, 0x64, 0x0f, 0x3e, 0xd0, 0xf3, 0x3b, 0xbe, 0xe6, 0xfc, 0x88, 0x3e, 0x72, 0xf0, 0xb8, 0xbd, 0x5e, 0x9f, 0x54, 0xbb, 0xc2, 0xaa, 0x11, 0x3e, 0xf6, 0x9f, 0x8d, 0xbe, 0x4c, 0xcc, 0x92, 0xbe, 0xd4, 0xd3, 0xd2, 0x3d, 0x45, 0x48, 0x58, 0x3e, 0x6e, 0x14, 0x12, 0x3e, 0x50, 0x76, 0x8c, 0xbd, 0x16, 0xd2, 0x03, 0xbe, 0x08, 0x64, 0xb8, 0x3d, 0x17, 0x8b, 0xbb, 0xbd, 0xff, 0x02, 0xa0, 0x3d, 0xb9, 0xa4, 0x47, 0xbd, 0x79, 0x30, 0x63, 0x3e, 0x22, 0x20, 0x9c, 0xbd, 0x9d, 0xd6, 0x14, 0x3d, 0x05, 0x7e, 0x8c, 0x3d, 0xf7, 0xdc, 0x23, 0xbe, 0x64, 0x9f, 0xa2, 0x3c, 0x89, 0x7c, 0xda, 0xbd, 0xb1, 0xe1, 0x2d, 0x3e, 0x39, 0x91, 0x7a, 0x3d, 0xed, 0xfb, 0x72, 0x3d, 0xff, 0xbc, 0x7c, 0x3e, 0x75, 0xf2, 0x15, 0x3e, 0x0d, 0xf7, 0x44, 0xbd, 0x63, 0x72, 0x03, 0x3e, 0x94, 0x45, 0x98, 0xbc, 0x0d, 0xf6, 0x0b, 0x3e, 0xa1, 0x8b, 0x11, 0xbd, 0xd4, 0x14, 0xa0, 0x3d, 0x70, 0x22, 0x3b, 0x3e, 0x0a, 0xac, 0x8f, 0x3d, 0x3f, 0x56, 0x8b, 0x3d, 0x63, 0xc9, 0x8d, 0xbd, 0x56, 0x91, 0x9b, 0xbd, 0xa8, 0x2d, 0xaa, 0xbd, 0x5b, 0xe0, 0xe3, 0x3d, 0x68, 0x13, 0x2a, 0x3e, 0xa8, 0x33, 0xf1, 0xbd, 0xab, 0x88, 0x3d, 0xbe, 0x8b, 0x5d, 0x5f, 0x3d, 0xb5, 0x4b, 0xcc, 0x3c, 0xb6, 0x1d, 0x8e, 0xbd, 0xb9, 0x03, 0x27, 0x3e, 0x0f, 0x85, 0x51, 0xbd, 0x40, 0xdf, 0x38, 0xbc, 0xbf, 0x66, 0xdb, 0xbd, 0xe0, 0xcd, 0xf3, 0x3d, 0xe7, 0x21, 0x20, 0x3d, 0x50, 0xfc, 0x1d, 0xbe, 0x0d, 0x23, 0x75, 0xbe, 0x1b, 0xd3, 0x55, 0x3e, 0x18, 0x44, 0xe8, 0x3c, 0xed, 0xc8, 0x21, 0x3e, 0xdc, 0xc3, 0xa3, 0x3d, 0xce, 0xda, 0x06, 0x3d, 0x13, 0x42, 0x68, 0x3e, 0xee, 0x26, 0x3e, 0xbe, 0x48, 0xbe, 0xdd, 0x3d, 0xd8, 0x70, 0x92, 0x3e, 0x79, 0xe3, 0x17, 0xbe, 0x66, 0x8d, 0x96, 0x3e, 0xc0, 0x16, 0x54, 0xbe, 0xfd, 0x43, 0xfd, 0xbd, 0x68, 0x9a, 0x06, 0xbe, 0xf8, 0x07, 0xf1, 0x3c, 0x5c, 0xf4, 0x78, 0x3e, 0x0d, 0xe3, 0x8a, 0x3e, 0x0e, 0xec, 0x43, 0xbe, 0xaa, 0xcd, 0xbe, 0x3d, 0xfb, 0xff, 0x8c, 0x3e, 0xed, 0x82, 0x89, 0xbe, 0x64, 0x3f, 0xe3, 0x3d, 0xa3, 0x69, 0x8a, 0x3e, 0x88, 0xba, 0xbc, 0x3d, 0xaf, 0xe0, 0xbc, 0x3a, 0x81, 0x54, 0x70, 0xbe, 0x08, 0xab, 0x42, 0x3d, 0x1a, 0xff, 0x34, 0x3e, 0x3a, 0x40, 0x39, 0x3c, 0x5c, 0x11, 0xfd, 0xbc, 0x30, 0xf1, 0x6f, 0xbe, 0xae, 0xd6, 0x6c, 0x3e, 0xc5, 0x7e, 0x68, 0x3e, 0xc6, 0xdf, 0x0e, 0xbd, 0x6b, 0x62, 0x0c, 0x3d, 0x9b, 0xce, 0x8e, 0xbe, 0x35, 0xa5, 0x70, 0xbd, 0x2f, 0xa9, 0x7e, 0x3e, 0x63, 0xd7, 0x8d, 0xbe, 0x83, 0xb8, 0x58, 0x3e, 0xfd, 0x40, 0x46, 0xbe, 0x01, 0x3c, 0x14, 0x3e, 0xe9, 0x42, 0x84, 0xbe, 0x9b, 0xe0, 0xb0, 0xbd, 0x54, 0xa5, 0x83, 0x3e, 0x17, 0x6d, 0x0b, 0x3d, 0x97, 0x84, 0x08, 0x3e, 0xe7, 0xa4, 0xa6, 0x3d, 0x63, 0x6c, 0xa4, 0xbd, 0x4e, 0x53, 0xa2, 0x3d, 0xa8, 0x2c, 0x3b, 0x39, 0xbe, 0x14, 0x40, 0x3d, 0x6a, 0x47, 0x93, 0x3e, 0xd7, 0x27, 0x75, 0xbe, 0xf8, 0x84, 0xbc, 0xbd, 0x2d, 0x71, 0x99, 0x3d, 0x7e, 0xf6, 0x92, 0xbd, 0x75, 0x04, 0x0c, 0x3e, 0x79, 0xb3, 0x1a, 0xbe, 0x47, 0x7d, 0x88, 0xbd, 0x20, 0x6b, 0x0b, 0x3e, 0xd7, 0xb1, 0x3e, 0xbe, 0xf2, 0x88, 0x21, 0xbd, 0xff, 0xed, 0x30, 0x3e, 0x94, 0x8c, 0xfb, 0xbd, 0x1a, 0xb9, 0xae, 0xbd, 0xcc, 0x4b, 0xf4, 0xbd, 0xac, 0x01, 0x4e, 0xbe, 0x1d, 0x01, 0x28, 0xbe, 0x1b, 0x7a, 0xf8, 0xbc, 0x5f, 0x66, 0x20, 0x3e, 0x35, 0x60, 0x18, 0x3e, 0xcc, 0x7d, 0x34, 0x3e, 0x2d, 0x7b, 0x0e, 0x3e, 0x84, 0x81, 0x61, 0x3e, 0x51, 0xe9, 0x99, 0x3d, 0x7c, 0x33, 0x1a, 0x3e, 0x0b, 0x47, 0xcb, 0xbd, 0xf4, 0x5a, 0x52, 0xbd, 0x78, 0x1a, 0xae, 0xbd, 0x21, 0x11, 0xa3, 0xbd, 0xba, 0xb8, 0x80, 0xbc, 0x9f, 0x09, 0x19, 0xbe, 0x30, 0x65, 0x98, 0xbd, 0x8d, 0x50, 0x99, 0x3d, 0x84, 0xdb, 0xf5, 0xbd, 0xaf, 0x3e, 0x8c, 0xbe, 0x42, 0x85, 0x08, 0x3e, 0xc0, 0xe0, 0x2a, 0xbe, 0x57, 0x40, 0x15, 0xbe, 0x19, 0xd4, 0x33, 0x3e, 0x12, 0xce, 0x5a, 0x3e, 0x45, 0xc4, 0x86, 0xbe, 0x90, 0xf5, 0x25, 0xbc, 0x39, 0xf7, 0x01, 0xbe, 0x10, 0xb6, 0x77, 0xbe, 0x2f, 0x7d, 0x8d, 0xbd, 0x7a, 0x8f, 0x12, 0x3e, 0x05, 0x20, 0x3b, 0x3e, 0x79, 0xe2, 0x3b, 0xbd, 0x1c, 0xc0, 0x03, 0x3e, 0x68, 0x89, 0x54, 0x3e, 0xb0, 0x2f, 0x1b, 0xbd, 0x8d, 0x6c, 0xf7, 0x3d, 0x9e, 0x92, 0x02, 0x3d, 0xec, 0x6c, 0x80, 0x3d, 0xc9, 0xe6, 0x01, 0xbe, 0x8d, 0x46, 0x4e, 0xbe, 0xa6, 0x8a, 0x42, 0xbb, 0x01, 0x85, 0xe2, 0x3a, 0xd9, 0x70, 0x47, 0xbd, 0xcd, 0xe3, 0xf1, 0xbd, 0xce, 0x5f, 0x6c, 0xbe, 0xd4, 0x97, 0x2b, 0xbe, 0x7f, 0x52, 0x44, 0xbe, 0x03, 0x8d, 0xc9, 0x3c, 0x92, 0xa1, 0x2e, 0xbe, 0xa5, 0xce, 0x83, 0x3d, 0x93, 0x86, 0x37, 0xbe, 0x79, 0xb1, 0x2c, 0xbe, 0x46, 0x07, 0x94, 0xbc, 0xc4, 0x2d, 0xa4, 0xbd, 0xc3, 0x82, 0x5b, 0x3e, 0x08, 0xd8, 0x35, 0x3e, 0x26, 0xc3, 0xc1, 0xbd, 0xbf, 0xf8, 0x3f, 0xbe, 0x4a, 0x45, 0x5e, 0x3c, 0x40, 0x39, 0x11, 0xbe, 0x0d, 0xe3, 0x03, 0x3e, 0xea, 0xa4, 0x00, 0xbe, 0x07, 0xae, 0x42, 0x3e, 0x28, 0x24, 0x75, 0xbe, 0xca, 0x37, 0x26, 0xbe, 0x4f, 0x13, 0x12, 0x3e, 0x0a, 0xb5, 0x20, 0x3e, 0xa9, 0x45, 0x5a, 0x3e, 0x83, 0xbb, 0x08, 0xbe, 0xc1, 0x5f, 0x1d, 0xbe, 0x89, 0x4e, 0x7f, 0xbe, 0xf6, 0x92, 0xe1, 0xbb, 0x7b, 0x49, 0x96, 0x3d, 0xbe, 0x2d, 0x32, 0x3e, 0xfd, 0x5b, 0x87, 0xbc, 0x4d, 0xcc, 0x9f, 0xbd, 0x4f, 0x15, 0xad, 0xba, 0xdf, 0xe7, 0x54, 0x3e, 0xc8, 0x7a, 0x80, 0x3d, 0xd8, 0xdd, 0x45, 0x3c, 0x50, 0x30, 0x7f, 0xbe, 0xac, 0x96, 0x9d, 0x3c, 0xe6, 0x9f, 0x2b, 0x3d, 0xb1, 0x75, 0x2c, 0x3d, 0xa2, 0xdf, 0x44, 0x3e, 0x4e, 0x63, 0x55, 0xbe, 0x73, 0xd0, 0xa9, 0x3c, 0x0c, 0xb1, 0xdc, 0x3d, 0xd6, 0x35, 0x74, 0xbd, 0x67, 0xbf, 0x0f, 0xbe, 0x1a, 0x9b, 0x53, 0xbe, 0x8e, 0xaa, 0x45, 0xbe, 0xd4, 0xae, 0x85, 0x3e, 0x1a, 0xa6, 0x01, 0xbe, 0x16, 0x08, 0x8e, 0x3d, 0xcb, 0x4a, 0xa2, 0xbd, 0x45, 0x30, 0x78, 0xbe, 0x1d, 0x3f, 0xe9, 0x3c, 0x90, 0x5f, 0xcb, 0x3d, 0x0b, 0xae, 0x11, 0x3e, 0x69, 0x72, 0x10, 0xbe, 0x8e, 0xdb, 0x42, 0xbe, 0xca, 0x89, 0x6e, 0xbe, 0x51, 0xaf, 0x83, 0x3e, 0x6a, 0x6b, 0x08, 0x3d, 0x32, 0x9a, 0xc6, 0xbd, 0x7f, 0xcb, 0x07, 0xbe, 0x72, 0xa3, 0x79, 0xbe, 0xef, 0x4f, 0xd0, 0xbd, 0xc5, 0x6a, 0xdd, 0x3b, 0xf0, 0x27, 0x5f, 0x3e, 0x8a, 0x3b, 0x22, 0xbe, 0x24, 0x35, 0x13, 0x3d, 0x1b, 0x99, 0x67, 0x3e, 0x29, 0x0a, 0x86, 0xbe, 0xc3, 0xe0, 0x28, 0x3d, 0x74, 0x8c, 0x5a, 0x3e, 0xb4, 0xa7, 0xa1, 0xbd, 0x8a, 0xca, 0x84, 0xbe, 0xc1, 0xc7, 0x74, 0xbc, 0x7c, 0x8c, 0xca, 0x3b, 0x09, 0xf1, 0x75, 0xbe, 0x87, 0xb7, 0x11, 0x3e, 0xff, 0x8a, 0x00, 0xbe, 0xa4, 0x8b, 0x5b, 0x3e, 0x15, 0x53, 0x81, 0xbd, 0xee, 0x88, 0x52, 0x3e, 0x3d, 0xca, 0x2a, 0xbe, 0x86, 0xc7, 0x93, 0x3e, 0xc9, 0x50, 0x84, 0x3e, 0xca, 0x23, 0x12, 0xbd, 0x97, 0x7f, 0x8f, 0x3e, 0xac, 0x34, 0x9c, 0xbd, 0x13, 0xcf, 0x02, 0x3d, 0x56, 0x85, 0x90, 0xbd, 0xf7, 0xef, 0x79, 0x3d, 0xb7, 0x01, 0x84, 0xbe, 0x2a, 0x06, 0x3e, 0x3e, 0xee, 0xa5, 0x59, 0xbe, 0x8e, 0x46, 0xc4, 0xbc, 0xa1, 0x74, 0x39, 0x3e, 0x21, 0x21, 0x85, 0x3d, 0x6d, 0xdb, 0x51, 0xbe, 0xfb, 0xf2, 0xd1, 0x3d, 0xe1, 0xc7, 0x4b, 0x3e, 0x45, 0xff, 0x39, 0x3e, 0x97, 0x62, 0xdb, 0x3c, 0x9b, 0xb2, 0x60, 0xbe, 0x23, 0x2f, 0x56, 0x3e, 0xdc, 0xdc, 0xa9, 0xbd, 0x57, 0xc7, 0xc5, 0xbd, 0x9a, 0xe2, 0x42, 0x3e, 0x13, 0x48, 0x29, 0x3c, 0xcf, 0x29, 0x12, 0xbc, 0x22, 0x89, 0x5e, 0xbc, 0xca, 0x94, 0x95, 0x3e, 0xe1, 0x8b, 0xb8, 0xbd, 0x7c, 0x4d, 0xd1, 0x3d, 0xcb, 0xf9, 0xd8, 0xbd, 0xea, 0x73, 0x32, 0x3e, 0xc7, 0x8a, 0x60, 0xbe, 0xbc, 0x5f, 0x24, 0x3e, 0x09, 0xe3, 0xb3, 0x3d, 0x93, 0x10, 0xb8, 0x3d, 0x4e, 0x35, 0x67, 0xbe, 0x74, 0x10, 0x3e, 0xbd, 0x30, 0x0c, 0x86, 0xbd, 0xba, 0xde, 0x6a, 0x3e, 0xaf, 0x01, 0xa2, 0xbd, 0xb9, 0x87, 0xde, 0x3d, 0x6d, 0x13, 0x14, 0xbe, 0x76, 0x57, 0x37, 0x3e, 0x41, 0xe5, 0x07, 0xbe, 0xb9, 0x64, 0xb7, 0x3d, 0x03, 0xa9, 0x8b, 0x3d, 0xe9, 0x1f, 0x26, 0x3e, 0x65, 0x3c, 0xb9, 0xbd, 0xe4, 0x73, 0xcf, 0xbd, 0x8f, 0x60, 0x51, 0x3c, 0x8c, 0x0c, 0x73, 0x3c, 0xcb, 0xc8, 0x3a, 0xbd, 0xaa, 0x00, 0x3f, 0xbe, 0x34, 0x59, 0x5c, 0x3e, 0x64, 0x8f, 0xf1, 0xbd, 0x9c, 0xa4, 0x4c, 0xbe, 0xd0, 0xa5, 0x2f, 0xbe, 0x92, 0xab, 0x23, 0xbe, 0xc9, 0x20, 0xc5, 0x3c, 0xa7, 0xe6, 0x49, 0x3e, 0xef, 0xa0, 0x86, 0x3d, 0xd3, 0xd3, 0xb6, 0xbb, 0xa7, 0xa3, 0x83, 0xbd, 0x8c, 0xdb, 0x9f, 0xbd, 0xe5, 0xc8, 0x6c, 0xbd, 0xc0, 0x4a, 0x9a, 0xbd, 0x3f, 0xe1, 0x12, 0x3e, 0xeb, 0xfc, 0xf9, 0xbc, 0x5c, 0x6d, 0x06, 0xbe, 0xf8, 0xe4, 0x56, 0xbc, 0xec, 0x1a, 0x79, 0x3d, 0xe1, 0x42, 0x35, 0x3e, 0xb0, 0xf2, 0x9c, 0xbd, 0xbc, 0x33, 0xa0, 0xbd, 0x10, 0xfa, 0xc9, 0xbd, 0xfc, 0xa4, 0x62, 0x3e, 0x84, 0x6b, 0x5b, 0x3e, 0x78, 0xba, 0x4a, 0xbe, 0xb0, 0x7e, 0x85, 0xbd, 0x08, 0xce, 0x08, 0xbe, 0x20, 0x70, 0x3a, 0xbd, 0x80, 0x81, 0x4e, 0xbe, 0xc0, 0xfe, 0x8b, 0x3d, 0xa0, 0x9b, 0x0b, 0x3e, 0xe0, 0x7e, 0x35, 0x3d, 0x60, 0x7b, 0xad, 0xbd, 0x00, 0x3f, 0x2e, 0xbc, 0x20, 0xf5, 0x53, 0xbd, 0xf8, 0xdd, 0xe6, 0xbd, 0x00, 0xab, 0xce, 0xbc, 0xc8, 0xbb, 0x39, 0xbe, 0x6c, 0xc4, 0x14, 0x3e, 0x78, 0x61, 0x19, 0xbe, 0x00, 0xb0, 0xa8, 0x3c, 0x40, 0x05, 0x2f, 0x3c, 0xe0, 0x7b, 0x33, 0xbe, 0x7c, 0x58, 0x1c, 0xbe, 0x00, 0x1d, 0xa9, 0xbc, 0x78, 0x6b, 0x8f, 0xbd, 0xa0, 0xc2, 0x50, 0x3e, 0xb8, 0xfb, 0xbb, 0xbd, 0x50, 0x96, 0x6c, 0xbd, 0x60, 0xca, 0xa3, 0x3c, 0xb0, 0xdc, 0xf5, 0xbd, 0x38, 0x40, 0xe9, 0xbd, 0x30, 0xe7, 0x92, 0xbd, 0x0c, 0x03, 0x70, 0x3e, 0xc8, 0xa5, 0x5d, 0x3e, 0x34, 0x33, 0x31, 0x3e, 0x80, 0x8c, 0xd1, 0xbb, 0x60, 0xf2, 0x99, 0xbc, 0x08, 0x12, 0xab, 0x3d, 0x0c, 0x00, 0x1a, 0xbe, 0x38, 0xbc, 0x7d, 0xbe, 0x70, 0xab, 0x11, 0x3d, 0x00, 0x44, 0x01, 0xbd, 0x00, 0x22, 0x4e, 0xbb, 0x90, 0x86, 0x24, 0xbe, 0x3c, 0x21, 0x51, 0xbe, 0x40, 0xf8, 0xb6, 0x3d, 0x70, 0x92, 0x77, 0xbd, 0xf0, 0x7e, 0x56, 0xbe, 0x70, 0x5b, 0x37, 0xbd, 0xc8, 0xa5, 0xe5, 0xbd, 0xf4, 0xfe, 0x1d, 0xbe, 0x08, 0x93, 0x11, 0x3e, 0xa8, 0x42, 0x23, 0xbe, 0x70, 0xe9, 0xfb, 0xbd, 0x00, 0xea, 0x3d, 0x3c, 0x04, 0x5b, 0x24, 0xbe, 0xd4, 0xf7, 0x56, 0xbe, 0x00, 0xbd, 0xb4, 0x3d, 0x7c, 0xd7, 0x16, 0xbe, 0xb0, 0x74, 0x4e, 0x3e, 0x40, 0x2b, 0x90, 0x3d, 0x5c, 0xc5, 0x0b, 0xbe, 0x38, 0x7e, 0xf8, 0xbd, 0x80, 0x46, 0x0f, 0xbe, 0xa0, 0x81, 0xff, 0x3c, 0xfd, 0x5e, 0x4e, 0xbe, 0x77, 0x6b, 0x64, 0x3e, 0x86, 0xbe, 0x70, 0xbd, 0xe3, 0x57, 0x45, 0x3e, 0x27, 0x54, 0x66, 0x3e, 0xec, 0x72, 0x12, 0xbe, 0x60, 0xf7, 0x39, 0xbe, 0xe5, 0x15, 0x1d, 0xbe, 0xd4, 0x04, 0x34, 0x3e, 0x77, 0x56, 0xbd, 0x3d, 0x04, 0xca, 0x94, 0xbd, 0x48, 0x68, 0xbd, 0x3d, 0x91, 0xb7, 0x44, 0xbd, 0x0f, 0x9c, 0x23, 0xbe, 0xf8, 0x0d, 0x90, 0x3e, 0x3d, 0x93, 0x05, 0x3e, 0x43, 0x61, 0x8f, 0x3c, 0x01, 0x44, 0x21, 0xbe, 0xb3, 0x0a, 0x66, 0x3e, 0x99, 0x32, 0x85, 0x3e, 0xdc, 0xda, 0x0b, 0xbd, 0xcd, 0x49, 0xcc, 0xbd, 0x9c, 0x7a, 0x7b, 0xbd, 0xe8, 0xc3, 0x83, 0x3e, 0x90, 0xc6, 0x84, 0xbe, 0x13, 0x07, 0xef, 0xbd, 0x7c, 0xbf, 0x48, 0x3d, 0xdd, 0xbd, 0x0f, 0x3e, 0x04, 0xa3, 0x8f, 0x3e, 0xa0, 0x5e, 0xed, 0x3d, 0xf2, 0xa5, 0x8f, 0x3e, 0xad, 0xae, 0xae, 0x3d, 0xb8, 0x20, 0x49, 0x3e, 0xa6, 0xf8, 0x50, 0x3e, 0x99, 0x92, 0x4c, 0xbc, 0xa3, 0xdf, 0xb5, 0xbd, 0x07, 0xb1, 0x29, 0xbe, 0xb3, 0xa5, 0x8d, 0x3d, 0x08, 0xd8, 0x29, 0xbe, 0xe3, 0x5e, 0xb6, 0xbd, 0xde, 0x7a, 0x7b, 0xbe, 0x31, 0x8d, 0x41, 0xbe, 0x17, 0x9d, 0x88, 0x3e, 0x08, 0x2f, 0xd8, 0x3d, 0x9d, 0x1e, 0xca, 0x3d, 0x7f, 0x63, 0x92, 0x3c, 0xce, 0x5f, 0x93, 0x3d, 0x9a, 0x13, 0x55, 0xbe, 0x2c, 0xc6, 0x0e, 0x3d, 0x65, 0x3d, 0x5a, 0x3d, 0xf7, 0x67, 0x18, 0xbe, 0x91, 0x5f, 0x83, 0xbb, 0x62, 0xb3, 0x2f, 0x3e, 0x69, 0x97, 0x20, 0x3e, 0xde, 0x67, 0x69, 0x3e, 0xef, 0x32, 0x74, 0x3e, 0xda, 0x90, 0x03, 0xbe, 0x46, 0xd8, 0xb0, 0x3d, 0x9b, 0x91, 0xd7, 0xbd, 0x43, 0x8e, 0x8c, 0x3e, 0x35, 0xbd, 0x55, 0x3e, 0xd0, 0xf6, 0xb5, 0x3d, 0xb7, 0x60, 0x03, 0x3e, 0xb7, 0xd3, 0x52, 0x3e, 0xcd, 0x0f, 0x18, 0xbe, 0x1f, 0x71, 0x38, 0xbe, 0x6d, 0x03, 0x21, 0x3e, 0x8b, 0x58, 0x68, 0x3e, 0x9c, 0xb9, 0xa0, 0xbd, 0x98, 0xd9, 0x19, 0xbe, 0x49, 0x63, 0x53, 0xbe, 0x80, 0x2b, 0x05, 0x3e, 0xb9, 0x9d, 0x62, 0x3e, 0xfd, 0x48, 0x13, 0xbe, 0x86, 0x3f, 0x40, 0xbe, 0x50, 0x24, 0x43, 0xbe, 0x3f, 0x6f, 0xe8, 0x3d, 0x09, 0x3a, 0x45, 0xbd, 0x94, 0x53, 0xc9, 0xbc, 0x9d, 0xa8, 0x37, 0x3e, 0x59, 0xb1, 0x14, 0x3e, 0x03, 0xa5, 0x60, 0x3e, 0xc2, 0xc0, 0x95, 0x3d, 0x6f, 0x6f, 0x9e, 0x3c, 0x48, 0x13, 0x48, 0xbe, 0x9c, 0xb1, 0x9d, 0x3d, 0x86, 0x8c, 0x5a, 0x3d, 0x0e, 0xab, 0x87, 0xbd, 0x28, 0x41, 0x64, 0x3e, 0x07, 0x99, 0x37, 0xbe, 0xd0, 0x50, 0x4f, 0x3d, 0xd4, 0x0a, 0x6b, 0x3e, 0xa0, 0xa0, 0x32, 0xbd, 0xd8, 0xc4, 0x0d, 0x3e, 0xb8, 0xe4, 0x07, 0x3e, 0x0e, 0x85, 0x30, 0xbe, 0x64, 0xc7, 0x43, 0xbd, 0x8e, 0xa7, 0x5c, 0xbd, 0x81, 0x37, 0x64, 0x3e, 0x41, 0xa6, 0xbb, 0xbd, 0x2e, 0x96, 0x13, 0x3e, 0x84, 0x61, 0xed, 0x3d, 0xa8, 0xb1, 0x31, 0xbe, 0xaa, 0xab, 0x37, 0xbe, 0x78, 0x3e, 0x60, 0x3e, 0xd3, 0xab, 0x5f, 0xbd, 0xe1, 0xd8, 0x0f, 0x3e, 0x75, 0x28, 0x93, 0x3e, 0x5b, 0x65, 0x3e, 0x3e, 0x1d, 0x32, 0xfb, 0x3d, 0x8f, 0xdc, 0xb3, 0x3d, 0xdb, 0x66, 0x8d, 0x3e, 0x32, 0x62, 0x18, 0x3e, 0x54, 0x9e, 0x98, 0x3d, 0x6c, 0x96, 0xd8, 0x3c, 0x3a, 0xed, 0x7e, 0x3e, 0x32, 0x5e, 0xda, 0x3d, 0x63, 0x78, 0x33, 0x3d, 0xfe, 0x69, 0x4d, 0xbe, 0x64, 0x41, 0x3f, 0xbd, 0xde, 0xe2, 0x1b, 0xbd, 0x64, 0x78, 0xea, 0xbd, 0xdb, 0xea, 0xfe, 0x3d, 0x5a, 0xed, 0x58, 0x3e, 0x45, 0x94, 0xc9, 0xbd, 0x6d, 0xc3, 0x30, 0xbe, 0xf0, 0x5b, 0x89, 0x3d, 0xe0, 0x89, 0x7a, 0x3d, 0x02, 0x65, 0x02, 0x3e, 0x70, 0xd2, 0xfa, 0x3d, 0x52, 0x58, 0xcb, 0x3d, 0xa3, 0x0d, 0x29, 0x3e, 0x88, 0xbc, 0x8a, 0x3e, 0xb8, 0xc8, 0x5d, 0xbe, 0xe0, 0x07, 0x4d, 0x3e, 0xba, 0xec, 0x73, 0x3e, 0xa6, 0x2b, 0x84, 0xbd, 0xbb, 0xd3, 0x4d, 0x3e, 0x96, 0xfc, 0x3b, 0x3e, 0x1e, 0x65, 0x63, 0x3c, 0x09, 0x62, 0x5a, 0x3e, 0xbd, 0x8a, 0x3c, 0x3d, 0x95, 0xe9, 0x50, 0x3e, 0x5b, 0x69, 0x3d, 0xbe, 0x33, 0xe7, 0x01, 0x3e, 0x4d, 0xf5, 0x57, 0xbd, 0x99, 0xe4, 0x12, 0x3e, 0x90, 0x3a, 0x60, 0xbc, 0x6d, 0x1a, 0x31, 0xbe, 0x0c, 0xb6, 0xf5, 0x3c, 0x4c, 0xc0, 0xdc, 0xbd, 0xe4, 0xca, 0xe4, 0xbc, 0x86, 0xd3, 0x0a, 0x3e, 0x95, 0x02, 0x59, 0x3e, 0x3f, 0x4d, 0x0c, 0xbe, 0x18, 0xb7, 0xf2, 0xbd, 0x1a, 0x3f, 0x0b, 0xbe, 0x76, 0xe9, 0x45, 0x3c, 0xf1, 0x97, 0xd0, 0x3d, 0xc0, 0xb0, 0x66, 0xbe, 0xb0, 0x75, 0x47, 0xbe, 0x92, 0xeb, 0xb0, 0xbd, 0xb3, 0x35, 0xaf, 0x3d, 0x2f, 0xd6, 0x9f, 0xbd, 0xbe, 0x49, 0x06, 0xbe, 0xf2, 0xb1, 0x6e, 0x3e, 0x34, 0xa7, 0xb5, 0xbd, 0xf9, 0x67, 0xd7, 0xbd, 0x78, 0xca, 0xe4, 0xbd, 0xe7, 0x45, 0xb5, 0xbd, 0xce, 0x33, 0x93, 0x3d, 0x72, 0xf8, 0x72, 0x3e, 0x8b, 0xa3, 0xdf, 0xbc, 0x51, 0x1b, 0x3b, 0x3e, 0xeb, 0x7e, 0xdb, 0xbd, 0xbe, 0x6a, 0x8f, 0x3d, 0x1b, 0xf0, 0x68, 0x3d, 0xb2, 0x2b, 0xc6, 0xbd, 0x7b, 0x3d, 0x8c, 0x3c, 0x9f, 0x0e, 0xc6, 0xbd, 0x63, 0x10, 0x80, 0x3d, 0x08, 0x86, 0x3d, 0xbe, 0xb9, 0x39, 0x5c, 0x3b, 0x24, 0x85, 0x75, 0xbc, 0xf8, 0x71, 0xfe, 0xba, 0xa1, 0xe3, 0x88, 0x3e, 0x87, 0xcb, 0xa8, 0xbc, 0x90, 0x44, 0x08, 0xbd, 0xd5, 0x07, 0x48, 0xbe, 0x1c, 0x74, 0x52, 0x3e, 0x5d, 0xf1, 0xae, 0x3d, 0x51, 0x74, 0xf0, 0xbc, 0xe7, 0xd7, 0x2e, 0x3e, 0x72, 0x69, 0xc6, 0xbd, 0xcc, 0xdf, 0x88, 0x3e, 0x61, 0x8b, 0x0d, 0xbe, 0xa6, 0x23, 0x37, 0xbe, 0xbe, 0x49, 0x36, 0xbe, 0x6c, 0xce, 0x60, 0x3e, 0x4b, 0x16, 0x65, 0xbd, 0x94, 0xe2, 0xc5, 0x3d, 0xc1, 0x69, 0xfb, 0xbd, 0x60, 0xb8, 0x86, 0xbc, 0xcc, 0x17, 0xf5, 0x3d, 0x04, 0xb1, 0xb6, 0xbd, 0x55, 0x11, 0x4b, 0x3e, 0x45, 0x7e, 0x49, 0xbe, 0xb4, 0x6f, 0x8e, 0x3e, 0xa4, 0x2c, 0xe2, 0xbd, 0x18, 0xc9, 0x5c, 0xbe, 0xf5, 0xb0, 0x6a, 0x3e, 0xcd, 0x5a, 0x81, 0xbe, 0xa4, 0xe9, 0x50, 0xbd, 0xa4, 0x84, 0x3a, 0x3e, 0x9c, 0x49, 0x8b, 0xbe, 0xd9, 0xcf, 0x76, 0x3e, 0xee, 0xc8, 0x23, 0x3e, 0x96, 0x5e, 0x1a, 0x3c, 0xe4, 0x07, 0x22, 0x3e, 0x84, 0xa0, 0x19, 0x3d, 0x4d, 0x7a, 0x27, 0x3e, 0xb7, 0x38, 0xe6, 0xbd, 0x8f, 0x68, 0x46, 0x3e, 0xe2, 0x63, 0x8d, 0xbd, 0xc8, 0x17, 0x07, 0xb9, 0x70, 0x95, 0x3a, 0x3d, 0x2d, 0x6e, 0x79, 0x3d, 0x4c, 0xfc, 0x12, 0x3e, 0x55, 0x81, 0x18, 0xbe, 0x73, 0x8a, 0x79, 0x3e, 0x8d, 0x8b, 0xe7, 0xbd, 0xa4, 0xe4, 0xe9, 0x3c, 0xbf, 0x73, 0xbe, 0x3d, 0xce, 0x91, 0x34, 0x3e, 0x5e, 0x0f, 0x00, 0xbe, 0x62, 0xf4, 0x70, 0xbd, 0x06, 0x3f, 0x8a, 0x3e, 0x2f, 0x59, 0xbb, 0xbd, 0xab, 0x6c, 0x11, 0xbe, 0x47, 0x4f, 0x25, 0x3e, 0xd7, 0x59, 0x35, 0x3e, 0x85, 0xbc, 0xd7, 0xbd, 0x50, 0x31, 0x7c, 0x3e, 0xa1, 0x1e, 0x8d, 0xbc, 0x2d, 0xaa, 0x80, 0x3c, 0x7f, 0x3f, 0xd2, 0xbb, 0xf8, 0x7d, 0xf7, 0x3d, 0x4d, 0xd1, 0x4a, 0xbd, 0x79, 0x33, 0xcf, 0x3d, 0xad, 0xba, 0x02, 0xbe, 0x08, 0x25, 0x06, 0xbe, 0x9f, 0x2e, 0x49, 0x3e, 0x06, 0x77, 0x64, 0x3e, 0x28, 0x7d, 0x6a, 0x3e, 0xcf, 0x12, 0xb5, 0xbc, 0x75, 0x60, 0xed, 0xbd, 0xad, 0x9e, 0x6b, 0x3e, 0x3e, 0xab, 0x63, 0xbe, 0x0b, 0x40, 0x2d, 0x3e, 0xa0, 0xa7, 0xc1, 0xbd, 0xff, 0x0a, 0xb4, 0x3c, 0xce, 0x66, 0x36, 0xbe, 0x70, 0x43, 0xb2, 0x3d, 0xfb, 0x2d, 0x85, 0xbc, 0xc9, 0xc5, 0xd4, 0x3d, 0x28, 0x23, 0x63, 0xbb, 0xbf, 0x3b, 0x3b, 0xbe, 0x2b, 0x34, 0x78, 0x3e, 0x8a, 0x30, 0x87, 0xbd, 0x59, 0x96, 0x9d, 0xbd, 0xde, 0x4b, 0x1d, 0x3e, 0x2a, 0xb2, 0xf9, 0x3d, 0xed, 0x75, 0xe7, 0xbd, 0x6a, 0xe2, 0x84, 0x3d, 0x85, 0xec, 0xb5, 0xbd, 0x28, 0x2d, 0x45, 0xbe, 0xb3, 0x63, 0x07, 0xbe, 0x1d, 0x27, 0x3c, 0x3e, 0x2c, 0x26, 0x15, 0x3e, 0x06, 0x6f, 0xf7, 0xbd, 0x91, 0x99, 0xa7, 0x3d, 0x1b, 0xe2, 0x7f, 0xbe, 0xe1, 0x09, 0x48, 0xbe, 0xea, 0xfa, 0x25, 0x3e, 0xcb, 0x1c, 0x0c, 0x3e, 0xcf, 0x54, 0xb6, 0x3d, 0x38, 0x70, 0x8e, 0x3d, 0xa6, 0x5b, 0x58, 0xbe, 0xd2, 0x51, 0x81, 0x3e, 0x61, 0x2c, 0x90, 0x3e, 0xb0, 0x15, 0x63, 0x3d, 0xda, 0x30, 0x19, 0x3d, 0xcd, 0xaf, 0x20, 0x3d, 0xfd, 0x1d, 0x47, 0xbd, 0x6a, 0x17, 0x36, 0xbe, 0xc8, 0xe9, 0x3a, 0xbe, 0x4f, 0x94, 0x6f, 0x3e, 0x6f, 0xe3, 0x7c, 0x3e, 0xb9, 0x25, 0x7e, 0x3d, 0x75, 0x72, 0xcf, 0xbd, 0x47, 0xe9, 0xa9, 0xbc, 0xfe, 0xa6, 0x8f, 0x3e, 0x1a, 0xbf, 0x86, 0x3d, 0x3d, 0xe0, 0xa6, 0xbc, 0xbb, 0xca, 0x8d, 0x3d, 0xd2, 0x5a, 0x91, 0x3e, 0x90, 0x0f, 0xc3, 0x3d, 0xd3, 0xce, 0x61, 0xbd, 0x0f, 0x10, 0x1a, 0xbe, 0x33, 0x24, 0x82, 0x3e, 0x9a, 0x2e, 0x0a, 0x3e, 0x59, 0xad, 0x4a, 0x3e, 0x5a, 0xdc, 0xf3, 0x3d, 0x7a, 0x55, 0xbe, 0x3d, 0x7e, 0x14, 0x3e, 0x3e, 0xb7, 0xca, 0x3f, 0x3e, 0xe9, 0xf1, 0xd6, 0x3d, 0xe2, 0xf8, 0xb5, 0xbd, 0xaa, 0x0a, 0xb3, 0xbc, 0x6a, 0x77, 0x12, 0xbe, 0x2e, 0xda, 0x75, 0xbd, 0x4c, 0xee, 0x0c, 0xbe, 0xb9, 0xd7, 0x29, 0x3e, 0x73, 0x77, 0x36, 0xbe, 0x25, 0xe4, 0x55, 0x3e, 0xe0, 0x26, 0xde, 0x3d, 0x06, 0x49, 0xd3, 0x3d, 0xc8, 0x1f, 0x37, 0xbe, 0x92, 0x10, 0x1e, 0xbe, 0x9e, 0x21, 0x36, 0xbd, 0x03, 0x69, 0xfd, 0xbd, 0xf7, 0x39, 0x29, 0xbe, 0xd2, 0x18, 0xaa, 0xbd, 0x13, 0x4d, 0x3c, 0xbe, 0xb7, 0x5f, 0x38, 0x3e, 0xf0, 0x96, 0x4e, 0x3e, 0xbc, 0xd9, 0x0a, 0xbd, 0x6f, 0x16, 0xb6, 0xbd, 0x0c, 0x0a, 0x8a, 0xbe, 0xed, 0x8a, 0xb4, 0xbd, 0x07, 0x3e, 0x05, 0xbe, 0x76, 0x7d, 0x44, 0x3e, 0x1c, 0xa6, 0x51, 0xbe, 0xb8, 0x10, 0x4a, 0x3e, 0xa1, 0x59, 0x67, 0x3e, 0xe1, 0x11, 0xa9, 0x3b, 0x72, 0x58, 0x3e, 0xbd, 0x15, 0xad, 0x14, 0x3e, 0x5a, 0xa4, 0x89, 0x3e, 0xb1, 0x93, 0x22, 0xbd, 0xf7, 0xa8, 0xbb, 0x3c, 0xa2, 0x75, 0x14, 0x3e, 0x53, 0x8e, 0xe1, 0xbc, 0xe7, 0xf7, 0x65, 0xbe, 0xbc, 0x12, 0x6c, 0x3d, 0xc6, 0xcd, 0x6c, 0x3e, 0x63, 0xa2, 0x51, 0x3d, 0x65, 0xfe, 0x12, 0xbd, 0x73, 0x33, 0x1c, 0xbe, 0x6e, 0x05, 0x40, 0xbe, 0xa8, 0x70, 0xf4, 0x3c, 0xf1, 0xef, 0x61, 0xbd, 0xe4, 0xb6, 0x55, 0x3e, 0x15, 0x3b, 0xca, 0x3d, 0x0b, 0x56, 0x2f, 0x3e, 0x93, 0x1b, 0xd0, 0x3d, 0xbf, 0xe2, 0x60, 0x3e, 0xf1, 0x22, 0x42, 0x3e, 0x5d, 0x94, 0xc3, 0xbd, 0x5a, 0x3a, 0x60, 0x3e, 0xbf, 0x64, 0x53, 0xbc, 0xf9, 0x9e, 0x87, 0xbe, 0x5d, 0xce, 0x1d, 0x3e, 0x0d, 0xfd, 0x1d, 0xbe, 0xa3, 0x6b, 0x3e, 0x3e, 0x2b, 0xf0, 0x62, 0xbd, 0x50, 0x1a, 0x20, 0x3e, 0x2b, 0x3b, 0x86, 0xbe, 0xe9, 0xe3, 0x0b, 0xbd, 0x86, 0xf2, 0x8c, 0x3e, 0x68, 0xaf, 0xd2, 0x3d, 0x2c, 0x0d, 0x4a, 0x3e, 0xf2, 0x60, 0x79, 0xbe, 0x83, 0x0d, 0x58, 0x3d, 0x37, 0xc6, 0x61, 0xbe, 0x5e, 0xc1, 0xe4, 0x3d, 0x42, 0xb2, 0x8f, 0xbd, 0x1e, 0x21, 0x0d, 0xbe, 0xc8, 0x3d, 0x67, 0x3d, 0x20, 0x67, 0xd5, 0x3d, 0x89, 0x73, 0xdf, 0x3d, 0x83, 0x4f, 0xa1, 0xbd, 0x33, 0x2e, 0x0c, 0xbe, 0x9b, 0x09, 0x91, 0x3d, 0x4a, 0xbc, 0x9a, 0xbd, 0xdf, 0x10, 0x26, 0x3d, 0x45, 0x44, 0x0d, 0xbe, 0x13, 0xae, 0xdd, 0xbd, 0x32, 0x3d, 0x7f, 0x3e, 0xd6, 0x75, 0x48, 0x3e, 0x93, 0xd0, 0x94, 0x3e, 0x56, 0xdd, 0x48, 0x3e, 0x3e, 0xdf, 0xe6, 0xbd, 0xcd, 0xe8, 0x2f, 0x3e, 0xa3, 0x2d, 0x89, 0x3c, 0x7a, 0xd4, 0xe8, 0xbd, 0xe6, 0xea, 0x60, 0x3b, 0x8f, 0x34, 0x1c, 0xbe, 0x1b, 0xcc, 0x2d, 0x3e, 0x31, 0x9d, 0x0f, 0xbe, 0x5b, 0x57, 0x19, 0x3e, 0xaf, 0xbf, 0x17, 0x3e, 0xcf, 0x68, 0xb2, 0x3d, 0xfe, 0x7b, 0x3e, 0x3e, 0xc2, 0x95, 0x64, 0x3e, 0xbb, 0x0c, 0x4f, 0x3d, 0xef, 0xe5, 0x39, 0x3d, 0x9a, 0xeb, 0x4b, 0x3d, 0xea, 0x70, 0x20, 0xbe, 0xbf, 0x1f, 0x6e, 0xbe, 0xbd, 0xc2, 0xe4, 0xbd, 0x06, 0x66, 0x66, 0x3e, 0xd0, 0x45, 0x8f, 0x3e, 0x9f, 0x2f, 0x23, 0xbe, 0x57, 0x98, 0xf1, 0x3d, 0x5c, 0x7d, 0x2b, 0x3d, 0x55, 0x71, 0xed, 0xbc, 0xb0, 0x9c, 0x44, 0x3e, 0x03, 0xb3, 0xa6, 0x3d, 0x7f, 0x61, 0x2b, 0x3d, 0x79, 0xfb, 0xb2, 0xbd, 0xca, 0x61, 0x79, 0x3e, 0xd8, 0x81, 0x22, 0xbd, 0x4e, 0x42, 0x43, 0xbe, 0xfa, 0xb8, 0x54, 0xbd, 0xe1, 0x74, 0x77, 0xbd, 0x5f, 0x59, 0x51, 0xbe, 0x01, 0xb9, 0x57, 0x3e, 0xb3, 0x8d, 0x3a, 0x3d, 0x99, 0x9d, 0xdf, 0x3c, 0x48, 0xad, 0xc3, 0x3c, 0xa2, 0x9a, 0x27, 0x3e, 0x9f, 0x09, 0x6a, 0x3c, 0x74, 0x47, 0xe8, 0xbd, 0x5b, 0x27, 0x2f, 0x3d, 0xbb, 0x51, 0x48, 0xbd, 0x74, 0x2d, 0x32, 0xbe, 0x3a, 0x64, 0x35, 0xbe, 0xd6, 0x12, 0x1e, 0x3e, 0x63, 0x72, 0x0c, 0xbe, 0x86, 0x57, 0xa6, 0xbd, 0xdd, 0xcc, 0x07, 0xbe, 0xaf, 0x22, 0xf1, 0x3d, 0xae, 0x19, 0x61, 0x3e, 0x47, 0x3b, 0x30, 0xbe, 0x43, 0x9c, 0xb6, 0x3d, 0x15, 0x30, 0x71, 0xbe, 0x0b, 0x0d, 0x5e, 0x3e, 0x90, 0x4d, 0x77, 0xbd, 0x2f, 0x61, 0x81, 0xbe, 0xa8, 0xda, 0x66, 0xbe, 0x58, 0xe6, 0xd0, 0xbd, 0xd6, 0xd5, 0xf1, 0x3d, 0xbf, 0x0c, 0x0d, 0xbe, 0x54, 0x13, 0xd9, 0xbd, 0x21, 0xdd, 0xf1, 0x3d, 0xe3, 0x3a, 0x8b, 0x3d, 0x2d, 0xc4, 0x28, 0x3e, 0x02, 0x97, 0x35, 0x3d, 0xfe, 0x6a, 0x01, 0x3e, 0xf6, 0x31, 0xcc, 0xbd, 0x86, 0x62, 0x9c, 0xbc, 0x9c, 0x6c, 0x0b, 0x3e, 0x58, 0xaa, 0x42, 0xbe, 0xed, 0xec, 0x8d, 0xbe, 0x0f, 0x3c, 0xdf, 0xbd, 0xf0, 0x18, 0x88, 0x3d, 0x40, 0x52, 0x88, 0xbe, 0xbe, 0xd0, 0xc5, 0xbd, 0x78, 0x7c, 0x35, 0xbe, 0xb0, 0xa1, 0x94, 0xbd, 0x6d, 0xdc, 0x66, 0xbe, 0x6b, 0x84, 0x22, 0x3e, 0x72, 0xed, 0x4b, 0x3e, 0xb6, 0xbc, 0x92, 0x3c, 0x25, 0x3f, 0x34, 0x3e, 0x99, 0xd4, 0xa3, 0xbd, 0x98, 0x2b, 0x89, 0xbe, 0x5c, 0xbe, 0x7b, 0xbd, 0xd8, 0xb2, 0xd5, 0xbd, 0xc2, 0x18, 0xec, 0x3b, 0x8f, 0x13, 0x0a, 0xbe, 0x8d, 0xbc, 0x1c, 0xbe, 0xea, 0x20, 0x4c, 0x3e, 0x83, 0x15, 0xd3, 0x3d, 0xc1, 0x90, 0x54, 0x3e, 0x3d, 0x02, 0x46, 0x3e, 0x84, 0xf4, 0x6b, 0xbd, 0xc0, 0x72, 0x8d, 0x3d, 0x33, 0xc0, 0x31, 0xbe, 0x6e, 0x6b, 0xc0, 0xbd, 0x2f, 0xa8, 0xf2, 0x3d, 0x96, 0xc6, 0x40, 0xbd, 0xa8, 0x7f, 0x1e, 0x3e, 0x1a, 0xf4, 0x04, 0x3e, 0xe7, 0x31, 0x2c, 0x3d, 0xbc, 0x7c, 0xa0, 0x3d, 0xf6, 0x43, 0x3a, 0x3e, 0x1d, 0x59, 0xee, 0xbd, 0x00, 0x58, 0xfb, 0xbd, 0x92, 0xca, 0x0d, 0x3e, 0xa5, 0x5b, 0xa2, 0x3d, 0xf6, 0xb3, 0x32, 0x3e, 0x75, 0xa2, 0x42, 0xbd, 0xeb, 0xbf, 0x36, 0x3d, 0x54, 0xbf, 0x92, 0x3d, 0x5a, 0x0d, 0xa8, 0x39, 0x5c, 0x79, 0x47, 0xbe, 0x09, 0x4e, 0x47, 0xbe, 0xc3, 0x69, 0xa5, 0xbd, 0xa7, 0x2b, 0x28, 0x3d, 0xec, 0x36, 0x1c, 0x3e, 0x37, 0x75, 0x87, 0xbe, 0xf8, 0xbd, 0xf2, 0xbd, 0x88, 0x28, 0x83, 0x3c, 0x61, 0x22, 0x45, 0xbe, 0xb3, 0xda, 0x95, 0xbd, 0xcd, 0x81, 0x17, 0xbe, 0x87, 0x67, 0x6f, 0x3d, 0x40, 0x83, 0x59, 0xbe, 0x9c, 0x71, 0x59, 0xbe, 0x2b, 0x50, 0x14, 0xbe, 0xea, 0x1f, 0x67, 0xbe, 0xf4, 0x10, 0x0c, 0xbe, 0x5d, 0x71, 0x15, 0x3e, 0x5d, 0x71, 0x30, 0x3e, 0xe5, 0x9e, 0x60, 0xbd, 0x04, 0xd5, 0x8e, 0xbd, 0x92, 0x40, 0xa6, 0xbd, 0xca, 0xe0, 0xcd, 0x3d, 0x6f, 0xf6, 0x67, 0x3e, 0xa0, 0x7b, 0x9b, 0x3d, 0x56, 0x20, 0x09, 0x3e, 0xe4, 0x12, 0x77, 0xbe, 0x60, 0x07, 0x48, 0xbe, 0xeb, 0x65, 0x58, 0x3e, 0xc6, 0xb2, 0x3f, 0x3e, 0x4a, 0x67, 0x62, 0x3d, 0x67, 0xa8, 0x43, 0x3e, 0x23, 0x22, 0x86, 0xbd, 0x06, 0xfa, 0xe1, 0x3d, 0xe4, 0x3e, 0x88, 0xbe, 0x75, 0xd4, 0x5c, 0x3e, 0x70, 0x62, 0xa6, 0x3d, 0xbc, 0xe5, 0x43, 0xbd, 0x0b, 0xc5, 0x3e, 0xbe, 0x23, 0x58, 0x87, 0xbb, 0x6a, 0x11, 0x3d, 0xbc, 0x65, 0x64, 0xe9, 0xbc, 0xd9, 0xd3, 0x27, 0x3e, 0xbb, 0x0c, 0x0d, 0xbd, 0x2a, 0x0d, 0x66, 0xbe, 0xab, 0xa4, 0x41, 0x3c, 0xbc, 0xec, 0x6f, 0x3d, 0xdb, 0x87, 0x4f, 0xbe, 0x8f, 0x89, 0x6a, 0x3e, 0xaf, 0x4b, 0xc7, 0xbd, 0xf7, 0x7c, 0x86, 0xbe, 0x1c, 0x89, 0x07, 0xbe, 0x92, 0x08, 0x13, 0xbe, 0xc4, 0xe7, 0x24, 0x3e, 0x1c, 0xa4, 0xef, 0x3d, 0x53, 0x1a, 0xbc, 0x3d, 0x4b, 0x83, 0x89, 0xbd, 0x2c, 0x38, 0x84, 0xbe, 0x25, 0xab, 0x0d, 0xbe, 0x84, 0x58, 0x64, 0xbe, 0x18, 0xff, 0x84, 0xbd, 0x80, 0x30, 0x0a, 0xbe, 0x24, 0xa7, 0x34, 0xbe, 0x78, 0xe1, 0x87, 0xbd, 0x88, 0x20, 0xa5, 0x3d, 0xa0, 0x56, 0x27, 0x3d, 0xec, 0x96, 0x00, 0xbe, 0x60, 0xc2, 0x90, 0x3d, 0x30, 0xbd, 0x38, 0x3c, 0xc4, 0x9b, 0x05, 0x3e, 0xa9, 0xab, 0x23, 0xbd, 0xba, 0xea, 0x6d, 0xbe, 0x28, 0xa4, 0x85, 0xbd, 0x3c, 0x5f, 0x4f, 0xbe, 0x77, 0xee, 0x9d, 0xbd, 0x4b, 0xd2, 0x2e, 0x3e, 0x66, 0xb5, 0x06, 0x3e, 0x12, 0x62, 0xf2, 0x3d, 0x6e, 0x0b, 0x10, 0xbe, 0xe8, 0xa1, 0xe7, 0xbd, 0xe3, 0xf3, 0x02, 0xbc, 0x17, 0xad, 0x7e, 0x3d, 0x0d, 0x69, 0xdb, 0xbd, 0x40, 0x60, 0xa8, 0xbd, 0x70, 0xd2, 0xa9, 0xbd, 0x91, 0xa0, 0x4e, 0x3e, 0x69, 0xda, 0x37, 0xbe, 0x78, 0x36, 0x56, 0xbe, 0xe9, 0xdd, 0x79, 0xbd, 0xd7, 0xf7, 0xcd, 0xbd, 0xe3, 0x9f, 0x11, 0x3d, 0xb7, 0x9e, 0x05, 0x3e, 0xf0, 0x53, 0x5b, 0xbd, 0xe8, 0x0f, 0xef, 0xbd, 0x48, 0x9e, 0x9a, 0xbd, 0x20, 0x20, 0xfc, 0xbc, 0xae, 0x38, 0x46, 0xbe, 0x11, 0x73, 0x06, 0x3d, 0x00, 0x81, 0x40, 0xbe, 0x84, 0xa7, 0xc4, 0xbc, 0xe3, 0x7b, 0x40, 0x3e, 0x2e, 0xb2, 0x25, 0x3a, 0x94, 0x86, 0x06, 0xbe, 0xac, 0x85, 0x5d, 0xbe, 0x2c, 0x16, 0xd6, 0x3c, 0xf0, 0xe1, 0x7f, 0x3e, 0xf4, 0x91, 0xa0, 0xbc, 0x67, 0xdf, 0x48, 0x3e, 0x17, 0xae, 0x98, 0xbd, 0xcb, 0x82, 0x8b, 0x3c, 0xf3, 0xdc, 0x35, 0xbe, 0x31, 0xcf, 0x4c, 0x3d, 0xa1, 0xf3, 0xe5, 0x3d, 0x4f, 0x67, 0x63, 0xbe, 0x1e, 0x93, 0x6c, 0xbe, 0x00, 0xc6, 0x34, 0xbe, 0x4c, 0xb3, 0x7d, 0xbe, 0x00, 0x9b, 0xe3, 0x3b, 0x51, 0xa0, 0x7c, 0xbe, 0xbd, 0x5b, 0x64, 0xbe, 0x80, 0xc3, 0xa1, 0x3d, 0xc0, 0xd6, 0xa9, 0xbc, 0x55, 0xce, 0x77, 0xbc, 0x60, 0xf0, 0xc0, 0xbd, 0x68, 0xba, 0x9f, 0x3d, 0x70, 0x96, 0xea, 0xbd, 0xf8, 0x8e, 0x11, 0x3e, 0x00, 0x35, 0xf5, 0xbb, 0x6c, 0xa2, 0x76, 0x3e, 0x68, 0x42, 0x72, 0xbe, 0x5c, 0xd2, 0x70, 0x3e, 0x44, 0x27, 0x44, 0xbe, 0x30, 0x4a, 0x57, 0xbe, 0x50, 0x9f, 0xc6, 0x3d, 0x34, 0x78, 0x42, 0x3e, 0x60, 0x73, 0xbc, 0xbd, 0x60, 0xd7, 0xab, 0x3c, 0x74, 0xe7, 0x69, 0xbe, 0x60, 0xd6, 0x65, 0x3d, 0x18, 0x98, 0xdc, 0xbd, 0x90, 0x2a, 0x24, 0x3e, 0x80, 0x5b, 0x8c, 0xbb, 0x80, 0x23, 0x1d, 0x3c, 0x6c, 0xbb, 0x4d, 0xbe, 0x28, 0x5e, 0xc8, 0x3d, 0xe0, 0xae, 0xd2, 0xbc, 0x08, 0x85, 0x35, 0xbe, 0x40, 0x31, 0xb2, 0x3d, 0x30, 0x43, 0x5e, 0xbe, 0x3c, 0x82, 0x29, 0xbe, 0xa4, 0xef, 0x3c, 0xbe, 0x48, 0x56, 0x74, 0xbe, 0xc4, 0xaa, 0x21, 0x3e, 0x30, 0xe8, 0xf5, 0xbd, 0xd0, 0x9c, 0x32, 0xbd, 0x2c, 0xb0, 0x58, 0x3e, 0x10, 0xc9, 0x92, 0xbd, 0x00, 0x54, 0xd6, 0xbb, 0xe0, 0x86, 0x12, 0xbe, 0x30, 0x1e, 0x17, 0xbe, 0xd0, 0x9f, 0x10, 0x3e, 0x28, 0x11, 0x02, 0x3e, 0x20, 0x5e, 0x75, 0x3d, 0xb8, 0x41, 0x90, 0xbd, 0x20, 0x50, 0xe4, 0xbd, 0xa4, 0x8c, 0x08, 0xbe, 0xac, 0x1c, 0x36, 0xbe, 0xd0, 0x6c, 0x84, 0xbd, 0x00, 0x9f, 0x78, 0x3e, 0xbc, 0x17, 0x5b, 0xbe, 0xb0, 0x10, 0x39, 0xbe, 0x78, 0xff, 0x49, 0xbe, 0x90, 0xb7, 0x25, 0x3d, 0x8c, 0x23, 0x10, 0xbe, 0x54, 0x30, 0x5c, 0xbe, 0x60, 0xdb, 0x7a, 0x3d, 0xdc, 0x52, 0x09, 0xbe, 0x68, 0x70, 0x84, 0xbd, 0x00, 0x08, 0xce, 0xbb, 0xf0, 0xed, 0x6b, 0x3d, 0xdc, 0x29, 0x4a, 0xbe, 0xc0, 0x6f, 0xa7, 0x3d, 0xd0, 0xe8, 0xb9, 0xbd, 0xa0, 0x74, 0x52, 0xbe, 0x8c, 0xf3, 0x57, 0xbe, 0x10, 0x8e, 0xa1, 0x3d, 0x54, 0xb1, 0x31, 0x3e, 0x77, 0x70, 0xc1, 0x3b, 0x5f, 0x36, 0x4e, 0xbe, 0xd6, 0x59, 0x07, 0x3d, 0xf1, 0x0c, 0xb0, 0x3c, 0x9d, 0x3c, 0x4c, 0xbd, 0x5c, 0x37, 0x9d, 0xbd, 0x25, 0xfb, 0x8c, 0xbe, 0x7c, 0x37, 0x02, 0xbe, 0x38, 0xa6, 0x1b, 0xbe, 0x2d, 0x48, 0x1c, 0x3e, 0x4e, 0x58, 0x91, 0xbe, 0x32, 0x14, 0xfb, 0x3d, 0xe8, 0x0f, 0x4b, 0xbd, 0x4e, 0x84, 0xea, 0xbd, 0x0e, 0xa2, 0x65, 0x3e, 0xb7, 0x50, 0x87, 0x3e, 0x1e, 0xe6, 0x58, 0xbd, 0xce, 0xfb, 0x03, 0x3e, 0xff, 0xa3, 0x40, 0x3d, 0xcd, 0xc5, 0x32, 0xbe, 0xe3, 0x5c, 0x2f, 0x3e, 0x9e, 0x29, 0xb2, 0xbd, 0x55, 0xb8, 0x21, 0xbd, 0x1c, 0x73, 0x8b, 0x3e, 0x51, 0x90, 0xe7, 0xbc, 0x9a, 0x0d, 0xdc, 0x3d, 0x09, 0x05, 0x29, 0xbe, 0x07, 0x01, 0x2e, 0xbe, 0x3e, 0x88, 0x2a, 0x3d, 0x28, 0xfd, 0x25, 0x3d, 0x4b, 0xf8, 0xb9, 0xbd, 0xd7, 0x73, 0xae, 0xbd, 0x35, 0x10, 0xa6, 0x3d, 0x43, 0xb8, 0xa1, 0xbc, 0xde, 0x3b, 0x0b, 0xbd, 0x11, 0x9a, 0x1e, 0x3e, 0x76, 0x96, 0x03, 0xbe, 0x25, 0x28, 0x3f, 0x3e, 0x71, 0x74, 0x37, 0x3c, 0xa7, 0x38, 0x52, 0xbd, 0x11, 0xcb, 0x7f, 0x3e, 0x68, 0xe5, 0x58, 0x3e, 0x74, 0xfe, 0xc7, 0x3d, 0x2c, 0x8b, 0x88, 0x3e, 0xc1, 0xc7, 0x5f, 0x3d, 0x27, 0xe7, 0x0a, 0x3e, 0xde, 0x4b, 0x59, 0xbe, 0xdf, 0x4e, 0xe2, 0xbd, 0x15, 0x5c, 0xb1, 0xbc, 0xf2, 0x70, 0x65, 0x3e, 0xf3, 0x51, 0x3d, 0xbe, 0x4f, 0xa8, 0x41, 0x3e, 0x32, 0x7a, 0x19, 0xbd, 0x79, 0x8e, 0x3e, 0xbd, 0x9a, 0xc1, 0x09, 0x3e, 0x85, 0xd6, 0x53, 0xbe, 0x2f, 0xfa, 0x8e, 0x3e, 0x32, 0x24, 0x42, 0xbe, 0x30, 0xa5, 0x44, 0x3e, 0x16, 0xde, 0x4f, 0xbe, 0xd4, 0x05, 0x2a, 0xbe, 0x46, 0xd5, 0x90, 0xbe, 0xed, 0xd9, 0xad, 0x3d, 0x7c, 0xc6, 0x4e, 0x3e, 0x12, 0x18, 0xa4, 0xbd, 0x56, 0x6c, 0x0e, 0xbe, 0xb5, 0x86, 0xba, 0xbd, 0xa9, 0x88, 0x3e, 0x3d, 0xad, 0xa9, 0x4d, 0xbe, 0xf3, 0x79, 0x47, 0xbe, 0xaf, 0x7e, 0x1e, 0x3d, 0xf8, 0x8f, 0x76, 0x3e, 0x82, 0x5a, 0x5d, 0x3e, 0xaf, 0xd7, 0x28, 0x3e, 0xd5, 0xd3, 0xfa, 0x3d, 0x6d, 0x6b, 0x87, 0x3e, 0x45, 0x68, 0x4c, 0xbd, 0x74, 0xdc, 0x0f, 0x3c, 0x4a, 0x38, 0xae, 0xbc, 0xd3, 0x5e, 0x16, 0xbe, 0xad, 0x43, 0x26, 0x3e, 0x2d, 0xd8, 0x5e, 0x3e, 0xe0, 0x78, 0x04, 0x3e, 0x60, 0x50, 0x59, 0xbb, 0x92, 0x6f, 0x6c, 0x3e, 0x90, 0x00, 0x9c, 0x3c, 0x6d, 0xf6, 0x4e, 0xbe, 0x3f, 0xdd, 0x0c, 0x3e, 0xcc, 0xc6, 0xe8, 0x3d, 0xac, 0x34, 0x00, 0xbd, 0x54, 0x53, 0x9e, 0xbd, 0xc2, 0x89, 0x4b, 0x3e, 0x6b, 0xfd, 0x20, 0xbd, 0x9a, 0xc3, 0x27, 0x3e, 0x2f, 0x6d, 0x5a, 0x3e, 0xd1, 0xa1, 0x11, 0x3e, 0x10, 0xed, 0x1a, 0x3e, 0xef, 0x15, 0x80, 0x3e, 0x1e, 0xc7, 0xec, 0xbd, 0xe1, 0xe8, 0x28, 0xbe, 0xb7, 0xed, 0x3a, 0xbe, 0x34, 0x19, 0xe6, 0xbb, 0xda, 0x42, 0x7a, 0x3e, 0xba, 0x2c, 0x2f, 0x3e, 0x1d, 0x11, 0x0b, 0xbe, 0x1a, 0x71, 0xe2, 0x3d, 0x3f, 0xca, 0x35, 0xbe, 0x47, 0x87, 0xdb, 0xbd, 0x29, 0x59, 0x6c, 0x3e, 0xdb, 0xc7, 0x33, 0x3d, 0x2a, 0xcc, 0x30, 0xbe, 0xb6, 0xae, 0x2d, 0xbe, 0xb2, 0x57, 0x84, 0x3e, 0x90, 0x5d, 0x0a, 0xbe, 0xae, 0xc1, 0x13, 0xbe, 0xd8, 0x9b, 0x92, 0x3d, 0xa0, 0xc6, 0x9e, 0xbc, 0x2d, 0x57, 0xee, 0xbc, 0xf5, 0x62, 0x61, 0xbd, 0x01, 0x73, 0x69, 0x3e, 0x43, 0x8c, 0x5e, 0x3e, 0xf4, 0x58, 0x2b, 0xbd, 0x17, 0x4c, 0xbb, 0xbd, 0xe9, 0x34, 0x6e, 0x3e, 0x2c, 0x8f, 0x97, 0x3e, 0x51, 0xf9, 0xe6, 0xbd, 0x2a, 0x17, 0xd6, 0xbd, 0x2d, 0xab, 0x7c, 0x3d, 0x85, 0xa4, 0xe5, 0x3d, 0x71, 0x12, 0xd2, 0x3d, 0x43, 0x89, 0xee, 0xbd, 0x7c, 0xde, 0x71, 0xbe, 0x30, 0xfe, 0xd4, 0xbd, 0x94, 0x4c, 0x96, 0x3e, 0x63, 0x6a, 0x32, 0xbd, 0x12, 0x78, 0xc6, 0xbc, 0x56, 0xf1, 0xe4, 0x3d, 0x1e, 0x91, 0xf6, 0xbc, 0x31, 0xdb, 0xc8, 0x3d, 0xf0, 0x5f, 0x34, 0xbe, 0xef, 0x33, 0x3d, 0x3e, 0x1f, 0x3b, 0xc1, 0x3d, 0xd3, 0xf0, 0x63, 0x3e, 0x3d, 0xd0, 0x2a, 0x3d, 0x74, 0xf8, 0x95, 0x3c, 0x6e, 0xc9, 0x7c, 0xbe, 0x03, 0x8b, 0xb7, 0x3d, 0x86, 0x74, 0x54, 0xbe, 0xef, 0x12, 0xc0, 0xbd, 0x55, 0xaa, 0x6b, 0xbd, 0x57, 0x11, 0xa4, 0xbd, 0x20, 0x79, 0xba, 0x3d, 0x88, 0xcf, 0x4c, 0x3e, 0xec, 0x71, 0x8c, 0x3d, 0x8e, 0x74, 0x5f, 0xbe, 0x42, 0x34, 0xec, 0x3c, 0x60, 0xb0, 0x20, 0xbe, 0x19, 0xbe, 0x27, 0x3e, 0xfe, 0xb7, 0x1e, 0x3d, 0xa2, 0x7a, 0x05, 0xbe, 0x69, 0x3f, 0x9b, 0xbd, 0x98, 0x78, 0xcb, 0x3b, 0x6e, 0x6f, 0x52, 0x3e, 0x9f, 0x1b, 0xda, 0xbd, 0x08, 0xb7, 0x64, 0x3d, 0xe5, 0x01, 0x20, 0xbe, 0x63, 0xbf, 0x6a, 0xbe, 0xaf, 0xeb, 0xba, 0x3d, 0x71, 0x59, 0x64, 0x3e, 0x62, 0x97, 0xd6, 0xbd, 0x2b, 0xa7, 0x9e, 0x3d, 0xcc, 0xac, 0x51, 0x3e, 0x63, 0x38, 0x17, 0x3e, 0x56, 0x99, 0xba, 0xbb, 0x50, 0x32, 0x92, 0x3e, 0x88, 0x0a, 0x3d, 0xbd, 0x6e, 0x4c, 0x83, 0xbd, 0xc7, 0x97, 0x8d, 0x3d, 0xde, 0x48, 0x50, 0xbe, 0x56, 0x0e, 0x85, 0x3e, 0xc7, 0x8d, 0x30, 0xbe, 0x72, 0x6f, 0x2f, 0xbe, 0xa1, 0xc4, 0xd8, 0x3d, 0x6f, 0xb2, 0x82, 0xbe, 0x37, 0x2e, 0xd1, 0xbd, 0x48, 0x22, 0xe6, 0xbd, 0xe8, 0xcb, 0x97, 0x3d, 0x02, 0x95, 0x21, 0x3e, 0x03, 0xe1, 0x9b, 0x3d, 0xb6, 0x70, 0x5d, 0x3e, 0x54, 0x13, 0x69, 0xbd, 0xb5, 0xee, 0x87, 0xbe, 0x80, 0xf4, 0xb8, 0x3d, 0x10, 0x24, 0xd3, 0x3d, 0x40, 0x2a, 0x92, 0xbc, 0xa8, 0x92, 0xbd, 0xbd, 0x70, 0x30, 0x95, 0xbd, 0x00, 0xc2, 0x6c, 0x3b, 0x90, 0x89, 0x79, 0xbe, 0xe0, 0x45, 0x4f, 0xbd, 0x30, 0x39, 0x6c, 0x3e, 0xc0, 0x6d, 0x30, 0xbc, 0x20, 0xaa, 0x83, 0xbd, 0xb8, 0x12, 0xd5, 0xbd, 0x60, 0x13, 0xb7, 0xbd, 0xa0, 0x61, 0x4f, 0xbd, 0x50, 0x1c, 0x19, 0x3e, 0x20, 0x5e, 0xe7, 0xbd, 0x24, 0x79, 0x1f, 0xbe, 0xc8, 0xfd, 0xb9, 0xbd, 0x98, 0x39, 0x0b, 0xbe, 0x70, 0xa3, 0xb0, 0xbd, 0x24, 0xcb, 0x78, 0xbe, 0xe8, 0xcf, 0xca, 0x3d, 0xdc, 0x58, 0x72, 0x3e, 0x18, 0xfd, 0x8a, 0xbd, 0xc8, 0xb7, 0xc1, 0xbd, 0x70, 0x41, 0x61, 0xbe, 0xb8, 0x3d, 0x10, 0xbe, 0x60, 0x07, 0x24, 0xbe, 0x68, 0x76, 0x87, 0xbd, 0xb0, 0x07, 0x6e, 0xbe, 0x90, 0x8d, 0x61, 0x3e, 0x2c, 0x05, 0x72, 0xbe, 0xf8, 0x26, 0xde, 0xbd, 0xc0, 0x0a, 0xdc, 0x3c, 0xc4, 0xf1, 0x30, 0xbe, 0x58, 0xda, 0x28, 0xbe, 0xb0, 0xbe, 0x33, 0xbd, 0x74, 0xa2, 0x58, 0xbe, 0x48, 0xe2, 0x9e, 0xbd, 0x80, 0x42, 0x9a, 0x3b, 0x10, 0x25, 0x17, 0x3d, 0x90, 0x9b, 0x0c, 0xbd, 0xa4, 0x69, 0x1c, 0x3e, 0x8c, 0xff, 0x4c, 0xbe, 0xf8, 0x92, 0xd8, 0xbd, 0x58, 0xc6, 0x17, 0x3e, 0x64, 0xbb, 0x17, 0x3e, 0x60, 0x94, 0x16, 0xbe, 0xec, 0x31, 0x6e, 0xbe, 0x40, 0x11, 0x8b, 0xbc, 0x58, 0xa2, 0x27, 0xbe, 0xa0, 0x47, 0x7c, 0x3e, 0x40, 0x37, 0xe0, 0xbd, 0xc0, 0x8c, 0x1b, 0xbe, 0x9c, 0x1f, 0x19, 0xbe, 0xe0, 0xbe, 0xd8, 0xbd, 0xd0, 0x1e, 0x06, 0xbd, 0x90, 0x86, 0x4d, 0x3e, 0x74, 0x42, 0x4d, 0xbe, 0x08, 0x11, 0x0e, 0x3e, 0xc4, 0xfd, 0x34, 0x3e, 0x00, 0xbb, 0x2b, 0x3c, 0x38, 0xf3, 0x19, 0xbe, 0x2c, 0x22, 0x57, 0xbe, 0xe7, 0x3a, 0x60, 0xbe, 0xb6, 0xa7, 0xd1, 0x3b, 0x4c, 0xf2, 0x0d, 0xbe, 0xd8, 0x4b, 0x72, 0x3e, 0x80, 0x2a, 0x10, 0xbc, 0x1a, 0x87, 0x55, 0xbe, 0x78, 0xb1, 0xaf, 0x3d, 0xcb, 0x7b, 0xca, 0x3d, 0xc8, 0xef, 0x06, 0xbe, 0x60, 0x44, 0x22, 0xbe, 0x17, 0xb1, 0xf8, 0x3d, 0x83, 0x7e, 0x48, 0xbd, 0x20, 0x5a, 0xf5, 0xbd, 0x47, 0xea, 0x05, 0x3e, 0x3c, 0x51, 0x9d, 0xbd, 0xd3, 0x25, 0x9e, 0xbd, 0xf9, 0xad, 0xf2, 0xbd, 0xa9, 0x94, 0xa5, 0x3d, 0x62, 0xcb, 0xe6, 0xba, 0x70, 0x3c, 0xf5, 0xbd, 0xcd, 0x54, 0x90, 0xbd, 0xe4, 0x42, 0x42, 0xbe, 0x30, 0x05, 0xd1, 0xbd, 0xc0, 0x1b, 0x5f, 0xbe, 0x7c, 0x49, 0x4a, 0xbe, 0xcb, 0xeb, 0xe1, 0x3d, 0xf1, 0x16, 0x8c, 0xbe, 0xac, 0x32, 0x17, 0x3d, 0x3a, 0x05, 0x07, 0x3e, 0xe7, 0x23, 0x5b, 0xbe, 0x23, 0x15, 0xd2, 0xba, 0xcc, 0x1e, 0x86, 0xbe, 0x6c, 0xa6, 0x84, 0xbe, 0xb6, 0xf5, 0xdc, 0x3d, 0xde, 0x38, 0xf5, 0x3d, 0x40, 0xeb, 0x83, 0x3d, 0x62, 0x5c, 0x39, 0x3e, 0xaf, 0xb3, 0x88, 0x3d, 0x6c, 0xb2, 0x13, 0xbd, 0x39, 0x98, 0x88, 0xbe, 0xe8, 0xa9, 0xc7, 0x3d, 0xd3, 0x8d, 0xbe, 0x3d, 0xbc, 0xaf, 0xd4, 0x3d, 0xc3, 0xfa, 0x7c, 0x3e, 0x84, 0x28, 0x86, 0xbc, 0xe0, 0x35, 0x66, 0xbe, 0x6b, 0x3a, 0x20, 0x3e, 0x58, 0x19, 0x26, 0xbd, 0x56, 0x05, 0x80, 0xbe, 0xc8, 0x7b, 0x29, 0xbe, 0xab, 0x2c, 0xfd, 0xbd, 0xd0, 0x6a, 0x36, 0xbd, 0x24, 0x2b, 0x93, 0xbd, 0xfb, 0x7b, 0x63, 0x3c, 0xf2, 0x8a, 0x14, 0x3e, 0x16, 0xa6, 0x24, 0xbe, 0x2e, 0xf4, 0x81, 0x3e, 0xd8, 0x6a, 0xf6, 0x3d, 0x77, 0xf0, 0x19, 0x3e, 0xae, 0x59, 0x8b, 0xbe, 0x04, 0xd5, 0x01, 0x3e, 0x4f, 0xfd, 0x52, 0xbe, 0x98, 0xf0, 0xeb, 0x3d, 0x60, 0xc8, 0xc5, 0xbd, 0x66, 0xfd, 0xff, 0xff, 0x04, 0x00, 0x00, 0x00, 0x00, 0x02, 0x00, 0x00, 0x11, 0x0d, 0x2a, 0xbe, 0xab, 0x14, 0x80, 0xbe, 0xb4, 0x2b, 0xc2, 0xbe, 0x39, 0xba, 0x9a, 0x3e, 0xf6, 0xfd, 0x4c, 0x3e, 0x2f, 0x57, 0xdc, 0xbe, 0x4c, 0x39, 0x5e, 0x3d, 0xbe, 0x30, 0x99, 0x3e, 0xc2, 0x95, 0x2a, 0xbe, 0xd2, 0x26, 0x94, 0x3e, 0x6f, 0xba, 0x8f, 0x3d, 0x3c, 0x8c, 0x80, 0xbe, 0x30, 0x4d, 0xa5, 0xbe, 0x53, 0x72, 0xa6, 0xbd, 0xe1, 0x93, 0x15, 0xbb, 0x98, 0x5e, 0x26, 0x3d, 0x3a, 0x24, 0xe2, 0xbc, 0x4d, 0x36, 0xa2, 0x3e, 0xf4, 0xc4, 0xd0, 0x3c, 0x79, 0xa6, 0x09, 0xbd, 0xee, 0x3b, 0xe3, 0x3e, 0x99, 0x43, 0xb6, 0xbd, 0xcc, 0x55, 0x5f, 0x3e, 0x35, 0x3f, 0xc1, 0xbe, 0xd5, 0xc4, 0x96, 0x3e, 0x55, 0xc7, 0xb6, 0xbe, 0xdc, 0x60, 0x35, 0x3e, 0xc6, 0x59, 0x80, 0x3e, 0xf3, 0xec, 0x9e, 0x3e, 0xb4, 0x3d, 0xfa, 0x3c, 0x9e, 0xe2, 0xbb, 0x3e, 0xb6, 0xc6, 0xbc, 0x3e, 0xf8, 0xeb, 0xa4, 0xbe, 0x46, 0x0d, 0x44, 0xbd, 0x3c, 0xd3, 0x4b, 0x3d, 0x1f, 0xd2, 0xcd, 0xbd, 0xf9, 0x42, 0x7a, 0x3d, 0x00, 0xde, 0xd9, 0xbe, 0xde, 0x19, 0xaf, 0x3e, 0x00, 0x78, 0x4e, 0x3d, 0x49, 0xec, 0x1c, 0xbe, 0x47, 0x4a, 0x7a, 0xbd, 0x6e, 0x55, 0x1c, 0x3d, 0xe6, 0x94, 0xc4, 0x3e, 0xc2, 0xc6, 0xaa, 0xbd, 0x14, 0x9a, 0xac, 0x3e, 0x5d, 0xbe, 0xc2, 0x3c, 0x44, 0x70, 0x8f, 0x3e, 0x18, 0xd3, 0xdb, 0xbe, 0x58, 0x54, 0x8f, 0x3e, 0xb9, 0x38, 0xce, 0xbd, 0x9c, 0xf9, 0x58, 0x3e, 0x48, 0x0a, 0x25, 0x3e, 0x15, 0xba, 0xcd, 0xbd, 0x5b, 0x43, 0xb4, 0x3c, 0x35, 0xf8, 0xd5, 0xbe, 0x90, 0x2b, 0x68, 0xbe, 0x59, 0xa3, 0xcf, 0xbd, 0x58, 0x74, 0xfb, 0xbd, 0x50, 0x93, 0xc5, 0xbe, 0xfd, 0xc1, 0x84, 0x3e, 0x2b, 0xc5, 0x19, 0xbe, 0x28, 0x18, 0xac, 0x3e, 0xd0, 0xd2, 0x24, 0x3e, 0xe0, 0x1d, 0x78, 0x3e, 0x59, 0xb1, 0x84, 0x3e, 0xf3, 0xd2, 0xeb, 0xbc, 0x75, 0x2a, 0x3b, 0x3d, 0x23, 0x66, 0xa2, 0xbe, 0xa8, 0x22, 0xf0, 0x3b, 0xd7, 0x2a, 0xeb, 0xbd, 0xbe, 0xda, 0xb3, 0x3e, 0xaa, 0xa7, 0xb3, 0x3e, 0x17, 0xf9, 0x97, 0x3e, 0x14, 0x1f, 0x62, 0xbe, 0x6e, 0xba, 0x54, 0xbd, 0x87, 0xa0, 0x80, 0xbd, 0x2f, 0x7a, 0xce, 0xbe, 0xe4, 0x5a, 0x85, 0xbe, 0x30, 0x2b, 0xc9, 0x3d, 0xaa, 0x57, 0x38, 0x3d, 0xf1, 0x69, 0xed, 0xbd, 0x48, 0xe4, 0xe6, 0xbe, 0xee, 0xe6, 0x85, 0x3d, 0x46, 0x83, 0xe8, 0xbe, 0xb8, 0x5b, 0x8e, 0x3e, 0x09, 0xf3, 0x65, 0xbd, 0x3c, 0x50, 0xc3, 0x3e, 0xad, 0x34, 0xb3, 0xbd, 0x5b, 0xf7, 0x12, 0xbe, 0xac, 0x42, 0xc2, 0xbd, 0xe0, 0x80, 0xd3, 0xbe, 0x1e, 0xd8, 0x84, 0xbe, 0x97, 0xc1, 0x1b, 0x3e, 0xa0, 0x39, 0x71, 0xbc, 0xd1, 0x1e, 0xad, 0xbb, 0x05, 0x7a, 0xb5, 0x3e, 0x4c, 0xef, 0xfb, 0xbc, 0x6f, 0x69, 0x45, 0xbe, 0xae, 0x22, 0x2d, 0xbd, 0xfd, 0x9e, 0x84, 0xbe, 0x4d, 0x0d, 0xaa, 0x3d, 0x42, 0x86, 0xc1, 0x3e, 0xc0, 0x31, 0xe1, 0x3c, 0x0d, 0x8b, 0x8d, 0x3e, 0x4c, 0x47, 0xa3, 0x3d, 0x5f, 0x4b, 0xad, 0xbe, 0xe6, 0xcc, 0x9e, 0xbe, 0x7b, 0x4d, 0x2f, 0xbe, 0x4a, 0x88, 0x05, 0xbb, 0xc7, 0x32, 0xad, 0xbe, 0x64, 0xc7, 0xbd, 0xbd, 0x81, 0x26, 0x95, 0x3e, 0x87, 0xc8, 0xad, 0xbe, 0x8c, 0x74, 0x63, 0xbe, 0x2b, 0x04, 0x39, 0x3e, 0x54, 0xf7, 0x94, 0xbe, 0x4e, 0xbe, 0x1a, 0xbe, 0x8d, 0xde, 0xea, 0xbd, 0x83, 0x33, 0x86, 0xbc, 0xe1, 0x42, 0x33, 0x3e, 0x13, 0xd7, 0xd5, 0xbe, 0xf6, 0x93, 0xc6, 0xbe, 0x38, 0xec, 0xcf, 0xbe, 0x61, 0x12, 0x28, 0x3e, 0xe7, 0x7b, 0x98, 0xbe, 0x20, 0x9b, 0x82, 0x3c, 0x60, 0xf4, 0xae, 0xbe, 0x90, 0xf8, 0xff, 0xff, 0x94, 0xf8, 0xff, 0xff, 0x0f, 0x00, 0x00, 0x00, 0x4d, 0x4c, 0x49, 0x52, 0x20, 0x43, 0x6f, 0x6e, 0x76, 0x65, 0x72, 0x74, 0x65, 0x64, 0x2e, 0x00, 0x01, 0x00, 0x00, 0x00, 0x14, 0x00, 0x00, 0x00, 0x00, 0x00, 0x0e, 0x00, 0x18, 0x00, 0x14, 0x00, 0x10, 0x00, 0x0c, 0x00, 0x08, 0x00, 0x04, 0x00, 0x0e, 0x00, 0x00, 0x00, 0x14, 0x00, 0x00, 0x00, 0x1c, 0x00, 0x00, 0x00, 0x94, 0x01, 0x00, 0x00, 0x98, 0x01, 0x00, 0x00, 0x9c, 0x01, 0x00, 0x00, 0x04, 0x00, 0x00, 0x00, 0x6d, 0x61, 0x69, 0x6e, 0x00, 0x00, 0x00, 0x00, 0x06, 0x00, 0x00, 0x00, 0x4c, 0x01, 0x00, 0x00, 0x08, 0x01, 0x00, 0x00, 0xb4, 0x00, 0x00, 0x00, 0x78, 0x00, 0x00, 0x00, 0x40, 0x00, 0x00, 0x00, 0x04, 0x00, 0x00, 0x00, 0x1a, 0xff, 0xff, 0xff, 0x1c, 0x00, 0x00, 0x00, 0x00, 0x00, 0x00, 0x09, 0x1c, 0x00, 0x00, 0x00, 0x20, 0x00, 0x00, 0x00, 0x03, 0x00, 0x00, 0x00, 0x00, 0x00, 0x06, 0x00, 0x08, 0x00, 0x04, 0x00, 0x06, 0x00, 0x00, 0x00, 0x00, 0x00, 0x80, 0x3f, 0x01, 0x00, 0x00, 0x00, 0x0e, 0x00, 0x00, 0x00, 0x01, 0x00, 0x00, 0x00, 0x0d, 0x00, 0x00, 0x00, 0x52, 0xff, 0xff, 0xff, 0x14, 0x00, 0x00, 0x00, 0x00, 0x00, 0x00, 0x08, 0x10, 0x00, 0x00, 0x00, 0x14, 0x00, 0x00, 0x00, 0x02, 0x00, 0x00, 0x00, 0x54, 0xf9, 0xff, 0xff, 0x01, 0x00, 0x00, 0x00, 0x0d, 0x00, 0x00, 0x00, 0x03, 0x00, 0x00, 0x00, 0x0c, 0x00, 0x00, 0x00, 0x01, 0x00, 0x00, 0x00, 0x08, 0x00, 0x00, 0x00, 0x86, 0xff, 0xff, 0xff, 0x14, 0x00, 0x00, 0x00, 0x00, 0x00, 0x00, 0x08, 0x14, 0x00, 0x00, 0x00, 0x18, 0x00, 0x00, 0x00, 0x02, 0x00, 0x00, 0x00, 0xc6, 0xff, 0xff, 0xff, 0x00, 0x00, 0x00, 0x01, 0x01, 0x00, 0x00, 0x00, 0x0c, 0x00, 0x00, 0x00, 0x03, 0x00, 0x00, 0x00, 0x0b, 0x00, 0x00, 0x00, 0x02, 0x00, 0x00, 0x00, 0x06, 0x00, 0x00, 0x00, 0xbe, 0xff, 0xff, 0xff, 0x1c, 0x00, 0x00, 0x00, 0x00, 0x00, 0x00, 0x08, 0x1c, 0x00, 0x00, 0x00, 0x20, 0x00, 0x00, 0x00, 0x02, 0x00, 0x00, 0x00, 0x00, 0x00, 0x06, 0x00, 0x08, 0x00, 0x07, 0x00, 0x06, 0x00, 0x00, 0x00, 0x00, 0x00, 0x00, 0x01, 0x01, 0x00, 0x00, 0x00, 0x0b, 0x00, 0x00, 0x00, 0x03, 0x00, 0x00, 0x00, 0x0a, 0x00, 0x00, 0x00, 0x03, 0x00, 0x00, 0x00, 0x07, 0x00, 0x00, 0x00, 0x00, 0x00, 0x0e, 0x00, 0x18, 0x00, 0x14, 0x00, 0x10, 0x00, 0x0c, 0x00, 0x0b, 0x00, 0x04, 0x00, 0x0e, 0x00, 0x00, 0x00, 0x14, 0x00, 0x00, 0x00, 0x00, 0x00, 0x00, 0x15, 0x10, 0x00, 0x00, 0x00, 0x14, 0x00, 0x00, 0x00, 0x01, 0x00, 0x00, 0x00, 0x10, 0xfa, 0xff, 0xff, 0x01, 0x00, 0x00, 0x00, 0x0a, 0x00, 0x00, 0x00, 0x02, 0x00, 0x00, 0x00, 0x09, 0x00, 0x00, 0x00, 0x04, 0x00, 0x00, 0x00, 0x00, 0x00, 0x0e, 0x00, 0x14, 0x00, 0x00, 0x00, 0x10, 0x00, 0x0c, 0x00, 0x0b, 0x00, 0x04, 0x00, 0x0e, 0x00, 0x00, 0x00, 0x10, 0x00, 0x00, 0x00, 0x00, 0x00, 0x00, 0x1c, 0x0c, 0x00, 0x00, 0x00, 0x10, 0x00, 0x00, 0x00, 0x4c, 0xfa, 0xff, 0xff, 0x01, 0x00, 0x00, 0x00, 0x09, 0x00, 0x00, 0x00, 0x02, 0x00, 0x00, 0x00, 0x00, 0x00, 0x00, 0x00, 0x05, 0x00, 0x00, 0x00, 0x01, 0x00, 0x00, 0x00, 0x0e, 0x00, 0x00, 0x00, 0x01, 0x00, 0x00, 0x00, 0x00, 0x00, 0x00, 0x00, 0x0f, 0x00, 0x00, 0x00, 0x60, 0x05, 0x00, 0x00, 0x08, 0x05, 0x00, 0x00, 0xb0, 0x04, 0x00, 0x00, 0x70, 0x04, 0x00, 0x00, 0x30, 0x04, 0x00, 0x00, 0xf8, 0x03, 0x00, 0x00, 0xa0, 0x03, 0x00, 0x00, 0x4c, 0x03, 0x00, 0x00, 0xf4, 0x02, 0x00, 0x00, 0x90, 0x02, 0x00, 0x00, 0x04, 0x02, 0x00, 0x00, 0x74, 0x01, 0x00, 0x00, 0xdc, 0x00, 0x00, 0x00, 0x60, 0x00, 0x00, 0x00, 0x04, 0x00, 0x00, 0x00, 0xf2, 0xfa, 0xff, 0xff, 0x00, 0x00, 0x00, 0x01, 0x14, 0x00, 0x00, 0x00, 0x1c, 0x00, 0x00, 0x00, 0x1c, 0x00, 0x00, 0x00, 0x0f, 0x00, 0x00, 0x00, 0x34, 0x00, 0x00, 0x00, 0x02, 0x00, 0x00, 0x00, 0xff, 0xff, 0xff, 0xff, 0x04, 0x00, 0x00, 0x00, 0xdc, 0xfa, 0xff, 0xff, 0x1b, 0x00, 0x00, 0x00, 0x53, 0x74, 0x61, 0x74, 0x65, 0x66, 0x75, 0x6c, 0x50, 0x61, 0x72, 0x74, 0x69, 0x74, 0x69, 0x6f, 0x6e, 0x65, 0x64, 0x43, 0x61, 0x6c, 0x6c, 0x5f, 0x31, 0x3a, 0x30, 0x00, 0x02, 0x00, 0x00, 0x00, 0x01, 0x00, 0x00, 0x00, 0x04, 0x00, 0x00, 0x00, 0x4a, 0xfb, 0xff, 0xff, 0x00, 0x00, 0x00, 0x01, 0x14, 0x00, 0x00, 0x00, 0x1c, 0x00, 0x00, 0x00, 0x1c, 0x00, 0x00, 0x00, 0x0e, 0x00, 0x00, 0x00, 0x54, 0x00, 0x00, 0x00, 0x02, 0x00, 0x00, 0x00, 0xff, 0xff, 0xff, 0xff, 0x04, 0x00, 0x00, 0x00, 0x34, 0xfb, 0xff, 0xff, 0x38, 0x00, 0x00, 0x00, 0x73, 0x65, 0x71, 0x75, 0x65, 0x6e, 0x74, 0x69, 0x61, 0x6c, 0x5f, 0x31, 0x2f, 0x64, 0x65, 0x6e, 0x73, 0x65, 0x5f, 0x32, 0x5f, 0x31, 0x2f, 0x4d, 0x61, 0x74, 0x4d, 0x75, 0x6c, 0x3b, 0x73, 0x65, 0x71, 0x75, 0x65, 0x6e, 0x74, 0x69, 0x61, 0x6c, 0x5f, 0x31, 0x2f, 0x64, 0x65, 0x6e, 0x73, 0x65, 0x5f, 0x32, 0x5f, 0x31, 0x2f, 0x41, 0x64, 0x64, 0x00, 0x00, 0x00, 0x00, 0x02, 0x00, 0x00, 0x00, 0x01, 0x00, 0x00, 0x00, 0x04, 0x00, 0x00, 0x00, 0xc2, 0xfb, 0xff, 0xff, 0x00, 0x00, 0x00, 0x01, 0x14, 0x00, 0x00, 0x00, 0x1c, 0x00, 0x00, 0x00, 0x1c, 0x00, 0x00, 0x00, 0x0d, 0x00, 0x00, 0x00, 0x70, 0x00, 0x00, 0x00, 0x02, 0x00, 0x00, 0x00, 0xff, 0xff, 0xff, 0xff, 0x20, 0x00, 0x00, 0x00, 0xac, 0xfb, 0xff, 0xff, 0x54, 0x00, 0x00, 0x00, 0x73, 0x65, 0x71, 0x75, 0x65, 0x6e, 0x74, 0x69, 0x61, 0x6c, 0x5f, 0x31, 0x2f, 0x64, 0x65, 0x6e, 0x73, 0x65, 0x5f, 0x31, 0x5f, 0x32, 0x2f, 0x4d, 0x61, 0x74, 0x4d, 0x75, 0x6c, 0x3b, 0x73, 0x65, 0x71, 0x75, 0x65, 0x6e, 0x74, 0x69, 0x61, 0x6c, 0x5f, 0x31, 0x2f, 0x64, 0x65, 0x6e, 0x73, 0x65, 0x5f, 0x31, 0x5f, 0x32, 0x2f, 0x52, 0x65, 0x6c, 0x75, 0x3b, 0x73, 0x65, 0x71, 0x75, 0x65, 0x6e, 0x74, 0x69, 0x61, 0x6c, 0x5f, 0x31, 0x2f, 0x64, 0x65, 0x6e, 0x73, 0x65, 0x5f, 0x31, 0x5f, 0x32, 0x2f, 0x41, 0x64, 0x64, 0x00, 0x00, 0x00, 0x00, 0x02, 0x00, 0x00, 0x00, 0x01, 0x00, 0x00, 0x00, 0x20, 0x00, 0x00, 0x00, 0x56, 0xfc, 0xff, 0xff, 0x00, 0x00, 0x00, 0x01, 0x14, 0x00, 0x00, 0x00, 0x1c, 0x00, 0x00, 0x00, 0x1c, 0x00, 0x00, 0x00, 0x0c, 0x00, 0x00, 0x00, 0x68, 0x00, 0x00, 0x00, 0x02, 0x00, 0x00, 0x00, 0xff, 0xff, 0xff, 0xff, 0x40, 0x00, 0x00, 0x00, 0x40, 0xfc, 0xff, 0xff, 0x4e, 0x00, 0x00, 0x00, 0x73, 0x65, 0x71, 0x75, 0x65, 0x6e, 0x74, 0x69, 0x61, 0x6c, 0x5f, 0x31, 0x2f, 0x64, 0x65, 0x6e, 0x73, 0x65, 0x5f, 0x31, 0x2f, 0x4d, 0x61, 0x74, 0x4d, 0x75, 0x6c, 0x3b, 0x73, 0x65, 0x71, 0x75, 0x65, 0x6e, 0x74, 0x69, 0x61, 0x6c, 0x5f, 0x31, 0x2f, 0x64, 0x65, 0x6e, 0x73, 0x65, 0x5f, 0x31, 0x2f, 0x52, 0x65, 0x6c, 0x75, 0x3b, 0x73, 0x65, 0x71, 0x75, 0x65, 0x6e, 0x74, 0x69, 0x61, 0x6c, 0x5f, 0x31, 0x2f, 0x64, 0x65, 0x6e, 0x73, 0x65, 0x5f, 0x31, 0x2f, 0x41, 0x64, 0x64, 0x00, 0x00, 0x02, 0x00, 0x00, 0x00, 0x01, 0x00, 0x00, 0x00, 0x40, 0x00, 0x00, 0x00, 0xe2, 0xfc, 0xff, 0xff, 0x00, 0x00, 0x00, 0x01, 0x14, 0x00, 0x00, 0x00, 0x1c, 0x00, 0x00, 0x00, 0x1c, 0x00, 0x00, 0x00, 0x0b, 0x00, 0x00, 0x00, 0x64, 0x00, 0x00, 0x00, 0x02, 0x00, 0x00, 0x00, 0xff, 0xff, 0xff, 0xff, 0x05, 0x00, 0x00, 0x00, 0xcc, 0xfc, 0xff, 0xff, 0x49, 0x00, 0x00, 0x00, 0x73, 0x65, 0x71, 0x75, 0x65, 0x6e, 0x74, 0x69, 0x61, 0x6c, 0x5f, 0x31, 0x2f, 0x6e, 0x6f, 0x72, 0x6d, 0x61, 0x6c, 0x69, 0x7a, 0x61, 0x74, 0x69, 0x6f, 0x6e, 0x5f, 0x31, 0x2f, 0x74, 0x72, 0x75, 0x65, 0x64, 0x69, 0x76, 0x3b, 0x73, 0x65, 0x71, 0x75, 0x65, 0x6e, 0x74, 0x69, 0x61, 0x6c, 0x5f, 0x31, 0x2f, 0x6e, 0x6f, 0x72, 0x6d, 0x61, 0x6c, 0x69, 0x7a, 0x61, 0x74, 0x69, 0x6f, 0x6e, 0x5f, 0x31, 0x2f, 0x4d, 0x61, 0x78, 0x69, 0x6d, 0x75, 0x6d, 0x00, 0x00, 0x00, 0x02, 0x00, 0x00, 0x00, 0x01, 0x00, 0x00, 0x00, 0x05, 0x00, 0x00, 0x00, 0x6a, 0xfd, 0xff, 0xff, 0x00, 0x00, 0x00, 0x01, 0x14, 0x00, 0x00, 0x00, 0x1c, 0x00, 0x00, 0x00, 0x1c, 0x00, 0x00, 0x00, 0x0a, 0x00, 0x00, 0x00, 0x3c, 0x00, 0x00, 0x00, 0x02, 0x00, 0x00, 0x00, 0xff, 0xff, 0xff, 0xff, 0x05, 0x00, 0x00, 0x00, 0x54, 0xfd, 0xff, 0xff, 0x20, 0x00, 0x00, 0x00, 0x73, 0x65, 0x71, 0x75, 0x65, 0x6e, 0x74, 0x69, 0x61, 0x6c, 0x5f, 0x31, 0x2f, 0x6e, 0x6f, 0x72, 0x6d, 0x61, 0x6c, 0x69, 0x7a, 0x61, 0x74, 0x69, 0x6f, 0x6e, 0x5f, 0x31, 0x2f, 0x53, 0x75, 0x62, 0x00, 0x00, 0x00, 0x00, 0x02, 0x00, 0x00, 0x00, 0x01, 0x00, 0x00, 0x00, 0x05, 0x00, 0x00, 0x00, 0x1e, 0xfe, 0xff, 0xff, 0x00, 0x00, 0x00, 0x01, 0x10, 0x00, 0x00, 0x00, 0x10, 0x00, 0x00, 0x00, 0x09, 0x00, 0x00, 0x00, 0x38, 0x00, 0x00, 0x00, 0xa4, 0xfd, 0xff, 0xff, 0x29, 0x00, 0x00, 0x00, 0x73, 0x65, 0x71, 0x75, 0x65, 0x6e, 0x74, 0x69, 0x61, 0x6c, 0x5f, 0x31, 0x2f, 0x64, 0x65, 0x6e, 0x73, 0x65, 0x5f, 0x32, 0x5f, 0x31, 0x2f, 0x41, 0x64, 0x64, 0x2f, 0x52, 0x65, 0x61, 0x64, 0x56, 0x61, 0x72, 0x69, 0x61, 0x62, 0x6c, 0x65, 0x4f, 0x70, 0x00, 0x00, 0x00, 0x01, 0x00, 0x00, 0x00, 0x04, 0x00, 0x00, 0x00, 0x72, 0xfe, 0xff, 0xff, 0x00, 0x00, 0x00, 0x01, 0x10, 0x00, 0x00, 0x00, 0x10, 0x00, 0x00, 0x00, 0x08, 0x00, 0x00, 0x00, 0x34, 0x00, 0x00, 0x00, 0xf8, 0xfd, 0xff, 0xff, 0x27, 0x00, 0x00, 0x00, 0x73, 0x65, 0x71, 0x75, 0x65, 0x6e, 0x74, 0x69, 0x61, 0x6c, 0x5f, 0x31, 0x2f, 0x64, 0x65, 0x6e, 0x73, 0x65, 0x5f, 0x31, 0x2f, 0x41, 0x64, 0x64, 0x2f, 0x52, 0x65, 0x61, 0x64, 0x56, 0x61, 0x72, 0x69, 0x61, 0x62, 0x6c, 0x65, 0x4f, 0x70, 0x00, 0x01, 0x00, 0x00, 0x00, 0x40, 0x00, 0x00, 0x00, 0xc2, 0xfe, 0xff, 0xff, 0x00, 0x00, 0x00, 0x01, 0x10, 0x00, 0x00, 0x00, 0x10, 0x00, 0x00, 0x00, 0x07, 0x00, 0x00, 0x00, 0x38, 0x00, 0x00, 0x00, 0x48, 0xfe, 0xff, 0xff, 0x29, 0x00, 0x00, 0x00, 0x73, 0x65, 0x71, 0x75, 0x65, 0x6e, 0x74, 0x69, 0x61, 0x6c, 0x5f, 0x31, 0x2f, 0x64, 0x65, 0x6e, 0x73, 0x65, 0x5f, 0x31, 0x5f, 0x32, 0x2f, 0x41, 0x64, 0x64, 0x2f, 0x52, 0x65, 0x61, 0x64, 0x56, 0x61, 0x72, 0x69, 0x61, 0x62, 0x6c, 0x65, 0x4f, 0x70, 0x00, 0x00, 0x00, 0x01, 0x00, 0x00, 0x00, 0x20, 0x00, 0x00, 0x00, 0x16, 0xff, 0xff, 0xff, 0x00, 0x00, 0x00, 0x01, 0x10, 0x00, 0x00, 0x00, 0x10, 0x00, 0x00, 0x00, 0x06, 0x00, 0x00, 0x00, 0x14, 0x00, 0x00, 0x00, 0x9c, 0xfe, 0xff, 0xff, 0x07, 0x00, 0x00, 0x00, 0x43, 0x6f, 0x6e, 0x73, 0x74, 0x5f, 0x31, 0x00, 0x02, 0x00, 0x00, 0x00, 0x01, 0x00, 0x00, 0x00, 0x05, 0x00, 0x00, 0x00, 0x4a, 0xff, 0xff, 0xff, 0x00, 0x00, 0x00, 0x01, 0x10, 0x00, 0x00, 0x00, 0x10, 0x00, 0x00, 0x00, 0x05, 0x00, 0x00, 0x00, 0x1c, 0x00, 0x00, 0x00, 0xd0, 0xfe, 0xff, 0xff, 0x0f, 0x00, 0x00, 0x00, 0x61, 0x72, 0x69, 0x74, 0x68, 0x2e, 0x63, 0x6f, 0x6e, 0x73, 0x74, 0x61, 0x6e, 0x74, 0x33, 0x00, 0x02, 0x00, 0x00, 0x00, 0x01, 0x00, 0x00, 0x00, 0x05, 0x00, 0x00, 0x00, 0x86, 0xff, 0xff, 0xff, 0x00, 0x00, 0x00, 0x01, 0x10, 0x00, 0x00, 0x00, 0x10, 0x00, 0x00, 0x00, 0x04, 0x00, 0x00, 0x00, 0x1c, 0x00, 0x00, 0x00, 0x0c, 0xff, 0xff, 0xff, 0x0f, 0x00, 0x00, 0x00, 0x61, 0x72, 0x69, 0x74, 0x68, 0x2e, 0x63, 0x6f, 0x6e, 0x73, 0x74, 0x61, 0x6e, 0x74, 0x32, 0x00, 0x02, 0x00, 0x00, 0x00, 0x40, 0x00, 0x00, 0x00, 0x05, 0x00, 0x00, 0x00, 0xc2, 0xff, 0xff, 0xff, 0x00, 0x00, 0x00, 0x01, 0x10, 0x00, 0x00, 0x00, 0x10, 0x00, 0x00, 0x00, 0x03, 0x00, 0x00, 0x00, 0x1c, 0x00, 0x00, 0x00, 0x48, 0xff, 0xff, 0xff, 0x0f, 0x00, 0x00, 0x00, 0x61, 0x72, 0x69, 0x74, 0x68, 0x2e, 0x63, 0x6f, 0x6e, 0x73, 0x74, 0x61, 0x6e, 0x74, 0x31, 0x00, 0x02, 0x00, 0x00, 0x00, 0x20, 0x00, 0x00, 0x00, 0x40, 0x00, 0x00, 0x00, 0x00, 0x00, 0x16, 0x00, 0x18, 0x00, 0x14, 0x00, 0x00, 0x00, 0x10, 0x00, 0x0c, 0x00, 0x08, 0x00, 0x00, 0x00, 0x00, 0x00, 0x00, 0x00, 0x07, 0x00, 0x16, 0x00, 0x00, 0x00, 0x00, 0x00, 0x00, 0x01, 0x10, 0x00, 0x00, 0x00, 0x10, 0x00, 0x00, 0x00, 0x02, 0x00, 0x00, 0x00, 0x1c, 0x00, 0x00, 0x00, 0x9c, 0xff, 0xff, 0xff, 0x0e, 0x00, 0x00, 0x00, 0x61, 0x72, 0x69, 0x74, 0x68, 0x2e, 0x63, 0x6f, 0x6e, 0x73, 0x74, 0x61, 0x6e, 0x74, 0x00, 0x00, 0x02, 0x00, 0x00, 0x00, 0x04, 0x00, 0x00, 0x00, 0x20, 0x00, 0x00, 0x00, 0x00, 0x00, 0x16, 0x00, 0x1c, 0x00, 0x18, 0x00, 0x00, 0x00, 0x14, 0x00, 0x10, 0x00, 0x0c, 0x00, 0x00, 0x00, 0x00, 0x00, 0x08, 0x00, 0x07, 0x00, 0x16, 0x00, 0x00, 0x00, 0x00, 0x00, 0x00, 0x01, 0x14, 0x00, 0x00, 0x00, 0x20, 0x00, 0x00, 0x00, 0x20, 0x00, 0x00, 0x00, 0x01, 0x00, 0x00, 0x00, 0x3c, 0x00, 0x00, 0x00, 0x02, 0x00, 0x00, 0x00, 0xff, 0xff, 0xff, 0xff, 0x05, 0x00, 0x00, 0x00, 0x04, 0x00, 0x04, 0x00, 0x04, 0x00, 0x00, 0x00, 0x1e, 0x00, 0x00, 0x00, 0x73, 0x65, 0x72, 0x76, 0x69, 0x6e, 0x67, 0x5f, 0x64, 0x65, 0x66, 0x61, 0x75, 0x6c, 0x74, 0x5f, 0x6b, 0x65, 0x72, 0x61, 0x73, 0x5f, 0x74, 0x65, 0x6e, 0x73, 0x6f, 0x72, 0x3a, 0x30, 0x00, 0x00, 0x02, 0x00, 0x00, 0x00, 0x01, 0x00, 0x00, 0x00, 0x05, 0x00, 0x00, 0x00, 0x04, 0x00, 0x00, 0x00, 0x40, 0x00, 0x00, 0x00, 0x24, 0x00, 0x00, 0x00, 0x14, 0x00, 0x00, 0x00, 0x04, 0x00, 0x00, 0x00, 0xdc, 0xff, 0xff, 0xff, 0x19, 0x00, 0x00, 0x00, 0x00, 0x00, 0x00, 0x19, 0xe8, 0xff, 0xff, 0xff, 0x09, 0x00, 0x00, 0x00, 0x00, 0x00, 0x00, 0x09, 0xf4, 0xff, 0xff, 0xff, 0x12, 0x00, 0x00, 0x00, 0x00, 0x00, 0x00, 0x12, 0x0c, 0x00, 0x0c, 0x00, 0x0b, 0x00, 0x00, 0x00, 0x00, 0x00, 0x04, 0x00, 0x0c, 0x00, 0x00, 0x00, 0x29, 0x00, 0x00, 0x00, 0x00, 0x00, 0x00, 0x29
};
