alignas(16) const unsigned char model[] = {
0x1c, 0x00, 0x00, 0x00, 0x54, 0x46, 0x4c, 0x33, 0x14, 0x00, 0x20, 0x00, 0x1c, 0x00, 0x18, 0x00, 0x14, 0x00, 0x10, 0x00, 0x0c, 0x00, 0x00, 0x00, 0x08, 0x00, 0x04, 0x00, 0x14, 0x00, 0x00, 0x00, 0x1c, 0x00, 0x00, 0x00, 0x98, 0x00, 0x00, 0x00, 0xf0, 0x00, 0x00, 0x00, 0xb8, 0x19, 0x00, 0x00, 0xc8, 0x19, 0x00, 0x00, 0x50, 0x21, 0x00, 0x00, 0x03, 0x00, 0x00, 0x00, 0x01, 0x00, 0x00, 0x00, 0x10, 0x00, 0x00, 0x00, 0x00, 0x00, 0x0a, 0x00, 0x10, 0x00, 0x0c, 0x00, 0x08, 0x00, 0x04, 0x00, 0x0a, 0x00, 0x00, 0x00, 0x0c, 0x00, 0x00, 0x00, 0x1c, 0x00, 0x00, 0x00, 0x3c, 0x00, 0x00, 0x00, 0x0f, 0x00, 0x00, 0x00, 0x73, 0x65, 0x72, 0x76, 0x69, 0x6e, 0x67, 0x5f, 0x64, 0x65, 0x66, 0x61, 0x75, 0x6c, 0x74, 0x00, 0x01, 0x00, 0x00, 0x00, 0x04, 0x00, 0x00, 0x00, 0x90, 0xff, 0xff, 0xff, 0x0e, 0x00, 0x00, 0x00, 0x04, 0x00, 0x00, 0x00, 0x08, 0x00, 0x00, 0x00, 0x6f, 0x75, 0x74, 0x70, 0x75, 0x74, 0x5f, 0x30, 0x00, 0x00, 0x00, 0x00, 0x01, 0x00, 0x00, 0x00, 0x04, 0x00, 0x00, 0x00, 0x36, 0xe6, 0xff, 0xff, 0x04, 0x00, 0x00, 0x00, 0x0c, 0x00, 0x00, 0x00, 0x6b, 0x65, 0x72, 0x61, 0x73, 0x5f, 0x74, 0x65, 0x6e, 0x73, 0x6f, 0x72, 0x00, 0x00, 0x00, 0x00, 0x02, 0x00, 0x00, 0x00, 0x34, 0x00, 0x00, 0x00, 0x04, 0x00, 0x00, 0x00, 0xdc, 0xff, 0xff, 0xff, 0x11, 0x00, 0x00, 0x00, 0x04, 0x00, 0x00, 0x00, 0x13, 0x00, 0x00, 0x00, 0x43, 0x4f, 0x4e, 0x56, 0x45, 0x52, 0x53, 0x49, 0x4f, 0x4e, 0x5f, 0x4d, 0x45, 0x54, 0x41, 0x44, 0x41, 0x54, 0x41, 0x00, 0x08, 0x00, 0x0c, 0x00, 0x08, 0x00, 0x04, 0x00, 0x08, 0x00, 0x00, 0x00, 0x10, 0x00, 0x00, 0x00, 0x04, 0x00, 0x00, 0x00, 0x13, 0x00, 0x00, 0x00, 0x6d, 0x69, 0x6e, 0x5f, 0x72, 0x75, 0x6e, 0x74, 0x69, 0x6d, 0x65, 0x5f, 0x76, 0x65, 0x72, 0x73, 0x69, 0x6f, 0x6e, 0x00, 0x12, 0x00, 0x00, 0x00, 0xc4, 0x18, 0x00, 0x00, 0xbc, 0x18, 0x00, 0x00, 0xac, 0x17, 0x00, 0x00, 0x9c, 0x07, 0x00, 0x00, 0x8c, 0x02, 0x00, 0x00, 0x68, 0x02, 0x00, 0x00, 0x44, 0x02, 0x00, 0x00, 0xf4, 0x01, 0x00, 0x00, 0xe4, 0x00, 0x00, 0x00, 0xc4, 0x00, 0x00, 0x00, 0xbc, 0x00, 0x00, 0x00, 0xb4, 0x00, 0x00, 0x00, 0xac, 0x00, 0x00, 0x00, 0xa4, 0x00, 0x00, 0x00, 0x9c, 0x00, 0x00, 0x00, 0x94, 0x00, 0x00, 0x00, 0x74, 0x00, 0x00, 0x00, 0x04, 0x00, 0x00, 0x00, 0xfa, 0xe6, 0xff, 0xff, 0x04, 0x00, 0x00, 0x00, 0x60, 0x00, 0x00, 0x00, 0x10, 0x00, 0x00, 0x00, 0x00, 0x00, 0x00, 0x00, 0x08, 0x00, 0x0e, 0x00, 0x08, 0x00, 0x04, 0x00, 0x08, 0x00, 0x00, 0x00, 0x10, 0x00, 0x00, 0x00, 0x24, 0x00, 0x00, 0x00, 0x00, 0x00, 0x06, 0x00, 0x08, 0x00, 0x04, 0x00, 0x06, 0x00, 0x00, 0x00, 0x04, 0x00, 0x00, 0x00, 0x00, 0x00, 0x00, 0x00, 0x0c, 0x00, 0x18, 0x00, 0x14, 0x00, 0x10, 0x00, 0x0c, 0x00, 0x04, 0x00, 0x0c, 0x00, 0x00, 0x00, 0x88, 0x24, 0x55, 0x42, 0xbe, 0x7c, 0xc6, 0xf6, 0x02, 0x00, 0x00, 0x00, 0x02, 0x00, 0x00, 0x00, 0x04, 0x00, 0x00, 0x00, 0x06, 0x00, 0x00, 0x00, 0x32, 0x2e, 0x31, 0x38, 0x2e, 0x30, 0x00, 0x00, 0x66, 0xe7, 0xff, 0xff, 0x04, 0x00, 0x00, 0x00, 0x10, 0x00, 0x00, 0x00, 0x31, 0x2e, 0x36, 0x2e, 0x30, 0x00, 0x00, 0x00, 0x00, 0x00, 0x00, 0x00, 0x00, 0x00, 0x00, 0x00, 0xa0, 0xe0, 0xff, 0xff, 0xa4, 0xe0, 0xff, 0xff, 0xa8, 0xe0, 0xff, 0xff, 0xac, 0xe0, 0xff, 0xff, 0xb0, 0xe0, 0xff, 0xff, 0xb4, 0xe0, 0xff, 0xff, 0x9a, 0xe7, 0xff, 0xff, 0x04, 0x00, 0x00, 0x00, 0x10, 0x00, 0x00, 0x00, 0x24, 0x26, 0xd4, 0x3b, 0xa7, 0xc5, 0x01, 0xbd, 0x6c, 0xd4, 0x21, 0x3d, 0x7f, 0xca, 0x68, 0xbc, 0xb6, 0xe7, 0xff, 0xff, 0x04, 0x00, 0x00, 0x00, 0x00, 0x01, 0x00, 0x00, 0x9e, 0x21, 0x9b, 0x3d, 0x3e, 0x01, 0x26, 0x3d, 0x88, 0x66, 0xc6, 0x3d, 0xdc, 0xf3, 0xc0, 0x3d, 0xba, 0xfd, 0x5b, 0xbd, 0xc3, 0x8d, 0xc4, 0x3d, 0x76, 0x58, 0x42, 0x3a, 0xea, 0x99, 0xcf, 0x3c, 0x2f, 0xff, 0x0e, 0x3d, 0x58, 0x58, 0xbf, 0x3d, 0x4d, 0xff, 0xc5, 0x3d, 0x27, 0x57, 0x45, 0xbd, 0xf6, 0xc8, 0x62, 0xbd, 0x55, 0x95, 0x6c, 0xbd, 0x59, 0xa9, 0x8a, 0x3d, 0x12, 0x43, 0x8e, 0x3d, 0xe1, 0xa9, 0x87, 0x3d, 0xf9, 0x98, 0x5f, 0x3d, 0x8e, 0x9b, 0xaa, 0x3c, 0xc8, 0x68, 0x86, 0x3d, 0x11, 0x83, 0x81, 0x3d, 0x1f, 0x36, 0x7f, 0xbc, 0x76, 0xd9, 0xa9, 0x3d, 0xef, 0xa5, 0x06, 0xbd, 0x4d, 0x3d, 0xc9, 0x3d, 0xdd, 0x8c, 0x4d, 0xbd, 0x5a, 0x61, 0x5a, 0xbd, 0xfb, 0x73, 0xf2, 0xbc, 0x3a, 0x2f, 0xe5, 0x3d, 0x95, 0x8b, 0xa2, 0xbd, 0x84, 0xa0, 0xb0, 0x3d, 0xe8, 0x84, 0x7a, 0xbc, 0x80, 0x5c, 0xc9, 0x3d, 0x0e, 0x50, 0xbd, 0xbb, 0x65, 0x55, 0xb9, 0x3d, 0xe5, 0xfa, 0x55, 0x3d, 0xc0, 0xc1, 0x1f, 0x3e, 0x31, 0x72, 0xde, 0xbb, 0xe8, 0x14, 0xbb, 0x3d, 0xec, 0xcc, 0xc1, 0x3d, 0xd2, 0x94, 0xa4, 0x3d, 0xe4, 0xf0, 0xe3, 0x3d, 0xdb, 0x60, 0x05, 0x3d, 0x97, 0x2a, 0x9e, 0x3c, 0xb4, 0x4f, 0xe2, 0x3d, 0xb9, 0x24, 0xd4, 0x3d, 0x6c, 0x24, 0x57, 0x3c, 0x4f, 0x0a, 0xe4, 0x3d, 0xab, 0x0c, 0xb2, 0x3b, 0x53, 0x0d, 0x44, 0x3d, 0xfa, 0xcd, 0x4e, 0x3d, 0xcd, 0xe7, 0x81, 0x3d, 0xc1, 0xae, 0xc7, 0x3d, 0x20, 0x5a, 0xe2, 0x3d, 0x76, 0x8b, 0x8c, 0x3b, 0x6b, 0xf4, 0x8d, 0x3c, 0x3b, 0x32, 0x9e, 0xbc, 0x57, 0xb0, 0xc7, 0x3c, 0x35, 0x72, 0xe1, 0x3d, 0xc8, 0x16, 0x97, 0x3c, 0x03, 0xcc, 0x0a, 0x3d, 0x26, 0xcf, 0xa4, 0x3d, 0x13, 0x13, 0x73, 0x3d, 0x28, 0x15, 0x12, 0xbd, 0xc2, 0xe8, 0xff, 0xff, 0x04, 0x00, 0x00, 0x00, 0x40, 0x00, 0x00, 0x00, 0x0d, 0xa0, 0xe1, 0x3d, 0xc7, 0x6f, 0xa3, 0x3d, 0x11, 0xb8, 0x9f, 0x3d, 0x0e, 0x95, 0x87, 0x3d, 0x15, 0x63, 0xba, 0x3d, 0xc1, 0x60, 0xe4, 0xbc, 0xfa, 0xfb, 0xc6, 0x3d, 0xb3, 0x6e, 0x8a, 0x3d, 0xd4, 0x5f, 0x42, 0x3d, 0x21, 0xb3, 0x49, 0xbc, 0x25, 0x7f, 0x43, 0x3d, 0x81, 0xa9, 0xb6, 0x3d, 0xcf, 0xbd, 0x61, 0x3c, 0x89, 0xec, 0x5d, 0xbd, 0xf8, 0xea, 0x87, 0x3d, 0x83, 0xc5, 0x0d, 0x3d, 0x0e, 0xe9, 0xff, 0xff, 0x04, 0x00, 0x00, 0x00, 0x14, 0x00, 0x00, 0x00, 0xad, 0x04, 0x79, 0x45, 0xe3, 0x21, 0x7b, 0x45, 0xb6, 0xe7, 0xf4, 0x44, 0x48, 0x33, 0x25, 0x45, 0x40, 0x25, 0xbe, 0x44, 0x2e, 0xe9, 0xff, 0xff, 0x04, 0x00, 0x00, 0x00, 0x14, 0x00, 0x00, 0x00, 0xf0, 0x9f, 0x26, 0x3b, 0xd9, 0x67, 0x55, 0x3b, 0xa5, 0x09, 0x8f, 0x3a, 0xe6, 0xf6, 0x56, 0x3a, 0x7a, 0x26, 0xab, 0x3a, 0x4e, 0xe9, 0xff, 0xff, 0x04, 0x00, 0x00, 0x00, 0x00, 0x05, 0x00, 0x00, 0x88, 0xb0, 0x82, 0xbe, 0x7b, 0x19, 0x11, 0x3e, 0x80, 0x36, 0x96, 0x3e, 0x0f, 0xc6, 0x1e, 0x3e, 0x3b, 0xe5, 0xc3, 0x3c, 0x74, 0x12, 0xf6, 0xbd, 0x4c, 0xf0, 0x67, 0x3e, 0xe6, 0x1a, 0x7d, 0xbe, 0xee, 0x75, 0x3b, 0xbe, 0xdf, 0x3e, 0x29, 0xbe, 0x5d, 0x10, 0x25, 0x3e, 0x83, 0xb2, 0x2f, 0xbe, 0xe2, 0x08, 0x0d, 0x3e, 0xb4, 0x98, 0x5c, 0xbd, 0x84, 0x56, 0x9a, 0x3e, 0x03, 0x7e, 0x0b, 0xbe, 0xf2, 0xd3, 0x2e, 0xbe, 0x8f, 0xee, 0x0a, 0x3b, 0x26, 0x22, 0x9b, 0xbe, 0x82, 0x84, 0x41, 0xbe, 0xf1, 0x75, 0x8f, 0xbc, 0x8d, 0xc5, 0x1d, 0x3e, 0x46, 0x69, 0x74, 0xbe, 0xa7, 0x46, 0x3f, 0x3d, 0x9a, 0x30, 0x6c, 0xbe, 0xee, 0xd0, 0xc6, 0x3d, 0x13, 0xcc, 0x83, 0x3e, 0xae, 0xb5, 0x4c, 0x3e, 0x62, 0x44, 0xf9, 0xbd, 0xfd, 0x03, 0x7e, 0x3e, 0x09, 0xa3, 0x25, 0x3e, 0x81, 0x8a, 0xcd, 0xbd, 0x20, 0xd5, 0xf1, 0x3b, 0xec, 0xd4, 0x37, 0x3e, 0x1b, 0x8e, 0xf8, 0xbc, 0x41, 0xff, 0x78, 0x3e, 0xb7, 0xaa, 0x57, 0xbe, 0x98, 0x9c, 0xa4, 0xbe, 0x11, 0xdf, 0x27, 0xbe, 0xf3, 0x06, 0x7b, 0xbe, 0x5f, 0x5c, 0x6c, 0xbe, 0x45, 0x8a, 0x11, 0xbe, 0x18, 0x6c, 0x04, 0x3e, 0xa0, 0x9c, 0x33, 0xbe, 0xd2, 0xfd, 0x52, 0xbe, 0xd7, 0x48, 0x45, 0x3e, 0xb8, 0xd9, 0x59, 0x3d, 0x83, 0xb3, 0x8e, 0xbe, 0x9a, 0x40, 0xbd, 0xbe, 0x80, 0x30, 0x95, 0xbd, 0xc6, 0xa8, 0x8d, 0x3e, 0x3c, 0xd0, 0x53, 0xbd, 0xc1, 0x27, 0x3d, 0x3d, 0xdd, 0xaa, 0x4b, 0xbe, 0x62, 0xa3, 0xb8, 0xbe, 0x8f, 0x59, 0x07, 0x3e, 0xb0, 0xe9, 0x8d, 0x3d, 0x79, 0x7b, 0x39, 0x3d, 0xed, 0x90, 0x4d, 0xbd, 0xb2, 0x2b, 0xc5, 0x3c, 0x2d, 0xee, 0x15, 0x3e, 0x2e, 0x4d, 0x25, 0x3d, 0xb6, 0x80, 0x0d, 0xbe, 0x84, 0x83, 0xf0, 0x3d, 0xb6, 0xa1, 0x57, 0x3d, 0x14, 0xd9, 0x24, 0xbe, 0x95, 0x32, 0x59, 0xbe, 0x41, 0xe3, 0xe8, 0xbd, 0x49, 0x5c, 0x03, 0xbe, 0xf6, 0xa4, 0xb7, 0xbc, 0x28, 0xc4, 0x36, 0xbd, 0x7d, 0x7b, 0x10, 0x3e, 0x39, 0x2a, 0x37, 0xbe, 0xc4, 0xd5, 0x8b, 0xbe, 0xc5, 0x3a, 0x78, 0x3e, 0x7c, 0xf9, 0x84, 0xbd, 0x0d, 0xee, 0x8f, 0xbe, 0xdd, 0x01, 0xa1, 0x3e, 0xea, 0xac, 0x35, 0x3e, 0xe8, 0x1d, 0xa1, 0x3e, 0x73, 0x73, 0x75, 0x3e, 0xc8, 0x56, 0xb7, 0x3e, 0x65, 0x5e, 0xa2, 0xbe, 0x94, 0xa0, 0x6a, 0xbe, 0xd9, 0x96, 0x3c, 0xbe, 0xaa, 0xe3, 0x44, 0xbe, 0x23, 0xb0, 0x92, 0x3e, 0x5d, 0xe7, 0x3d, 0xbe, 0x3d, 0x14, 0x5a, 0x3c, 0xe8, 0xe1, 0xb5, 0xbe, 0x8e, 0x6c, 0x2a, 0xbe, 0xe7, 0x21, 0xfb, 0x3c, 0xc8, 0xa3, 0x59, 0xbe, 0xd1, 0xf9, 0xba, 0xbc, 0x36, 0x32, 0xee, 0xbd, 0x39, 0xd0, 0x8f, 0xbe, 0xba, 0xc7, 0x03, 0x3e, 0xba, 0x53, 0xaa, 0xbd, 0x0c, 0x27, 0x57, 0x3e, 0x9c, 0x15, 0xad, 0x3e, 0xaf, 0xbd, 0x53, 0x3e, 0x83, 0xb4, 0x04, 0x3e, 0xbd, 0xaa, 0xec, 0x3c, 0x23, 0x6a, 0x44, 0x3e, 0x52, 0x49, 0x2a, 0xbe, 0x02, 0xbe, 0xe8, 0xbd, 0x10, 0x4a, 0xf6, 0x3d, 0x24, 0x5d, 0x5b, 0xbe, 0xc7, 0xaa, 0xa4, 0xbe, 0x7d, 0x9a, 0x07, 0xbe, 0x23, 0x4a, 0xc2, 0xbd, 0x52, 0x26, 0x64, 0x3d, 0x1c, 0x7d, 0x54, 0x3c, 0xf1, 0xce, 0xe9, 0x3d, 0x0c, 0xaf, 0x99, 0xbe, 0x7c, 0xde, 0x37, 0x3e, 0x3a, 0x99, 0x03, 0xbd, 0x63, 0x54, 0x91, 0xbd, 0x8d, 0x66, 0x99, 0x3e, 0x07, 0x07, 0x8f, 0xbe, 0x70, 0x25, 0x9a, 0x3e, 0xb8, 0x64, 0x9a, 0x3e, 0xbd, 0x59, 0xdc, 0x3d, 0x1d, 0x2f, 0x7c, 0x3d, 0x65, 0xfa, 0x21, 0x3e, 0xce, 0x5f, 0xad, 0xbd, 0x47, 0x0c, 0xaf, 0x3c, 0x7f, 0xc0, 0xc8, 0xbd, 0x14, 0xe9, 0xf6, 0xbd, 0xa7, 0x7b, 0x81, 0x3e, 0xc9, 0xda, 0x05, 0x3e, 0x01, 0x06, 0xdf, 0xbd, 0x98, 0x53, 0xfd, 0xbb, 0x80, 0x7a, 0x9a, 0x3e, 0x65, 0xe3, 0xff, 0x3d, 0x8c, 0x6f, 0xe7, 0xbd, 0xf9, 0x71, 0x09, 0x3d, 0x03, 0x2c, 0x9e, 0xbe, 0x75, 0xa4, 0x80, 0x3d, 0xda, 0xc4, 0x21, 0xbd, 0x36, 0x2f, 0x93, 0x3e, 0xf7, 0xb7, 0x2b, 0x3d, 0x2b, 0x54, 0xbb, 0x3e, 0x80, 0x8f, 0x4e, 0x3e, 0x99, 0xfa, 0x98, 0x3e, 0xd4, 0x6d, 0x89, 0x3d, 0x67, 0xa7, 0x99, 0xbd, 0x54, 0xb3, 0x45, 0x3e, 0x82, 0x25, 0x32, 0x3e, 0x5e, 0x1f, 0x82, 0x3c, 0x47, 0xb8, 0x5d, 0xbe, 0x5e, 0x2f, 0x2b, 0x3e, 0x4e, 0xcf, 0x69, 0xbd, 0xc2, 0xf8, 0x8f, 0xbe, 0x55, 0xbe, 0xf8, 0x3d, 0x53, 0x34, 0x02, 0x3e, 0x0e, 0x8f, 0x03, 0xbd, 0x7c, 0x30, 0xb9, 0x3d, 0xe5, 0xc9, 0xac, 0xbe, 0xb7, 0x82, 0xbb, 0xbe, 0xad, 0x25, 0x8a, 0x3e, 0xad, 0xdd, 0x45, 0xbe, 0xa9, 0x01, 0x9f, 0x3e, 0x85, 0x36, 0xc0, 0x3d, 0x0c, 0x18, 0xa9, 0x3e, 0x8d, 0x2f, 0x48, 0xbe, 0xa3, 0x2f, 0xa1, 0x3d, 0xb6, 0x57, 0x1f, 0x3e, 0x68, 0x9d, 0x4d, 0x3e, 0x82, 0xc0, 0x9e, 0x3e, 0x6d, 0xc4, 0xd4, 0xbd, 0xd1, 0x18, 0x12, 0x3e, 0x9e, 0xe3, 0xa6, 0xbe, 0x4c, 0xb9, 0x4e, 0xbd, 0xe9, 0x6c, 0x62, 0x3e, 0x67, 0x2c, 0x74, 0xbe, 0xd5, 0xd8, 0x22, 0x3e, 0x45, 0xfe, 0x30, 0x3e, 0x22, 0xc4, 0x50, 0xbe, 0xee, 0x08, 0x41, 0x3e, 0xda, 0x5f, 0x90, 0x3d, 0x09, 0x78, 0xbb, 0x3e, 0x72, 0x7d, 0x8a, 0xbe, 0x4b, 0xea, 0x2d, 0x3e, 0x50, 0x2a, 0x3f, 0x3d, 0xb9, 0x84, 0x86, 0x3e, 0x5a, 0xd6, 0xc7, 0x3a, 0xe4, 0x16, 0xb2, 0x3b, 0x54, 0x3f, 0x3e, 0xbd, 0x09, 0xe1, 0x37, 0xbe, 0xef, 0x91, 0x72, 0xbe, 0x17, 0x9c, 0x8b, 0x3e, 0x2f, 0x89, 0x49, 0x3d, 0x5c, 0x63, 0xaa, 0x3e, 0x4b, 0x62, 0x44, 0x3d, 0x5c, 0x83, 0x2d, 0x3d, 0x53, 0x31, 0x0c, 0xbe, 0xf9, 0xce, 0x68, 0xbe, 0x75, 0x7f, 0x5e, 0xbe, 0x6b, 0x93, 0x3c, 0x3e, 0x97, 0xb0, 0x93, 0xbe, 0x97, 0xb7, 0x26, 0xbe, 0xd9, 0xd5, 0x79, 0xbd, 0x31, 0x07, 0x93, 0x3e, 0x2a, 0x44, 0x17, 0xbe, 0xb2, 0x26, 0x48, 0xbd, 0xce, 0x78, 0xa2, 0xbe, 0xaa, 0xb3, 0x8e, 0xbe, 0x26, 0x0b, 0xfb, 0xbd, 0xfb, 0x9c, 0x64, 0xbe, 0x77, 0x35, 0xc6, 0xbd, 0x29, 0x41, 0x30, 0x3e, 0x2a, 0x1f, 0xbe, 0xbe, 0xd6, 0x9b, 0x84, 0x3e, 0x61, 0x7d, 0xa6, 0xbd, 0xb6, 0xbf, 0xf3, 0xbd, 0x31, 0x51, 0x44, 0xbe, 0x44, 0xcb, 0xbd, 0x3b, 0x1a, 0xc9, 0x67, 0x3e, 0xd0, 0x84, 0x5f, 0xbe, 0x4d, 0x2b, 0x57, 0xbe, 0x93, 0x5f, 0x9a, 0xbb, 0x2d, 0x2f, 0xe2, 0x3d, 0xba, 0xfe, 0x8a, 0xbd, 0x9d, 0xa7, 0x67, 0x3e, 0x4d, 0x05, 0x1e, 0xbe, 0xd1, 0xd5, 0x93, 0x3b, 0x05, 0xae, 0x28, 0xbe, 0x56, 0x6e, 0x8c, 0xbe, 0xa1, 0x85, 0x28, 0x3e, 0x3d, 0xe0, 0xf5, 0x3d, 0xac, 0x12, 0xd7, 0x3d, 0x34, 0x7b, 0x8b, 0xbe, 0x8f, 0x40, 0x0e, 0xbe, 0xb3, 0xe7, 0x46, 0x3e, 0xcc, 0x3b, 0x9f, 0x3e, 0x0c, 0xa9, 0x90, 0xbd, 0x50, 0x1f, 0x86, 0x3d, 0xfd, 0x20, 0x9f, 0xbe, 0xb2, 0x78, 0x63, 0x3e, 0xb6, 0xc1, 0x48, 0x3e, 0x98, 0x9e, 0x4a, 0x3e, 0xe2, 0x7b, 0x0a, 0x3c, 0x1c, 0x72, 0xc5, 0x3d, 0x6e, 0x7a, 0x59, 0xbe, 0xd3, 0xb5, 0x29, 0x3e, 0xef, 0x6d, 0x01, 0x3e, 0x67, 0x93, 0xa0, 0x3e, 0x68, 0x92, 0xe6, 0x3d, 0xa2, 0xb4, 0x8c, 0x3c, 0x54, 0x81, 0x80, 0x3e, 0xae, 0xf3, 0x0f, 0xbe, 0xe6, 0x47, 0xe6, 0xbc, 0xf0, 0x5b, 0x14, 0xbe, 0x35, 0xd3, 0x8e, 0x3e, 0x0e, 0x93, 0xa7, 0x3e, 0x86, 0x0d, 0xbb, 0x3e, 0x2b, 0xe1, 0x5d, 0xbd, 0xb6, 0x1b, 0x58, 0xbe, 0x53, 0x58, 0x85, 0x3d, 0x6b, 0x57, 0x77, 0x3d, 0x11, 0x57, 0x1a, 0xbd, 0x49, 0xc2, 0x85, 0xbe, 0x8e, 0xc6, 0x43, 0x3e, 0x09, 0x47, 0x9e, 0xbe, 0xd1, 0x96, 0xd5, 0xbc, 0x77, 0x5f, 0x39, 0xbe, 0x2c, 0x5b, 0xc9, 0xbe, 0xbc, 0xb4, 0x49, 0xbe, 0x5b, 0x08, 0xb6, 0xbc, 0xf6, 0xdd, 0x1d, 0x3c, 0xc7, 0xf8, 0x64, 0x3e, 0x0c, 0xd1, 0x22, 0x3e, 0xfa, 0x6a, 0xcf, 0xbd, 0x28, 0x0e, 0x97, 0xbe, 0x5f, 0xcb, 0x82, 0xbd, 0xc3, 0xbc, 0xe9, 0xbd, 0xee, 0x12, 0xe1, 0xbd, 0x7b, 0x41, 0x1f, 0x3d, 0x2b, 0x59, 0x71, 0xbe, 0xaa, 0x3f, 0x94, 0xbd, 0x82, 0xde, 0x14, 0x3e, 0x37, 0xe8, 0xa6, 0xbe, 0xcb, 0x70, 0x43, 0x3e, 0xe3, 0xf6, 0x94, 0x3d, 0x0d, 0x87, 0xd8, 0xbd, 0xec, 0x0f, 0x44, 0x3d, 0x64, 0xce, 0x63, 0xbe, 0xe2, 0xa0, 0x08, 0x3e, 0xd4, 0xa5, 0x32, 0xbe, 0x65, 0x3c, 0x10, 0xbe, 0x5d, 0xe9, 0xbe, 0x3e, 0x2c, 0xf6, 0xe1, 0x3d, 0xdb, 0x9d, 0x90, 0xbe, 0x1b, 0x56, 0x81, 0xbd, 0x90, 0x67, 0x27, 0xbd, 0x7c, 0x23, 0x1e, 0x3e, 0x64, 0x02, 0x00, 0xbe, 0xf2, 0x91, 0x47, 0x3d, 0xc5, 0x21, 0x48, 0xbe, 0xab, 0x2e, 0x5a, 0xbe, 0x90, 0x22, 0x8b, 0xbc, 0x9f, 0x7b, 0x55, 0x3c, 0x01, 0xe1, 0xaa, 0x3e, 0x27, 0x9d, 0x08, 0x3a, 0xbe, 0x75, 0xbf, 0xbd, 0x19, 0x62, 0x13, 0xbe, 0x28, 0x68, 0x8f, 0xbe, 0xc4, 0x3b, 0x30, 0x3e, 0x40, 0x20, 0xde, 0xbb, 0x7c, 0xcc, 0x8c, 0x3e, 0x01, 0x41, 0x48, 0x3e, 0xa4, 0xb7, 0xae, 0x3e, 0x6a, 0x49, 0x8d, 0x3e, 0xe4, 0x09, 0x23, 0xbc, 0x0f, 0x25, 0x53, 0xbd, 0x7c, 0x90, 0xd4, 0x3d, 0xc1, 0xc2, 0x8b, 0x3e, 0x93, 0xfc, 0x8f, 0xbd, 0x68, 0xbd, 0x45, 0xbe, 0x5a, 0xee, 0xff, 0xff, 0x04, 0x00, 0x00, 0x00, 0x00, 0x10, 0x00, 0x00, 0xd4, 0x30, 0x92, 0x3d, 0xa5, 0x3f, 0x93, 0x3b, 0x95, 0x17, 0x4f, 0x3e, 0xec, 0xb8, 0xbd, 0x3e, 0xe3, 0xd0, 0x4e, 0xbe, 0xa0, 0x29, 0x15, 0x3e, 0x78, 0xa3, 0x67, 0x3d, 0xc0, 0xbc, 0x01, 0x3d, 0xf0, 0xc8, 0x0b, 0x3e, 0x6f, 0xba, 0xc1, 0x3e, 0x2b, 0x7f, 0xc2, 0x3e, 0xd3, 0xc5, 0x8f, 0x3e, 0x52, 0x08, 0x3c, 0x3b, 0xbb, 0xd0, 0xa1, 0xbd, 0x01, 0x7e, 0x87, 0x3e, 0xf5, 0x4e, 0x10, 0x3c, 0x81, 0x01, 0x8d, 0x3e, 0x58, 0x70, 0xbd, 0x3c, 0x53, 0xd1, 0xa6, 0xbd, 0x96, 0xf9, 0x68, 0xbe, 0xfc, 0xba, 0xee, 0x3c, 0xa0, 0x5f, 0x90, 0x3e, 0xc0, 0x18, 0x03, 0xbc, 0xaa, 0xbd, 0x9b, 0xbe, 0xc6, 0x33, 0x83, 0x3b, 0x60, 0x1b, 0x14, 0xbe, 0xd9, 0x41, 0x23, 0xbc, 0x5f, 0xaa, 0x84, 0xbe, 0x11, 0x1c, 0xae, 0xbc, 0x90, 0x34, 0x56, 0xbe, 0xd6, 0x0d, 0x24, 0x3e, 0xa3, 0xcd, 0x47, 0x3d, 0xdb, 0x4e, 0x78, 0x3c, 0x0d, 0x7c, 0x27, 0xbe, 0xee, 0x4e, 0x99, 0x3e, 0xe6, 0xbb, 0x9b, 0x3e, 0x06, 0xa8, 0x76, 0xbd, 0x7c, 0x9b, 0x47, 0xbd, 0x24, 0x70, 0x76, 0x3e, 0xe1, 0x96, 0x2f, 0xbb, 0x39, 0xe2, 0x78, 0xbe, 0x61, 0xa1, 0x83, 0x3c, 0xc0, 0xf4, 0x87, 0xbe, 0xa5, 0x8e, 0xe7, 0x3d, 0x90, 0xef, 0xa3, 0xbd, 0xc8, 0x7a, 0xa7, 0x3e, 0xe0, 0xb3, 0x50, 0xbd, 0x1d, 0x20, 0x57, 0x3e, 0xe5, 0xc2, 0x68, 0xbc, 0xd2, 0xa4, 0x28, 0xbe, 0x2a, 0xab, 0xfe, 0x3d, 0xd0, 0x3c, 0xb5, 0x3e, 0x26, 0x08, 0x3f, 0xbe, 0x8a, 0xa7, 0x01, 0x3e, 0xe7, 0x20, 0xc0, 0x3e, 0x68, 0x42, 0x1f, 0xbe, 0x71, 0x11, 0xe5, 0xbd, 0xf6, 0xee, 0x68, 0x3e, 0xda, 0xda, 0xb7, 0x3e, 0xc2, 0x8e, 0xca, 0xbd, 0x67, 0xd3, 0xf5, 0xbd, 0x0c, 0x96, 0x33, 0x3e, 0x2a, 0xc8, 0xae, 0xbd, 0xdb, 0x2b, 0x28, 0x3d, 0x37, 0x34, 0x90, 0x3e, 0xf4, 0xf8, 0x85, 0xbd, 0xb6, 0x17, 0x48, 0x3e, 0x92, 0x98, 0x24, 0xbd, 0x4c, 0xfa, 0x2a, 0xbe, 0xf1, 0x46, 0xb7, 0xbd, 0x13, 0xda, 0x11, 0xbd, 0xdd, 0x4c, 0x95, 0xbe, 0x1d, 0xf9, 0x03, 0xbe, 0x87, 0x87, 0x44, 0x3e, 0x17, 0x60, 0x3e, 0x3e, 0x0f, 0x75, 0x3a, 0xbe, 0x10, 0x9f, 0x58, 0xbe, 0xdd, 0xb3, 0xa0, 0xbd, 0x16, 0x69, 0xab, 0x3e, 0x58, 0xa3, 0x62, 0x3e, 0x53, 0xc9, 0x63, 0x3d, 0x9c, 0xc7, 0x42, 0xbd, 0xec, 0x59, 0x81, 0xbe, 0x89, 0x6c, 0x57, 0x3e, 0xd7, 0xbe, 0x35, 0x3e, 0xeb, 0xaa, 0xe1, 0x3d, 0x81, 0x04, 0x32, 0xbb, 0x73, 0x84, 0x66, 0xbe, 0xe6, 0xdb, 0x41, 0x3e, 0x86, 0x7d, 0x0a, 0xbe, 0xf3, 0x68, 0x30, 0xbe, 0x97, 0xf3, 0xa2, 0xbd, 0xe5, 0xf1, 0x59, 0x3e, 0x83, 0x85, 0x46, 0xbd, 0x95, 0x53, 0x27, 0x3e, 0xf7, 0xe9, 0x83, 0xbe, 0x21, 0xa2, 0x14, 0x3e, 0x4c, 0xf9, 0x45, 0xbd, 0x4a, 0xc1, 0xb1, 0x3e, 0x45, 0x2d, 0x35, 0xbe, 0x38, 0x0a, 0xf9, 0x3d, 0xd6, 0x33, 0x33, 0x3c, 0xef, 0x41, 0x3a, 0xbc, 0xd7, 0x63, 0x45, 0xbe, 0x58, 0x3f, 0x4b, 0x3e, 0x98, 0x79, 0xa8, 0xbe, 0xfc, 0x17, 0xbf, 0xbd, 0xa7, 0xc5, 0x2f, 0x3e, 0x7b, 0x16, 0x8b, 0x3e, 0xdc, 0x07, 0x54, 0x3d, 0x3b, 0x6b, 0xb1, 0xbd, 0xc1, 0x14, 0x20, 0x3e, 0xa2, 0x7c, 0x6f, 0xbe, 0x62, 0x8a, 0x18, 0xbd, 0xb3, 0x82, 0xa6, 0xbc, 0x0d, 0x7f, 0xd2, 0xbc, 0x54, 0x6d, 0xf7, 0x3d, 0xa2, 0x96, 0x0c, 0x3d, 0xc8, 0x64, 0x88, 0xbe, 0x39, 0x03, 0x42, 0xbe, 0xb0, 0x9f, 0x77, 0xbd, 0x06, 0x0f, 0x1f, 0x3e, 0xb9, 0x60, 0x91, 0x3e, 0x2b, 0x32, 0x47, 0x3e, 0x15, 0x30, 0x6a, 0xbe, 0xd0, 0x4b, 0x09, 0xbe, 0x6e, 0x7e, 0x1b, 0xbd, 0xd8, 0x6f, 0x3e, 0xbe, 0x4c, 0x4c, 0x59, 0x3e, 0xb0, 0xfb, 0x75, 0xbe, 0x14, 0x44, 0xf1, 0x3d, 0xa8, 0x40, 0x9e, 0xbe, 0x8a, 0xb2, 0xa5, 0x3c, 0xf4, 0xe6, 0x86, 0x3e, 0x12, 0xe4, 0x06, 0xbd, 0x82, 0x21, 0x8a, 0xbe, 0x47, 0x2c, 0x63, 0x3e, 0x0a, 0x26, 0x8d, 0x3d, 0x06, 0xa4, 0x11, 0x3e, 0xc6, 0x15, 0xc9, 0x3d, 0xc9, 0x42, 0x2c, 0x3c, 0xfd, 0x19, 0x51, 0xbd, 0x22, 0xc7, 0xe0, 0x3d, 0xf2, 0x3f, 0xa3, 0x3b, 0xe3, 0x90, 0xee, 0x3c, 0x4d, 0xd7, 0x81, 0xbe, 0xa2, 0xde, 0xf5, 0xbd, 0xba, 0xa0, 0x9d, 0x3e, 0xe3, 0x89, 0x33, 0xbe, 0xed, 0x56, 0xaf, 0xbd, 0x60, 0x9a, 0x52, 0x3e, 0x45, 0x01, 0x80, 0xbd, 0x82, 0x1e, 0x65, 0x3e, 0x6d, 0xe0, 0x01, 0x3b, 0x55, 0x1e, 0xf3, 0x3d, 0xe3, 0x22, 0x5b, 0xbe, 0x95, 0xe4, 0x94, 0x3c, 0x3e, 0xe8, 0x41, 0xbe, 0xa2, 0xaa, 0x9c, 0x3e, 0xa9, 0xa6, 0x30, 0xbe, 0x8f, 0xc8, 0xda, 0xbb, 0x0d, 0x30, 0xfc, 0xbd, 0x5f, 0xda, 0xac, 0xbd, 0x03, 0x8c, 0x87, 0x3e, 0xf8, 0xa1, 0xa0, 0xbd, 0x55, 0x45, 0x94, 0xbe, 0xca, 0xc4, 0x7e, 0x3e, 0x93, 0x6d, 0x49, 0x3e, 0x70, 0xc8, 0x42, 0x3e, 0x92, 0x2f, 0x6a, 0xbe, 0x47, 0xf8, 0x05, 0x3e, 0xc4, 0x34, 0x8e, 0x3e, 0x20, 0x35, 0x76, 0x3e, 0xea, 0xec, 0xaf, 0x3d, 0x36, 0x9e, 0x6b, 0xbc, 0x36, 0x50, 0xa1, 0x3e, 0x37, 0x8d, 0x78, 0xbe, 0x52, 0xe5, 0x71, 0xbe, 0xc7, 0xb5, 0xba, 0xbd, 0x09, 0x6a, 0x4f, 0x3d, 0xd0, 0xba, 0x85, 0xbe, 0x50, 0xce, 0x66, 0xbe, 0x03, 0xcf, 0x23, 0x3c, 0xb1, 0x91, 0x08, 0x3e, 0x3f, 0x37, 0x49, 0xbe, 0xca, 0x16, 0xc5, 0x3d, 0x2a, 0x07, 0x26, 0x3d, 0x08, 0xa2, 0x2a, 0x3e, 0x92, 0xae, 0x1b, 0x3e, 0xbf, 0xbc, 0xb1, 0x3d, 0x35, 0xbd, 0x4f, 0xbd, 0x5f, 0xe9, 0x29, 0x3e, 0x97, 0x19, 0x6c, 0x3e, 0xf6, 0x72, 0xa9, 0xbd, 0x89, 0x48, 0x93, 0x3e, 0xe3, 0xa7, 0x28, 0x3e, 0x5b, 0xd6, 0x9e, 0xbe, 0x26, 0x31, 0x09, 0x3e, 0xcb, 0x68, 0xb1, 0x3b, 0xf4, 0x10, 0x94, 0xbe, 0x4d, 0x5e, 0x83, 0xbe, 0x7b, 0xa7, 0x46, 0xbe, 0x7d, 0x42, 0xe5, 0x3c, 0x37, 0xb5, 0x39, 0x3d, 0x10, 0x42, 0x01, 0x3e, 0xb5, 0x99, 0x8d, 0xbd, 0x73, 0x3a, 0x05, 0x3b, 0x0c, 0x53, 0x5e, 0x3e, 0x18, 0x69, 0xce, 0xbc, 0x32, 0xf7, 0x44, 0x3d, 0x90, 0x48, 0x7b, 0xbd, 0x24, 0x89, 0x79, 0x3e, 0x32, 0xea, 0x05, 0x3c, 0xc6, 0x8f, 0x61, 0xbd, 0x1a, 0x8e, 0xc4, 0x3d, 0x4a, 0xd4, 0x3e, 0xbd, 0xe1, 0x8c, 0x04, 0x3e, 0x00, 0xe2, 0xac, 0x3e, 0xc5, 0x36, 0xe5, 0x3d, 0xb5, 0x2c, 0x78, 0xbe, 0x17, 0x62, 0x9f, 0x3e, 0x8d, 0x48, 0x4d, 0x3d, 0x00, 0xa9, 0x2b, 0xbe, 0xfc, 0x35, 0xb9, 0xbd, 0xa1, 0x5e, 0x2d, 0xbc, 0x69, 0x37, 0xb8, 0x3e, 0xc4, 0x5e, 0x2a, 0xbe, 0x13, 0x6d, 0xca, 0x3c, 0xc8, 0x86, 0x3e, 0xbb, 0x1f, 0x88, 0x7c, 0x3d, 0x22, 0x85, 0x80, 0x3d, 0xe8, 0x29, 0xc3, 0x3d, 0xc0, 0xf1, 0xc5, 0x3d, 0x5b, 0x2d, 0x90, 0x3d, 0x7c, 0xd9, 0x2d, 0xbe, 0xb6, 0xbd, 0x03, 0xbe, 0xa4, 0x5d, 0xcd, 0x3d, 0xe3, 0x4b, 0x8e, 0xbc, 0x22, 0x7b, 0x17, 0xbd, 0x98, 0x27, 0x62, 0x3e, 0x5c, 0x64, 0x39, 0x3e, 0xf2, 0x39, 0x06, 0x3e, 0xfd, 0x08, 0x64, 0xbd, 0xe4, 0x46, 0x94, 0xbd, 0xbc, 0x8b, 0xfd, 0x3c, 0xa0, 0xa7, 0x83, 0x3d, 0x5b, 0xd0, 0xd6, 0xbc, 0xe7, 0x45, 0xa7, 0xbc, 0x46, 0xbe, 0x88, 0xbd, 0x9c, 0x45, 0x13, 0xbe, 0x92, 0x4f, 0x81, 0x3c, 0x08, 0xb5, 0x84, 0xbe, 0xc0, 0xb4, 0x89, 0x3e, 0x7c, 0xe2, 0x3c, 0x3d, 0x29, 0x89, 0xb5, 0x3e, 0x41, 0xc0, 0xa1, 0x3e, 0x0c, 0xd8, 0x60, 0x3e, 0x5d, 0x24, 0x70, 0x3e, 0xab, 0xf1, 0x7e, 0xbe, 0xc0, 0x37, 0x4c, 0xbe, 0x76, 0xdd, 0x90, 0x3e, 0xd4, 0x63, 0x90, 0xbd, 0x6f, 0x4e, 0x1c, 0x3c, 0x0f, 0xe3, 0xf3, 0x3d, 0x2f, 0x42, 0x4f, 0x3e, 0x5f, 0x8c, 0xe4, 0x3d, 0x5e, 0x8f, 0x01, 0x3e, 0x8a, 0xd5, 0x2c, 0x3e, 0x86, 0x55, 0x90, 0x3e, 0xe3, 0xb2, 0x46, 0xbd, 0x28, 0xf8, 0x12, 0xbe, 0xb0, 0xe0, 0x7e, 0x3b, 0xd0, 0xe0, 0x74, 0x3e, 0xe5, 0x9b, 0x1f, 0x3d, 0xae, 0x84, 0x99, 0xbc, 0xc7, 0x55, 0x22, 0x3e, 0x77, 0xbd, 0xa8, 0x3c, 0x18, 0xfc, 0xd6, 0xbd, 0x12, 0x36, 0x1c, 0xbe, 0xc9, 0x23, 0x53, 0xbe, 0x4c, 0x6a, 0x8b, 0x3d, 0xda, 0xa7, 0x35, 0x3d, 0xc9, 0x2c, 0xd3, 0xbd, 0xb8, 0x1a, 0xc4, 0x3d, 0x74, 0x63, 0x2d, 0x3e, 0x6f, 0xe2, 0xa0, 0xbe, 0xc4, 0x20, 0x1b, 0x3d, 0xaa, 0x49, 0x80, 0x3e, 0x31, 0x84, 0x64, 0xbe, 0xfe, 0xc6, 0x1b, 0x3e, 0x99, 0x35, 0x5a, 0xbd, 0xda, 0x74, 0x23, 0x3d, 0xa9, 0xcb, 0xcb, 0x3e, 0x0c, 0xe4, 0x26, 0xbe, 0x39, 0xdf, 0x3f, 0x3e, 0x42, 0x29, 0x8a, 0x3e, 0x2d, 0x3c, 0x8e, 0xbd, 0x6b, 0x30, 0x01, 0x3c, 0xeb, 0x8c, 0x10, 0xbe, 0x32, 0xbf, 0x0d, 0x3e, 0xb2, 0xa9, 0xfb, 0x3d, 0x70, 0x25, 0x12, 0x3e, 0x1f, 0x40, 0xae, 0x3d, 0x62, 0x8f, 0xa2, 0x3e, 0x56, 0xbb, 0x5c, 0x3d, 0xed, 0x96, 0x1d, 0x3e, 0xe6, 0x58, 0xc7, 0xbd, 0x61, 0xb0, 0x6e, 0x3e, 0x57, 0xfd, 0xb3, 0xbd, 0x8e, 0x59, 0x9b, 0x3e, 0x4e, 0xbf, 0xa5, 0x3c, 0x00, 0x2a, 0x48, 0xbe, 0xc9, 0x67, 0xc6, 0x3e, 0x79, 0xd9, 0xe2, 0xbd, 0xfe, 0x14, 0x37, 0x3e, 0x19, 0x38, 0x29, 0x3e, 0xee, 0xf6, 0x36, 0xbe, 0x35, 0xd7, 0x07, 0xbe, 0x94, 0x38, 0x97, 0xbe, 0x96, 0x9d, 0xb2, 0xbd, 0xf2, 0x50, 0x34, 0x3e, 0xa8, 0xa8, 0x1e, 0xbe, 0x98, 0xa6, 0x94, 0xbe, 0xda, 0x53, 0x39, 0x3e, 0x14, 0x2d, 0x82, 0xbe, 0xdc, 0x77, 0x66, 0xbe, 0x23, 0x69, 0x4a, 0xbe, 0xc0, 0x33, 0xaf, 0xbc, 0x53, 0xa3, 0x6f, 0xbe, 0xbc, 0xf8, 0x24, 0x3e, 0xa3, 0xda, 0xe6, 0xbd, 0xfc, 0xde, 0xdc, 0x3b, 0x22, 0x8a, 0xad, 0xbd, 0x9a, 0xb9, 0xf8, 0xbd, 0x40, 0x56, 0xb8, 0xbc, 0x25, 0xf1, 0xa0, 0x3c, 0x80, 0x6e, 0x3d, 0x3e, 0x15, 0x38, 0xdb, 0xbc, 0x19, 0x7e, 0x7b, 0xbe, 0x53, 0x71, 0x1a, 0x3d, 0x21, 0x88, 0xba, 0xbd, 0x23, 0x9f, 0xd4, 0xbd, 0x67, 0xff, 0xcd, 0x3d, 0x42, 0x58, 0x60, 0x3e, 0x56, 0x40, 0x5f, 0xbe, 0x05, 0x38, 0xf4, 0xbc, 0x6f, 0x17, 0x51, 0xbe, 0x63, 0x9d, 0x4a, 0xbe, 0xad, 0x26, 0x35, 0x3e, 0xfb, 0x96, 0x13, 0xbd, 0x2b, 0x7f, 0x13, 0xbe, 0x34, 0xd1, 0x61, 0x3e, 0xa4, 0xde, 0x17, 0x3e, 0xe0, 0x9b, 0x2f, 0xbe, 0x35, 0x44, 0x83, 0x3e, 0x3b, 0x6c, 0x73, 0x3e, 0xbc, 0x60, 0xbe, 0xbc, 0x12, 0xd8, 0x28, 0xbe, 0xe8, 0xe8, 0xf2, 0x3d, 0x8b, 0xc6, 0x0b, 0xbe, 0xbb, 0x1f, 0x9c, 0xbd, 0xed, 0x45, 0x1b, 0x3d, 0x67, 0xe2, 0x20, 0xbd, 0x67, 0x66, 0x04, 0xbe, 0x73, 0x75, 0x92, 0x3c, 0x6c, 0xb8, 0x1f, 0xbe, 0xcc, 0x02, 0x9d, 0x3d, 0xa2, 0x9b, 0xfb, 0xbd, 0x62, 0x62, 0x35, 0xbd, 0xad, 0xc3, 0xe3, 0xbb, 0x5f, 0xa8, 0x47, 0xbe, 0xa4, 0x15, 0xdd, 0xbd, 0x32, 0x34, 0x50, 0xbe, 0x10, 0x5a, 0xdc, 0x3c, 0x7e, 0x30, 0x1b, 0xbd, 0x69, 0x83, 0x6b, 0xbe, 0xb9, 0xb0, 0x13, 0xbe, 0x86, 0x82, 0x4b, 0x3e, 0xce, 0x2b, 0x4c, 0x3e, 0x3a, 0x2c, 0x1c, 0xbe, 0x91, 0xc8, 0xae, 0xbc, 0xd7, 0xce, 0x24, 0x3e, 0xac, 0x04, 0xbf, 0xba, 0xdf, 0x1f, 0x95, 0xbe, 0xb3, 0x26, 0x18, 0xbe, 0xda, 0x67, 0x6d, 0xbe, 0x0b, 0x59, 0x95, 0xbd, 0x55, 0x59, 0x33, 0xbc, 0x2d, 0x41, 0x7d, 0xbe, 0x20, 0xa6, 0x94, 0x3e, 0xb0, 0xfb, 0x17, 0xbe, 0x62, 0x7e, 0xad, 0xbd, 0x73, 0x8f, 0x8c, 0xbc, 0xf3, 0xd5, 0x86, 0xbd, 0xa4, 0xeb, 0x33, 0x3e, 0x36, 0x28, 0x39, 0xbd, 0xa3, 0xf4, 0x86, 0x3e, 0x7a, 0x15, 0x1f, 0x3e, 0x82, 0xcd, 0x5b, 0x3e, 0xb2, 0x4e, 0xa3, 0x3e, 0xf3, 0xb4, 0x2a, 0xbe, 0x0d, 0x02, 0xd6, 0x3d, 0x44, 0x09, 0x61, 0x3e, 0x39, 0x2e, 0xb5, 0x3d, 0x74, 0x8a, 0x69, 0xbd, 0x60, 0x70, 0xa2, 0xbb, 0xd4, 0x52, 0x8e, 0x3e, 0x90, 0xdb, 0x8f, 0x3c, 0x1d, 0x74, 0x8c, 0x3d, 0xf2, 0x61, 0x01, 0xbe, 0x94, 0x63, 0x93, 0xbd, 0x44, 0x31, 0xc2, 0x3d, 0x4c, 0x32, 0xac, 0x3e, 0x89, 0x3a, 0xbe, 0x3e, 0xd7, 0x95, 0x87, 0x3e, 0x05, 0xbc, 0xd4, 0xbd, 0x0b, 0x95, 0x2a, 0x3d, 0xba, 0x79, 0x8f, 0xbc, 0x95, 0x78, 0xeb, 0xbd, 0xb0, 0xa9, 0x28, 0x3e, 0xf3, 0x27, 0x8d, 0x3c, 0x9f, 0xcb, 0x7f, 0x3d, 0x78, 0xf2, 0x01, 0x3e, 0xa0, 0xa9, 0x60, 0x3e, 0xf6, 0xf3, 0x2c, 0xbd, 0xb0, 0x05, 0x3c, 0x3e, 0x62, 0x66, 0x86, 0xbe, 0x6e, 0xcf, 0x80, 0x3e, 0x92, 0xc6, 0xc1, 0xbd, 0xc0, 0x74, 0xfd, 0xbd, 0x66, 0x47, 0xe0, 0xba, 0x8c, 0x4e, 0xb5, 0xbd, 0xce, 0x69, 0x9a, 0x3e, 0xcc, 0xbe, 0x82, 0xbc, 0xb0, 0xce, 0x42, 0x3e, 0xb2, 0x6c, 0x04, 0xbe, 0x1d, 0xb4, 0xae, 0x3c, 0xe6, 0x8e, 0xfd, 0xbd, 0x20, 0x06, 0xb3, 0x3c, 0x15, 0x60, 0x0d, 0xbe, 0x3f, 0x9e, 0x79, 0xbe, 0xfe, 0x47, 0x72, 0x3e, 0xa8, 0x66, 0x49, 0xbe, 0xa4, 0xcb, 0xf9, 0x3d, 0xc2, 0xa2, 0x72, 0xbe, 0x9a, 0xd6, 0x09, 0xbe, 0x91, 0x1b, 0x6c, 0x3e, 0x4b, 0xdf, 0xa4, 0x3e, 0x65, 0xce, 0xeb, 0xbd, 0x28, 0x1c, 0x69, 0x3e, 0xde, 0xf0, 0xcb, 0x3d, 0x86, 0x6e, 0x9c, 0x3e, 0xe7, 0xe6, 0x89, 0xbe, 0xca, 0x5c, 0x92, 0xbc, 0xfb, 0xb2, 0x3f, 0xbe, 0x46, 0x18, 0xca, 0x3d, 0xa7, 0xff, 0x5c, 0x3e, 0xd1, 0xaf, 0xa4, 0x3e, 0xc5, 0x44, 0xa4, 0x3e, 0x9e, 0x8a, 0xd2, 0xbc, 0xb8, 0x3a, 0xba, 0x3d, 0x98, 0xbe, 0x26, 0x3e, 0x49, 0xa5, 0x3b, 0x3e, 0xe3, 0x6c, 0x35, 0xbe, 0x19, 0x7c, 0x88, 0x3e, 0x8e, 0x48, 0x98, 0xbe, 0xa8, 0xfe, 0x33, 0xbd, 0x63, 0xd7, 0x4b, 0x3e, 0xc5, 0x77, 0xbd, 0xbd, 0xe8, 0x38, 0x8c, 0x3c, 0x9c, 0xfa, 0x57, 0x3d, 0x45, 0x12, 0x0b, 0xbc, 0x4c, 0x53, 0x77, 0xb9, 0x2c, 0xfc, 0x85, 0xbd, 0x9d, 0xe0, 0x29, 0xbd, 0xb2, 0xc2, 0xab, 0xbd, 0xd2, 0xf7, 0x9d, 0x3d, 0xc3, 0x5c, 0xf3, 0x3d, 0x64, 0x23, 0x47, 0x3e, 0xeb, 0x28, 0x7b, 0x3e, 0x26, 0x76, 0xb7, 0x3d, 0x20, 0xd4, 0x44, 0x3e, 0xef, 0x22, 0xfc, 0xbc, 0x12, 0xa6, 0xc1, 0xbd, 0xff, 0x57, 0x7f, 0x3c, 0x57, 0x67, 0x87, 0x3e, 0xec, 0x9d, 0x2b, 0xbe, 0xbe, 0xc3, 0x67, 0xbd, 0xcb, 0x92, 0x2c, 0x3d, 0x56, 0x35, 0xf9, 0x3d, 0x0c, 0xf1, 0xb0, 0xbc, 0xd1, 0x53, 0xa6, 0xbe, 0x27, 0xc2, 0x3a, 0x3d, 0x84, 0x1d, 0x07, 0x3e, 0xc1, 0xda, 0x67, 0x3e, 0x02, 0x72, 0xbf, 0xbd, 0x63, 0x75, 0x64, 0xbe, 0x6c, 0xc8, 0x31, 0xbe, 0xef, 0x10, 0x6d, 0x3e, 0xe6, 0xdc, 0x39, 0x3c, 0x69, 0x87, 0x86, 0x3c, 0x35, 0x89, 0x6f, 0x3e, 0x55, 0x8b, 0xac, 0x3e, 0x94, 0xa4, 0x4d, 0x3e, 0x0a, 0x52, 0x32, 0xbc, 0xad, 0xc5, 0x97, 0xbe, 0x14, 0x80, 0x84, 0x3e, 0x0b, 0xee, 0x0c, 0x3e, 0x22, 0xf8, 0x16, 0xbd, 0xb6, 0x4e, 0xd9, 0x3c, 0x15, 0x6b, 0x96, 0xbe, 0x4f, 0x68, 0xb1, 0x3e, 0x78, 0xad, 0x59, 0x3e, 0x9e, 0xcc, 0xab, 0xbd, 0xb3, 0xe0, 0x42, 0xbe, 0x28, 0x5f, 0xb7, 0x3d, 0xa0, 0xc8, 0x3d, 0x3e, 0x69, 0x94, 0x04, 0x3e, 0x6e, 0x32, 0x63, 0xbe, 0x05, 0x5c, 0x3d, 0xbe, 0x61, 0xc6, 0x3b, 0xbc, 0x6d, 0x5d, 0x28, 0xbd, 0x7d, 0x30, 0x0f, 0xbd, 0x76, 0xc2, 0xa5, 0xbd, 0x57, 0xec, 0x07, 0xbe, 0x7f, 0x3a, 0x5f, 0x3e, 0xa7, 0x4f, 0x93, 0x3e, 0x1a, 0xb9, 0xa7, 0xbe, 0xe0, 0xd8, 0xe2, 0xbd, 0xca, 0x15, 0xd5, 0xbd, 0xd2, 0x1d, 0x72, 0xbd, 0xc2, 0x8e, 0x25, 0x3e, 0x39, 0x64, 0xc9, 0x3d, 0xb5, 0x60, 0x78, 0xbe, 0x1b, 0x7f, 0xec, 0x3d, 0x5c, 0xb7, 0xf3, 0x3c, 0x7f, 0x16, 0x37, 0x3d, 0x48, 0xc6, 0x4a, 0xbe, 0xb4, 0x34, 0x61, 0xbe, 0x10, 0x83, 0x4b, 0xbe, 0x27, 0xd5, 0xc8, 0xbc, 0x42, 0xbe, 0x9b, 0xbd, 0x53, 0x8e, 0x12, 0x3e, 0xd3, 0xbb, 0xa6, 0xbe, 0x8d, 0xe8, 0xd5, 0x3d, 0x5b, 0x25, 0x28, 0xbd, 0x0f, 0xeb, 0x58, 0x3e, 0x8d, 0x35, 0x82, 0x3e, 0x67, 0x77, 0x95, 0xbd, 0x4f, 0x05, 0xc5, 0xbd, 0xb5, 0xca, 0xa0, 0xbc, 0x28, 0x6e, 0x2f, 0x3c, 0x5e, 0x90, 0x56, 0xbc, 0x35, 0xe9, 0xe2, 0x3d, 0xb2, 0xf6, 0x86, 0xbd, 0x0e, 0x48, 0x3b, 0xbe, 0x56, 0x31, 0xc9, 0x3d, 0x46, 0xf0, 0x39, 0xbe, 0x7b, 0x2f, 0x96, 0x3d, 0xc5, 0x01, 0xea, 0x3d, 0x75, 0x4d, 0x57, 0x3e, 0xb8, 0x81, 0xf1, 0x3c, 0x6d, 0xd6, 0xdc, 0x3d, 0xc2, 0x30, 0x6c, 0x3e, 0xb7, 0xd4, 0x1b, 0xbe, 0xf0, 0xfa, 0x16, 0x3e, 0x6c, 0x18, 0x42, 0x3e, 0x88, 0xa7, 0x25, 0xbe, 0x86, 0x9e, 0x19, 0x3e, 0x97, 0x86, 0x84, 0xbe, 0x23, 0xf9, 0xe8, 0x3d, 0x57, 0x82, 0x1e, 0x3e, 0x97, 0x9e, 0x4b, 0x3e, 0xf1, 0x57, 0x2c, 0x3d, 0x9c, 0xec, 0x2a, 0x3d, 0xc1, 0xbc, 0x71, 0xbd, 0xb3, 0xed, 0x23, 0x3e, 0x72, 0x07, 0x0c, 0xbe, 0xf2, 0xa1, 0x6a, 0xbd, 0x6c, 0x1d, 0x97, 0xbe, 0x22, 0xf2, 0xe1, 0xbd, 0x3d, 0xc2, 0xaf, 0xbd, 0x33, 0x21, 0x66, 0xbe, 0xdd, 0x36, 0x51, 0x3e, 0xcb, 0xe9, 0xd5, 0xbd, 0x89, 0x78, 0x09, 0x3e, 0xb9, 0xb7, 0x81, 0xbe, 0x4c, 0x93, 0x17, 0x3e, 0xce, 0x16, 0x27, 0x3e, 0x3d, 0xc4, 0x88, 0xbb, 0x08, 0x43, 0x3f, 0xbe, 0x70, 0xa2, 0xb7, 0x3d, 0xd4, 0x74, 0x9b, 0x3d, 0x2e, 0xb0, 0x9d, 0xbe, 0x6a, 0x5b, 0x94, 0xbe, 0xf7, 0x6b, 0x19, 0xbe, 0x7c, 0x34, 0x3e, 0x3d, 0x70, 0x51, 0xc4, 0xbd, 0x6b, 0x3f, 0x4c, 0xbe, 0xbe, 0x94, 0x3e, 0xbe, 0xce, 0xd4, 0x72, 0xbd, 0x16, 0x6c, 0x8f, 0xbd, 0x14, 0x5f, 0x07, 0x3e, 0xe3, 0x69, 0x2f, 0x3e, 0xcd, 0x25, 0x5b, 0x3d, 0x78, 0x69, 0x60, 0xbe, 0xd8, 0xc8, 0xdc, 0x3d, 0x3b, 0xe0, 0x4a, 0x3e, 0x26, 0x8e, 0x0b, 0xbe, 0x1d, 0xd8, 0x38, 0x3e, 0x5b, 0x2c, 0xcd, 0x3d, 0xc8, 0x9e, 0x3b, 0x3e, 0x19, 0xd1, 0x5d, 0xbc, 0x48, 0xfb, 0xc9, 0xbc, 0x52, 0x03, 0x38, 0xbd, 0x3a, 0x44, 0xb7, 0x3d, 0xcc, 0x09, 0xc0, 0x3d, 0x6c, 0x3f, 0x38, 0x3d, 0x5d, 0x86, 0xbc, 0xbd, 0xf0, 0x1a, 0x61, 0xbe, 0xbe, 0xc1, 0x97, 0x3e, 0x62, 0x4a, 0x7b, 0x3e, 0x0a, 0xa8, 0x7a, 0x3d, 0xfd, 0xcd, 0xd0, 0x3d, 0x36, 0x39, 0x80, 0xbe, 0x86, 0x8b, 0x0f, 0x3c, 0x96, 0x7d, 0x6b, 0x3d, 0x46, 0x29, 0x72, 0x3e, 0x73, 0x75, 0x2b, 0xbe, 0xf4, 0x79, 0x19, 0xbe, 0x4e, 0x60, 0x1f, 0x3e, 0x89, 0x55, 0x75, 0xbe, 0xc3, 0xb0, 0x6a, 0x3e, 0x4e, 0xa5, 0xf6, 0xbd, 0xbf, 0x3c, 0x9b, 0xbd, 0x88, 0xd4, 0xe9, 0x3d, 0xd4, 0xf8, 0x68, 0xbe, 0x78, 0x57, 0x8e, 0x3c, 0xc3, 0xdd, 0x7b, 0xbe, 0x83, 0x0a, 0xef, 0x3d, 0x03, 0x9c, 0x17, 0x3d, 0x58, 0xf2, 0xb2, 0x3e, 0xa4, 0x8a, 0x40, 0x3e, 0xde, 0xc4, 0x13, 0x3d, 0xa9, 0xea, 0x1c, 0x3e, 0xc0, 0x5c, 0x0c, 0x3e, 0xc1, 0xc0, 0xa5, 0x3e, 0x0d, 0x67, 0xc8, 0x3e, 0x72, 0x09, 0x24, 0x3d, 0xf6, 0x78, 0xc7, 0xbc, 0xc0, 0xba, 0x86, 0x3e, 0x79, 0x51, 0x80, 0xbe, 0xd2, 0xfb, 0x74, 0x3c, 0x59, 0x50, 0x02, 0x3d, 0xcd, 0x13, 0x29, 0xbe, 0x4b, 0x0c, 0x2c, 0xbe, 0x13, 0x5e, 0x0c, 0xbe, 0x30, 0xfd, 0x89, 0x3e, 0x0f, 0x0e, 0x8f, 0x3c, 0x63, 0xa4, 0x9b, 0xbe, 0xa0, 0xc7, 0xbb, 0xbb, 0x56, 0x6c, 0xbd, 0xbd, 0x81, 0xfa, 0xa3, 0x3e, 0x59, 0x6c, 0xf6, 0x3c, 0x47, 0xda, 0x95, 0xbe, 0x0f, 0xc2, 0x99, 0xbe, 0x71, 0x81, 0x33, 0x3e, 0x2e, 0x50, 0x90, 0xbd, 0x77, 0xdd, 0x3f, 0x3e, 0xcf, 0x08, 0xe7, 0x3d, 0x92, 0x53, 0x66, 0x3e, 0xdb, 0x3d, 0x8e, 0x3e, 0x44, 0x59, 0x29, 0xbe, 0xa4, 0x8d, 0x1a, 0xbe, 0xbd, 0xba, 0xf5, 0x3d, 0xc7, 0xf9, 0x9d, 0xbd, 0xdc, 0xd0, 0x11, 0x3e, 0xf8, 0xb3, 0x74, 0x3e, 0xd6, 0xc9, 0x37, 0xbe, 0xf5, 0xff, 0x18, 0x3e, 0x8f, 0x28, 0x97, 0x3d, 0xa4, 0x5c, 0xb1, 0x3e, 0x3f, 0x2b, 0x45, 0x3e, 0x9a, 0x40, 0xea, 0x3d, 0xbc, 0x69, 0x88, 0xbd, 0x48, 0x9c, 0x0f, 0xbe, 0xbd, 0x06, 0x18, 0xbd, 0x8a, 0x51, 0x11, 0x3e, 0x8e, 0xa1, 0x90, 0xbd, 0x14, 0x9a, 0x02, 0xbe, 0xa0, 0x2a, 0xcd, 0xbd, 0xcc, 0x4e, 0x52, 0xbe, 0xaf, 0x22, 0xd8, 0x3d, 0x52, 0xfb, 0xc8, 0x3e, 0x05, 0xd4, 0x9c, 0x3e, 0x1e, 0xc2, 0x7c, 0x3b, 0x28, 0x20, 0x95, 0x3e, 0x1f, 0xb6, 0x9c, 0x3d, 0x5d, 0xf6, 0x98, 0x3e, 0x66, 0x29, 0x67, 0x3e, 0xa3, 0x69, 0x45, 0xbe, 0xa6, 0xa2, 0x3e, 0xbd, 0x84, 0x01, 0x6e, 0x3e, 0x01, 0xed, 0x29, 0xbe, 0xb3, 0x6b, 0x1e, 0x3e, 0x45, 0xd2, 0xfb, 0x3c, 0x34, 0x8e, 0xb8, 0x3e, 0xc9, 0x54, 0xb9, 0xbd, 0x79, 0xd1, 0xf5, 0xbd, 0x66, 0xa0, 0x8f, 0x3e, 0x39, 0x5b, 0x4f, 0x3d, 0x94, 0xe6, 0x1c, 0xbe, 0x24, 0x1b, 0xbf, 0x3d, 0x92, 0x82, 0x20, 0x3e, 0xf7, 0x4e, 0x72, 0xbe, 0x39, 0xae, 0xee, 0xbc, 0xd2, 0x6a, 0x41, 0x3c, 0x10, 0x84, 0x88, 0xbe, 0x58, 0x8d, 0x85, 0x3e, 0x64, 0x24, 0x72, 0x3d, 0x1e, 0x54, 0x24, 0x3e, 0x33, 0xec, 0xba, 0xbd, 0x24, 0x14, 0x83, 0x3e, 0x27, 0xd4, 0x8d, 0x3d, 0x61, 0x83, 0x9c, 0x3e, 0x5b, 0x10, 0xab, 0x3d, 0xd8, 0xe6, 0x6a, 0xbd, 0x87, 0x8f, 0x4c, 0xbd, 0xed, 0x65, 0x9c, 0x3e, 0x8b, 0xa2, 0x84, 0x3d, 0x2b, 0x1a, 0xf1, 0xbd, 0x2f, 0xad, 0xff, 0xbd, 0x82, 0x87, 0xba, 0x3e, 0x73, 0x45, 0x14, 0xbe, 0xb5, 0x8f, 0x1f, 0xbc, 0x98, 0x38, 0x1d, 0xbe, 0x9e, 0xfa, 0x94, 0x3e, 0x31, 0x75, 0x04, 0xbd, 0x8d, 0x03, 0x3d, 0x3e, 0x19, 0xaf, 0x1d, 0xbe, 0x5b, 0x4d, 0x2e, 0xbd, 0xe2, 0x58, 0xc9, 0x3d, 0x41, 0x63, 0x21, 0xbd, 0x7a, 0x34, 0x63, 0x3e, 0x5e, 0xd4, 0xb2, 0xbd, 0x90, 0xf7, 0x16, 0xbe, 0x94, 0x0e, 0x7a, 0xbd, 0x76, 0xb9, 0x35, 0xbe, 0x73, 0x5a, 0x94, 0x3e, 0xbe, 0xa2, 0x5a, 0x3e, 0x41, 0x31, 0x5c, 0x3e, 0x7e, 0x2d, 0xdf, 0x3d, 0x68, 0xdf, 0x2c, 0x3d, 0x97, 0x7e, 0x91, 0x3e, 0x5c, 0xf8, 0x5f, 0x3e, 0x5e, 0x21, 0x28, 0xbe, 0x2d, 0x19, 0x77, 0xbe, 0x44, 0x61, 0x83, 0xbd, 0xd2, 0x05, 0x44, 0xbe, 0x84, 0x72, 0x17, 0x3e, 0x03, 0xbd, 0x38, 0xbe, 0xeb, 0xba, 0xec, 0x3d, 0x26, 0xfa, 0x02, 0xbe, 0x61, 0xd8, 0x04, 0xbe, 0xed, 0x36, 0xb4, 0x3e, 0x87, 0xf3, 0x0d, 0x3e, 0xf2, 0x47, 0x06, 0x3e, 0xa2, 0x8c, 0xd1, 0xbd, 0xa7, 0xce, 0x89, 0x3e, 0x14, 0xeb, 0x19, 0xbe, 0xdd, 0xec, 0xfe, 0x3b, 0x68, 0x14, 0xfe, 0xbd, 0xef, 0xcc, 0xa5, 0xbd, 0xfb, 0xd4, 0xd8, 0xbc, 0x63, 0x5c, 0x73, 0x3e, 0x6a, 0xe9, 0xff, 0x3d, 0x71, 0xb7, 0xd9, 0xbd, 0x77, 0x6b, 0xca, 0xbd, 0x94, 0xcc, 0x77, 0xbe, 0x9c, 0x71, 0xf4, 0x3d, 0x31, 0x3e, 0x50, 0xbd, 0xb0, 0x9c, 0x1c, 0x3e, 0x81, 0xf8, 0x0e, 0x3e, 0x47, 0xc0, 0x27, 0x3d, 0x5d, 0x8e, 0x20, 0x3e, 0xef, 0x4c, 0xee, 0xbd, 0xa6, 0xc7, 0x95, 0x3e, 0x5d, 0xc8, 0x27, 0xbe, 0xd2, 0xf8, 0x81, 0x3d, 0x35, 0x4b, 0x98, 0x3d, 0xc4, 0xb9, 0xad, 0x3e, 0x25, 0x5c, 0x9f, 0x3e, 0x5c, 0xa2, 0x68, 0x3e, 0x25, 0x0d, 0x4e, 0x3e, 0xcd, 0x5b, 0x83, 0x3e, 0xca, 0x7f, 0xdb, 0x3d, 0x9d, 0xee, 0x3e, 0x3c, 0xd0, 0xfc, 0x0d, 0x3c, 0xf6, 0x5b, 0x52, 0xbe, 0x99, 0x23, 0xd1, 0x3d, 0xaf, 0x01, 0x8f, 0x3c, 0x4c, 0xfd, 0x37, 0xbe, 0x26, 0x87, 0x2b, 0x3e, 0x3b, 0x51, 0x25, 0xbe, 0xa2, 0x3a, 0xb0, 0x3e, 0x44, 0x2c, 0x52, 0xbd, 0xd8, 0x11, 0x73, 0x3e, 0xa1, 0x15, 0xae, 0xbe, 0x4c, 0xba, 0xad, 0x3e, 0x47, 0x99, 0x4b, 0x3e, 0xfc, 0x4e, 0xa3, 0x3e, 0x82, 0x26, 0x98, 0x3d, 0x44, 0xfe, 0xaa, 0x3d, 0xd7, 0xb8, 0xb3, 0x3d, 0x53, 0xdf, 0x51, 0x3e, 0xb3, 0xda, 0x4e, 0xbe, 0xa4, 0xe3, 0x2d, 0x3e, 0x25, 0xb0, 0x72, 0x3e, 0xd4, 0xdc, 0xb6, 0xbc, 0x39, 0x1e, 0x30, 0xbe, 0xf9, 0xed, 0xa5, 0x3e, 0xe8, 0x0b, 0x2b, 0x3d, 0x9e, 0x33, 0xc2, 0xbd, 0x72, 0x03, 0x1b, 0x3e, 0x9b, 0x78, 0x04, 0x3e, 0x9a, 0x41, 0x09, 0xbd, 0x43, 0xf6, 0x5e, 0xbd, 0xa7, 0x3a, 0x8c, 0x3e, 0xf7, 0x9a, 0x9f, 0x3c, 0xcf, 0xfc, 0xa7, 0x3e, 0x42, 0x15, 0xa6, 0x3e, 0xcf, 0x18, 0xa0, 0xbd, 0x90, 0x19, 0x9e, 0x3e, 0x33, 0xf8, 0x3c, 0xbe, 0xc2, 0x45, 0xad, 0x3d, 0x52, 0xf2, 0x53, 0x3e, 0xdd, 0xa1, 0x11, 0x3e, 0x77, 0x7d, 0x3d, 0xbe, 0xe1, 0x6b, 0x72, 0x3e, 0xef, 0x5c, 0x60, 0xbd, 0x45, 0xfe, 0x52, 0xbe, 0x83, 0x89, 0xa8, 0xbc, 0x04, 0xc5, 0xad, 0x3d, 0x2e, 0x83, 0x2c, 0x3d, 0xd1, 0xb2, 0x6e, 0xbc, 0xa4, 0xcd, 0xc6, 0x3d, 0x54, 0x76, 0x28, 0x3e, 0x56, 0x68, 0x5d, 0x3e, 0xbe, 0x36, 0x06, 0xbc, 0x1c, 0x2c, 0x91, 0xbe, 0xba, 0x71, 0x82, 0xbd, 0xc3, 0x38, 0x4c, 0xbe, 0x97, 0xc3, 0x99, 0xbd, 0x16, 0xb3, 0x34, 0x3e, 0xd3, 0xcb, 0xcd, 0xbd, 0x90, 0x94, 0x4f, 0x3e, 0x5e, 0xdc, 0x44, 0xbe, 0x10, 0x53, 0xd8, 0xbd, 0xdf, 0xad, 0x3c, 0xbd, 0x1b, 0x86, 0x55, 0x3e, 0xe5, 0x2d, 0x96, 0x3e, 0x32, 0xdd, 0x45, 0xbe, 0x5c, 0x65, 0x2e, 0xbd, 0xc5, 0x1d, 0x0f, 0x3e, 0x98, 0xe5, 0x81, 0x3e, 0xa5, 0x57, 0x0f, 0xbd, 0x2e, 0x55, 0xba, 0xbd, 0x15, 0xec, 0x51, 0xbe, 0x98, 0x38, 0xaf, 0xbe, 0xe8, 0x68, 0x1f, 0xbe, 0xc0, 0x0e, 0x55, 0xbd, 0x66, 0xf9, 0xd2, 0x3d, 0xd6, 0x1f, 0xea, 0x3d, 0x05, 0xc6, 0x81, 0xbe, 0xce, 0xa4, 0x56, 0x3e, 0xc7, 0xe8, 0x36, 0xbd, 0x4e, 0x34, 0x5b, 0x3e, 0x96, 0xa7, 0x8c, 0xbe, 0x60, 0xb4, 0x53, 0x3d, 0x49, 0xbb, 0xe9, 0xbb, 0xeb, 0xed, 0xd5, 0x3c, 0x46, 0x89, 0x23, 0x3d, 0x65, 0x00, 0x68, 0x3e, 0xad, 0x3e, 0xd2, 0x3c, 0x72, 0xd3, 0x64, 0xbe, 0xc2, 0xbb, 0x52, 0xbe, 0x58, 0xaf, 0x2a, 0x3e, 0xd9, 0xb2, 0x9b, 0xbc, 0xb5, 0xd0, 0x63, 0xbd, 0x50, 0x1a, 0xca, 0xbd, 0xce, 0x0d, 0x3c, 0xbd, 0x17, 0xc2, 0x46, 0x3d, 0x2d, 0x39, 0x8b, 0x3e, 0x1b, 0x64, 0x70, 0xbe, 0xd9, 0x41, 0x83, 0x3e, 0x35, 0x39, 0x4f, 0x3e, 0x91, 0xc1, 0xaf, 0x3d, 0x85, 0xd0, 0xe9, 0x3d, 0x2f, 0x0b, 0x42, 0xbe, 0x08, 0x2d, 0x51, 0x3d, 0x2b, 0x6e, 0xf9, 0x3d, 0x50, 0x41, 0x9d, 0x3e, 0xfc, 0x6d, 0x45, 0xbd, 0x49, 0x5f, 0xe2, 0x3d, 0xf5, 0x98, 0x55, 0xbe, 0xb9, 0xb9, 0xdc, 0x3c, 0xf2, 0xd8, 0xac, 0xbe, 0xae, 0x78, 0xd3, 0xbb, 0xea, 0x8b, 0x58, 0xbd, 0xa0, 0x9f, 0x0c, 0xbe, 0x90, 0xc7, 0x40, 0x3e, 0x34, 0x91, 0x8a, 0xbd, 0x49, 0xb5, 0x6c, 0x3e, 0xb5, 0x36, 0x21, 0xbe, 0xa7, 0x53, 0xdd, 0xbd, 0x99, 0xcd, 0xa4, 0x3e, 0x50, 0x1e, 0x85, 0x3c, 0x47, 0xe4, 0x8e, 0xbe, 0x02, 0xcf, 0x79, 0x3d, 0xd8, 0xfe, 0xb7, 0x3e, 0x92, 0x0d, 0xb8, 0x3e, 0x98, 0x7c, 0x8d, 0x3e, 0x4f, 0x6a, 0xf8, 0xbd, 0x9c, 0xc4, 0x90, 0x3e, 0x7d, 0xb5, 0x27, 0x3e, 0xcc, 0x4c, 0xb3, 0x3d, 0x94, 0x57, 0x17, 0x3e, 0x82, 0x50, 0x8d, 0xbe, 0x67, 0xc3, 0x23, 0xbe, 0x35, 0xd2, 0x16, 0xbd, 0xfb, 0x67, 0xd0, 0x3e, 0xae, 0xff, 0x57, 0x3e, 0x9b, 0x29, 0xcf, 0x3e, 0xe7, 0xbc, 0x7c, 0xbe, 0xe9, 0x10, 0x8d, 0x3e, 0xa1, 0x2f, 0xac, 0xbd, 0xb0, 0x23, 0x04, 0x3e, 0xec, 0x84, 0x37, 0x3e, 0x6b, 0x34, 0xd0, 0x3e, 0x8d, 0x0d, 0xd5, 0x3d, 0x27, 0x6b, 0x75, 0x3e, 0x1f, 0x8b, 0x20, 0xbd, 0x2b, 0xbf, 0x4f, 0xbe, 0x72, 0x27, 0x06, 0x3e, 0x02, 0xf0, 0x45, 0x3d, 0x64, 0x40, 0x07, 0x3e, 0x2e, 0x5f, 0x2a, 0xbe, 0x8d, 0x00, 0x8b, 0xbd, 0x7b, 0xfb, 0x3b, 0x3e, 0xfb, 0xdb, 0x53, 0xbd, 0x91, 0xd9, 0x0b, 0xbd, 0x58, 0x75, 0x96, 0x3e, 0x0f, 0x62, 0xe2, 0x3e, 0x48, 0x61, 0xfc, 0xbc, 0xee, 0xd4, 0x6d, 0x3d, 0xcc, 0xd4, 0x82, 0x3a, 0x53, 0x9b, 0x43, 0x3e, 0xc8, 0x70, 0xad, 0x3e, 0x1c, 0xc5, 0x7d, 0xbd, 0x37, 0x43, 0xde, 0x3d, 0x26, 0x6f, 0x97, 0xbe, 0x9a, 0xc4, 0x81, 0xbe, 0xb6, 0x8c, 0x3c, 0x3d, 0x60, 0x53, 0x07, 0xbe, 0x6a, 0xc9, 0xf6, 0x3c, 0x12, 0x6e, 0x68, 0x3e, 0x89, 0xe2, 0xa9, 0xbd, 0xaa, 0xad, 0x7f, 0x3c, 0x89, 0xfd, 0x0b, 0x3e, 0x20, 0xcb, 0x10, 0x3d, 0xab, 0x9e, 0xac, 0x3d, 0x21, 0xb2, 0x62, 0xbe, 0xef, 0xb8, 0x04, 0x3e, 0x7f, 0x1e, 0x3e, 0x3e, 0xae, 0xb6, 0x24, 0x3e, 0x7c, 0xd1, 0x99, 0xbd, 0xeb, 0xe3, 0x64, 0x3d, 0x32, 0x76, 0x1e, 0xbe, 0x39, 0x96, 0x43, 0x3d, 0x64, 0x09, 0x83, 0xbe, 0xa8, 0x44, 0x90, 0xbd, 0xd0, 0xcb, 0xf5, 0xbc, 0x91, 0x7e, 0x3c, 0x3e, 0x9b, 0xe2, 0xaa, 0xbd, 0x8f, 0x1d, 0xa1, 0x3d, 0x8b, 0x32, 0xfd, 0xba, 0xbf, 0x35, 0x0d, 0x3c, 0x19, 0x6a, 0x5f, 0x3e, 0x67, 0x3a, 0x27, 0x3e, 0x5e, 0x47, 0x26, 0xbe, 0x49, 0xbf, 0x41, 0x3e, 0x91, 0x50, 0x52, 0xbd, 0xd1, 0xd7, 0xb1, 0x3b, 0x45, 0x1d, 0xbc, 0x3c, 0x48, 0x32, 0xad, 0x3e, 0x01, 0x0d, 0xa5, 0x3d, 0x4a, 0x04, 0xc0, 0x3e, 0xb0, 0x8a, 0x88, 0xbd, 0x1d, 0xc0, 0x69, 0xbd, 0x8f, 0x9d, 0x14, 0x3e, 0x40, 0xdb, 0x86, 0x3d, 0xbe, 0xbe, 0x88, 0xbe, 0xb9, 0x59, 0x2c, 0x3e, 0x1e, 0x26, 0x1e, 0xbe, 0xbd, 0x2d, 0x79, 0xbe, 0x25, 0x05, 0x53, 0x3e, 0x97, 0xd1, 0x8e, 0x3e, 0x77, 0xf0, 0x1f, 0x3e, 0xa9, 0x40, 0xab, 0x3d, 0xed, 0xc7, 0xbc, 0xbd, 0xa9, 0x8d, 0x59, 0x3e, 0xd2, 0xaf, 0x09, 0x3e, 0x0b, 0x2d, 0x18, 0xbe, 0x80, 0x47, 0x6f, 0x3d, 0x43, 0xf5, 0x5c, 0xbe, 0x61, 0x95, 0x3e, 0xbe, 0xe4, 0x81, 0x4e, 0x3d, 0xa8, 0x9b, 0x6a, 0x3b, 0xf0, 0x29, 0x80, 0xbe, 0x67, 0xb0, 0x86, 0xbe, 0x65, 0xc3, 0x14, 0xbe, 0x20, 0xc7, 0x4a, 0x3e, 0x56, 0x3a, 0x55, 0x3e, 0xe2, 0x57, 0x0d, 0xbc, 0x66, 0xfe, 0xff, 0xff, 0x04, 0x00, 0x00, 0x00, 0x00, 0x01, 0x00, 0x00, 0x87, 0x40, 0xc6, 0x3e, 0x56, 0x4c, 0x03, 0x3f, 0x83, 0x2d, 0xbc, 0x3d, 0x32, 0x75, 0x7a, 0xbe, 0xc6, 0xa0, 0x47, 0x3e, 0x71, 0x5d, 0x8d, 0x3d, 0x58, 0x10, 0x31, 0x3d, 0xa3, 0xeb, 0x2e, 0xbe, 0xb0, 0x0f, 0x94, 0x3e, 0xbb, 0x3c, 0xfc, 0x3e, 0x65, 0x62, 0x15, 0xbf, 0x97, 0xcc, 0x02, 0x3f, 0x9d, 0xcd, 0xbd, 0xbe, 0xb6, 0xa8, 0x02, 0xbf, 0x24, 0x4f, 0x8a, 0xbe, 0x5d, 0x39, 0x14, 0x3f, 0x33, 0x42, 0x1f, 0xbd, 0x9c, 0xf6, 0x56, 0xbe, 0xb4, 0xcd, 0x3e, 0xbe, 0x07, 0x94, 0xac, 0x3e, 0xd4, 0x09, 0x2d, 0xbf, 0x8e, 0x47, 0x2d, 0x3d, 0xe6, 0x6e, 0xe2, 0x3d, 0x09, 0x39, 0xe2, 0xbe, 0x8e, 0x74, 0x12, 0xbf, 0x08, 0xc7, 0xa7, 0x3e, 0xd8, 0x20, 0xa7, 0x3e, 0x06, 0x22, 0xa2, 0x3e, 0x52, 0x41, 0xf1, 0xbc, 0x95, 0x89, 0x49, 0x3e, 0xbf, 0xfe, 0xc4, 0xbe, 0x0c, 0x63, 0x16, 0xbf, 0xc4, 0x13, 0x07, 0x3f, 0x0b, 0x5e, 0xb7, 0xbe, 0x49, 0x9e, 0xc1, 0xbe, 0xea, 0xa1, 0x11, 0xbf, 0x3f, 0x04, 0x2d, 0x3e, 0xcb, 0xc0, 0xab, 0x3e, 0xea, 0xf2, 0x13, 0xbe, 0xcf, 0xfb, 0x36, 0xbd, 0x20, 0x3b, 0xb0, 0xbe, 0xaf, 0x20, 0xbb, 0xbd, 0xde, 0x8c, 0xac, 0x3e, 0x13, 0x47, 0x21, 0xbf, 0xf3, 0xda, 0x0b, 0xbf, 0x5a, 0x49, 0xe3, 0xbe, 0x55, 0xc6, 0x38, 0xbf, 0xb9, 0x0e, 0x07, 0xbe, 0x7a, 0xf1, 0x2e, 0xbe, 0xb6, 0x22, 0x97, 0xbe, 0xed, 0x35, 0x4c, 0xbe, 0x53, 0x3f, 0x27, 0xbf, 0x6e, 0x51, 0x05, 0x3e, 0x8d, 0x1d, 0x1c, 0x3e, 0xc7, 0xe9, 0xbf, 0xbe, 0x8f, 0x17, 0x15, 0xbf, 0x95, 0xf7, 0x83, 0xbe, 0xd2, 0x19, 0xcc, 0x3e, 0xfc, 0x9e, 0x51, 0x3e, 0x50, 0xb9, 0x0d, 0xbf, 0xd1, 0xf2, 0x6f, 0x3d, 0x53, 0x77, 0x76, 0xbc, 0x38, 0xfd, 0x8d, 0xbe, 0xe2, 0xdf, 0xa5, 0x3e, 0x90, 0xf8, 0xff, 0xff, 0x94, 0xf8, 0xff, 0xff, 0x0f, 0x00, 0x00, 0x00, 0x4d, 0x4c, 0x49, 0x52, 0x20, 0x43, 0x6f, 0x6e, 0x76, 0x65, 0x72, 0x74, 0x65, 0x64, 0x2e, 0x00, 0x01, 0x00, 0x00, 0x00, 0x14, 0x00, 0x00, 0x00, 0x00, 0x00, 0x0e, 0x00, 0x18, 0x00, 0x14, 0x00, 0x10, 0x00, 0x0c, 0x00, 0x08, 0x00, 0x04, 0x00, 0x0e, 0x00, 0x00, 0x00, 0x14, 0x00, 0x00, 0x00, 0x1c, 0x00, 0x00, 0x00, 0x94, 0x01, 0x00, 0x00, 0x98, 0x01, 0x00, 0x00, 0x9c, 0x01, 0x00, 0x00, 0x04, 0x00, 0x00, 0x00, 0x6d, 0x61, 0x69, 0x6e, 0x00, 0x00, 0x00, 0x00, 0x06, 0x00, 0x00, 0x00, 0x4c, 0x01, 0x00, 0x00, 0x08, 0x01, 0x00, 0x00, 0xb4, 0x00, 0x00, 0x00, 0x78, 0x00, 0x00, 0x00, 0x40, 0x00, 0x00, 0x00, 0x04, 0x00, 0x00, 0x00, 0x1a, 0xff, 0xff, 0xff, 0x1c, 0x00, 0x00, 0x00, 0x00, 0x00, 0x00, 0x09, 0x1c, 0x00, 0x00, 0x00, 0x20, 0x00, 0x00, 0x00, 0x03, 0x00, 0x00, 0x00, 0x00, 0x00, 0x06, 0x00, 0x08, 0x00, 0x04, 0x00, 0x06, 0x00, 0x00, 0x00, 0x00, 0x00, 0x80, 0x3f, 0x01, 0x00, 0x00, 0x00, 0x0e, 0x00, 0x00, 0x00, 0x01, 0x00, 0x00, 0x00, 0x0d, 0x00, 0x00, 0x00, 0x52, 0xff, 0xff, 0xff, 0x14, 0x00, 0x00, 0x00, 0x00, 0x00, 0x00, 0x08, 0x10, 0x00, 0x00, 0x00, 0x14, 0x00, 0x00, 0x00, 0x02, 0x00, 0x00, 0x00, 0x54, 0xf9, 0xff, 0xff, 0x01, 0x00, 0x00, 0x00, 0x0d, 0x00, 0x00, 0x00, 0x03, 0x00, 0x00, 0x00, 0x0c, 0x00, 0x00, 0x00, 0x01, 0x00, 0x00, 0x00, 0x08, 0x00, 0x00, 0x00, 0x86, 0xff, 0xff, 0xff, 0x14, 0x00, 0x00, 0x00, 0x00, 0x00, 0x00, 0x08, 0x14, 0x00, 0x00, 0x00, 0x18, 0x00, 0x00, 0x00, 0x02, 0x00, 0x00, 0x00, 0xc6, 0xff, 0xff, 0xff, 0x00, 0x00, 0x00, 0x01, 0x01, 0x00, 0x00, 0x00, 0x0c, 0x00, 0x00, 0x00, 0x03, 0x00, 0x00, 0x00, 0x0b, 0x00, 0x00, 0x00, 0x02, 0x00, 0x00, 0x00, 0x06, 0x00, 0x00, 0x00, 0xbe, 0xff, 0xff, 0xff, 0x1c, 0x00, 0x00, 0x00, 0x00, 0x00, 0x00, 0x08, 0x1c, 0x00, 0x00, 0x00, 0x20, 0x00, 0x00, 0x00, 0x02, 0x00, 0x00, 0x00, 0x00, 0x00, 0x06, 0x00, 0x08, 0x00, 0x07, 0x00, 0x06, 0x00, 0x00, 0x00, 0x00, 0x00, 0x00, 0x01, 0x01, 0x00, 0x00, 0x00, 0x0b, 0x00, 0x00, 0x00, 0x03, 0x00, 0x00, 0x00, 0x0a, 0x00, 0x00, 0x00, 0x03, 0x00, 0x00, 0x00, 0x07, 0x00, 0x00, 0x00, 0x00, 0x00, 0x0e, 0x00, 0x18, 0x00, 0x14, 0x00, 0x10, 0x00, 0x0c, 0x00, 0x0b, 0x00, 0x04, 0x00, 0x0e, 0x00, 0x00, 0x00, 0x14, 0x00, 0x00, 0x00, 0x00, 0x00, 0x00, 0x15, 0x10, 0x00, 0x00, 0x00, 0x14, 0x00, 0x00, 0x00, 0x01, 0x00, 0x00, 0x00, 0x10, 0xfa, 0xff, 0xff, 0x01, 0x00, 0x00, 0x00, 0x0a, 0x00, 0x00, 0x00, 0x02, 0x00, 0x00, 0x00, 0x09, 0x00, 0x00, 0x00, 0x04, 0x00, 0x00, 0x00, 0x00, 0x00, 0x0e, 0x00, 0x14, 0x00, 0x00, 0x00, 0x10, 0x00, 0x0c, 0x00, 0x0b, 0x00, 0x04, 0x00, 0x0e, 0x00, 0x00, 0x00, 0x10, 0x00, 0x00, 0x00, 0x00, 0x00, 0x00, 0x1c, 0x0c, 0x00, 0x00, 0x00, 0x10, 0x00, 0x00, 0x00, 0x4c, 0xfa, 0xff, 0xff, 0x01, 0x00, 0x00, 0x00, 0x09, 0x00, 0x00, 0x00, 0x02, 0x00, 0x00, 0x00, 0x00, 0x00, 0x00, 0x00, 0x05, 0x00, 0x00, 0x00, 0x01, 0x00, 0x00, 0x00, 0x0e, 0x00, 0x00, 0x00, 0x01, 0x00, 0x00, 0x00, 0x00, 0x00, 0x00, 0x00, 0x0f, 0x00, 0x00, 0x00, 0x60, 0x05, 0x00, 0x00, 0x08, 0x05, 0x00, 0x00, 0xb0, 0x04, 0x00, 0x00, 0x70, 0x04, 0x00, 0x00, 0x30, 0x04, 0x00, 0x00, 0xf8, 0x03, 0x00, 0x00, 0xa0, 0x03, 0x00, 0x00, 0x4c, 0x03, 0x00, 0x00, 0xf4, 0x02, 0x00, 0x00, 0x90, 0x02, 0x00, 0x00, 0x04, 0x02, 0x00, 0x00, 0x74, 0x01, 0x00, 0x00, 0xdc, 0x00, 0x00, 0x00, 0x60, 0x00, 0x00, 0x00, 0x04, 0x00, 0x00, 0x00, 0xf2, 0xfa, 0xff, 0xff, 0x00, 0x00, 0x00, 0x01, 0x14, 0x00, 0x00, 0x00, 0x1c, 0x00, 0x00, 0x00, 0x1c, 0x00, 0x00, 0x00, 0x0f, 0x00, 0x00, 0x00, 0x34, 0x00, 0x00, 0x00, 0x02, 0x00, 0x00, 0x00, 0xff, 0xff, 0xff, 0xff, 0x04, 0x00, 0x00, 0x00, 0xdc, 0xfa, 0xff, 0xff, 0x1b, 0x00, 0x00, 0x00, 0x53, 0x74, 0x61, 0x74, 0x65, 0x66, 0x75, 0x6c, 0x50, 0x61, 0x72, 0x74, 0x69, 0x74, 0x69, 0x6f, 0x6e, 0x65, 0x64, 0x43, 0x61, 0x6c, 0x6c, 0x5f, 0x31, 0x3a, 0x30, 0x00, 0x02, 0x00, 0x00, 0x00, 0x01, 0x00, 0x00, 0x00, 0x04, 0x00, 0x00, 0x00, 0x4a, 0xfb, 0xff, 0xff, 0x00, 0x00, 0x00, 0x01, 0x14, 0x00, 0x00, 0x00, 0x1c, 0x00, 0x00, 0x00, 0x1c, 0x00, 0x00, 0x00, 0x0e, 0x00, 0x00, 0x00, 0x54, 0x00, 0x00, 0x00, 0x02, 0x00, 0x00, 0x00, 0xff, 0xff, 0xff, 0xff, 0x04, 0x00, 0x00, 0x00, 0x34, 0xfb, 0xff, 0xff, 0x38, 0x00, 0x00, 0x00, 0x73, 0x65, 0x71, 0x75, 0x65, 0x6e, 0x74, 0x69, 0x61, 0x6c, 0x5f, 0x31, 0x2f, 0x64, 0x65, 0x6e, 0x73, 0x65, 0x5f, 0x32, 0x5f, 0x31, 0x2f, 0x4d, 0x61, 0x74, 0x4d, 0x75, 0x6c, 0x3b, 0x73, 0x65, 0x71, 0x75, 0x65, 0x6e, 0x74, 0x69, 0x61, 0x6c, 0x5f, 0x31, 0x2f, 0x64, 0x65, 0x6e, 0x73, 0x65, 0x5f, 0x32, 0x5f, 0x31, 0x2f, 0x41, 0x64, 0x64, 0x00, 0x00, 0x00, 0x00, 0x02, 0x00, 0x00, 0x00, 0x01, 0x00, 0x00, 0x00, 0x04, 0x00, 0x00, 0x00, 0xc2, 0xfb, 0xff, 0xff, 0x00, 0x00, 0x00, 0x01, 0x14, 0x00, 0x00, 0x00, 0x1c, 0x00, 0x00, 0x00, 0x1c, 0x00, 0x00, 0x00, 0x0d, 0x00, 0x00, 0x00, 0x70, 0x00, 0x00, 0x00, 0x02, 0x00, 0x00, 0x00, 0xff, 0xff, 0xff, 0xff, 0x10, 0x00, 0x00, 0x00, 0xac, 0xfb, 0xff, 0xff, 0x54, 0x00, 0x00, 0x00, 0x73, 0x65, 0x71, 0x75, 0x65, 0x6e, 0x74, 0x69, 0x61, 0x6c, 0x5f, 0x31, 0x2f, 0x64, 0x65, 0x6e, 0x73, 0x65, 0x5f, 0x31, 0x5f, 0x32, 0x2f, 0x4d, 0x61, 0x74, 0x4d, 0x75, 0x6c, 0x3b, 0x73, 0x65, 0x71, 0x75, 0x65, 0x6e, 0x74, 0x69, 0x61, 0x6c, 0x5f, 0x31, 0x2f, 0x64, 0x65, 0x6e, 0x73, 0x65, 0x5f, 0x31, 0x5f, 0x32, 0x2f, 0x52, 0x65, 0x6c, 0x75, 0x3b, 0x73, 0x65, 0x71, 0x75, 0x65, 0x6e, 0x74, 0x69, 0x61, 0x6c, 0x5f, 0x31, 0x2f, 0x64, 0x65, 0x6e, 0x73, 0x65, 0x5f, 0x31, 0x5f, 0x32, 0x2f, 0x41, 0x64, 0x64, 0x00, 0x00, 0x00, 0x00, 0x02, 0x00, 0x00, 0x00, 0x01, 0x00, 0x00, 0x00, 0x10, 0x00, 0x00, 0x00, 0x56, 0xfc, 0xff, 0xff, 0x00, 0x00, 0x00, 0x01, 0x14, 0x00, 0x00, 0x00, 0x1c, 0x00, 0x00, 0x00, 0x1c, 0x00, 0x00, 0x00, 0x0c, 0x00, 0x00, 0x00, 0x68, 0x00, 0x00, 0x00, 0x02, 0x00, 0x00, 0x00, 0xff, 0xff, 0xff, 0xff, 0x40, 0x00, 0x00, 0x00, 0x40, 0xfc, 0xff, 0xff, 0x4e, 0x00, 0x00, 0x00, 0x73, 0x65, 0x71, 0x75, 0x65, 0x6e, 0x74, 0x69, 0x61, 0x6c, 0x5f, 0x31, 0x2f, 0x64, 0x65, 0x6e, 0x73, 0x65, 0x5f, 0x31, 0x2f, 0x4d, 0x61, 0x74, 0x4d, 0x75, 0x6c, 0x3b, 0x73, 0x65, 0x71, 0x75, 0x65, 0x6e, 0x74, 0x69, 0x61, 0x6c, 0x5f, 0x31, 0x2f, 0x64, 0x65, 0x6e, 0x73, 0x65, 0x5f, 0x31, 0x2f, 0x52, 0x65, 0x6c, 0x75, 0x3b, 0x73, 0x65, 0x71, 0x75, 0x65, 0x6e, 0x74, 0x69, 0x61, 0x6c, 0x5f, 0x31, 0x2f, 0x64, 0x65, 0x6e, 0x73, 0x65, 0x5f, 0x31, 0x2f, 0x41, 0x64, 0x64, 0x00, 0x00, 0x02, 0x00, 0x00, 0x00, 0x01, 0x00, 0x00, 0x00, 0x40, 0x00, 0x00, 0x00, 0xe2, 0xfc, 0xff, 0xff, 0x00, 0x00, 0x00, 0x01, 0x14, 0x00, 0x00, 0x00, 0x1c, 0x00, 0x00, 0x00, 0x1c, 0x00, 0x00, 0x00, 0x0b, 0x00, 0x00, 0x00, 0x64, 0x00, 0x00, 0x00, 0x02, 0x00, 0x00, 0x00, 0xff, 0xff, 0xff, 0xff, 0x05, 0x00, 0x00, 0x00, 0xcc, 0xfc, 0xff, 0xff, 0x49, 0x00, 0x00, 0x00, 0x73, 0x65, 0x71, 0x75, 0x65, 0x6e, 0x74, 0x69, 0x61, 0x6c, 0x5f, 0x31, 0x2f, 0x6e, 0x6f, 0x72, 0x6d, 0x61, 0x6c, 0x69, 0x7a, 0x61, 0x74, 0x69, 0x6f, 0x6e, 0x5f, 0x31, 0x2f, 0x74, 0x72, 0x75, 0x65, 0x64, 0x69, 0x76, 0x3b, 0x73, 0x65, 0x71, 0x75, 0x65, 0x6e, 0x74, 0x69, 0x61, 0x6c, 0x5f, 0x31, 0x2f, 0x6e, 0x6f, 0x72, 0x6d, 0x61, 0x6c, 0x69, 0x7a, 0x61, 0x74, 0x69, 0x6f, 0x6e, 0x5f, 0x31, 0x2f, 0x4d, 0x61, 0x78, 0x69, 0x6d, 0x75, 0x6d, 0x00, 0x00, 0x00, 0x02, 0x00, 0x00, 0x00, 0x01, 0x00, 0x00, 0x00, 0x05, 0x00, 0x00, 0x00, 0x6a, 0xfd, 0xff, 0xff, 0x00, 0x00, 0x00, 0x01, 0x14, 0x00, 0x00, 0x00, 0x1c, 0x00, 0x00, 0x00, 0x1c, 0x00, 0x00, 0x00, 0x0a, 0x00, 0x00, 0x00, 0x3c, 0x00, 0x00, 0x00, 0x02, 0x00, 0x00, 0x00, 0xff, 0xff, 0xff, 0xff, 0x05, 0x00, 0x00, 0x00, 0x54, 0xfd, 0xff, 0xff, 0x20, 0x00, 0x00, 0x00, 0x73, 0x65, 0x71, 0x75, 0x65, 0x6e, 0x74, 0x69, 0x61, 0x6c, 0x5f, 0x31, 0x2f, 0x6e, 0x6f, 0x72, 0x6d, 0x61, 0x6c, 0x69, 0x7a, 0x61, 0x74, 0x69, 0x6f, 0x6e, 0x5f, 0x31, 0x2f, 0x53, 0x75, 0x62, 0x00, 0x00, 0x00, 0x00, 0x02, 0x00, 0x00, 0x00, 0x01, 0x00, 0x00, 0x00, 0x05, 0x00, 0x00, 0x00, 0x1e, 0xfe, 0xff, 0xff, 0x00, 0x00, 0x00, 0x01, 0x10, 0x00, 0x00, 0x00, 0x10, 0x00, 0x00, 0x00, 0x09, 0x00, 0x00, 0x00, 0x38, 0x00, 0x00, 0x00, 0xa4, 0xfd, 0xff, 0xff, 0x29, 0x00, 0x00, 0x00, 0x73, 0x65, 0x71, 0x75, 0x65, 0x6e, 0x74, 0x69, 0x61, 0x6c, 0x5f, 0x31, 0x2f, 0x64, 0x65, 0x6e, 0x73, 0x65, 0x5f, 0x32, 0x5f, 0x31, 0x2f, 0x41, 0x64, 0x64, 0x2f, 0x52, 0x65, 0x61, 0x64, 0x56, 0x61, 0x72, 0x69, 0x61, 0x62, 0x6c, 0x65, 0x4f, 0x70, 0x00, 0x00, 0x00, 0x01, 0x00, 0x00, 0x00, 0x04, 0x00, 0x00, 0x00, 0x72, 0xfe, 0xff, 0xff, 0x00, 0x00, 0x00, 0x01, 0x10, 0x00, 0x00, 0x00, 0x10, 0x00, 0x00, 0x00, 0x08, 0x00, 0x00, 0x00, 0x34, 0x00, 0x00, 0x00, 0xf8, 0xfd, 0xff, 0xff, 0x27, 0x00, 0x00, 0x00, 0x73, 0x65, 0x71, 0x75, 0x65, 0x6e, 0x74, 0x69, 0x61, 0x6c, 0x5f, 0x31, 0x2f, 0x64, 0x65, 0x6e, 0x73, 0x65, 0x5f, 0x31, 0x2f, 0x41, 0x64, 0x64, 0x2f, 0x52, 0x65, 0x61, 0x64, 0x56, 0x61, 0x72, 0x69, 0x61, 0x62, 0x6c, 0x65, 0x4f, 0x70, 0x00, 0x01, 0x00, 0x00, 0x00, 0x40, 0x00, 0x00, 0x00, 0xc2, 0xfe, 0xff, 0xff, 0x00, 0x00, 0x00, 0x01, 0x10, 0x00, 0x00, 0x00, 0x10, 0x00, 0x00, 0x00, 0x07, 0x00, 0x00, 0x00, 0x38, 0x00, 0x00, 0x00, 0x48, 0xfe, 0xff, 0xff, 0x29, 0x00, 0x00, 0x00, 0x73, 0x65, 0x71, 0x75, 0x65, 0x6e, 0x74, 0x69, 0x61, 0x6c, 0x5f, 0x31, 0x2f, 0x64, 0x65, 0x6e, 0x73, 0x65, 0x5f, 0x31, 0x5f, 0x32, 0x2f, 0x41, 0x64, 0x64, 0x2f, 0x52, 0x65, 0x61, 0x64, 0x56, 0x61, 0x72, 0x69, 0x61, 0x62, 0x6c, 0x65, 0x4f, 0x70, 0x00, 0x00, 0x00, 0x01, 0x00, 0x00, 0x00, 0x10, 0x00, 0x00, 0x00, 0x16, 0xff, 0xff, 0xff, 0x00, 0x00, 0x00, 0x01, 0x10, 0x00, 0x00, 0x00, 0x10, 0x00, 0x00, 0x00, 0x06, 0x00, 0x00, 0x00, 0x14, 0x00, 0x00, 0x00, 0x9c, 0xfe, 0xff, 0xff, 0x07, 0x00, 0x00, 0x00, 0x43, 0x6f, 0x6e, 0x73, 0x74, 0x5f, 0x31, 0x00, 0x02, 0x00, 0x00, 0x00, 0x01, 0x00, 0x00, 0x00, 0x05, 0x00, 0x00, 0x00, 0x4a, 0xff, 0xff, 0xff, 0x00, 0x00, 0x00, 0x01, 0x10, 0x00, 0x00, 0x00, 0x10, 0x00, 0x00, 0x00, 0x05, 0x00, 0x00, 0x00, 0x1c, 0x00, 0x00, 0x00, 0xd0, 0xfe, 0xff, 0xff, 0x0f, 0x00, 0x00, 0x00, 0x61, 0x72, 0x69, 0x74, 0x68, 0x2e, 0x63, 0x6f, 0x6e, 0x73, 0x74, 0x61, 0x6e, 0x74, 0x33, 0x00, 0x02, 0x00, 0x00, 0x00, 0x01, 0x00, 0x00, 0x00, 0x05, 0x00, 0x00, 0x00, 0x86, 0xff, 0xff, 0xff, 0x00, 0x00, 0x00, 0x01, 0x10, 0x00, 0x00, 0x00, 0x10, 0x00, 0x00, 0x00, 0x04, 0x00, 0x00, 0x00, 0x1c, 0x00, 0x00, 0x00, 0x0c, 0xff, 0xff, 0xff, 0x0f, 0x00, 0x00, 0x00, 0x61, 0x72, 0x69, 0x74, 0x68, 0x2e, 0x63, 0x6f, 0x6e, 0x73, 0x74, 0x61, 0x6e, 0x74, 0x32, 0x00, 0x02, 0x00, 0x00, 0x00, 0x40, 0x00, 0x00, 0x00, 0x05, 0x00, 0x00, 0x00, 0xc2, 0xff, 0xff, 0xff, 0x00, 0x00, 0x00, 0x01, 0x10, 0x00, 0x00, 0x00, 0x10, 0x00, 0x00, 0x00, 0x03, 0x00, 0x00, 0x00, 0x1c, 0x00, 0x00, 0x00, 0x48, 0xff, 0xff, 0xff, 0x0f, 0x00, 0x00, 0x00, 0x61, 0x72, 0x69, 0x74, 0x68, 0x2e, 0x63, 0x6f, 0x6e, 0x73, 0x74, 0x61, 0x6e, 0x74, 0x31, 0x00, 0x02, 0x00, 0x00, 0x00, 0x10, 0x00, 0x00, 0x00, 0x40, 0x00, 0x00, 0x00, 0x00, 0x00, 0x16, 0x00, 0x18, 0x00, 0x14, 0x00, 0x00, 0x00, 0x10, 0x00, 0x0c, 0x00, 0x08, 0x00, 0x00, 0x00, 0x00, 0x00, 0x00, 0x00, 0x07, 0x00, 0x16, 0x00, 0x00, 0x00, 0x00, 0x00, 0x00, 0x01, 0x10, 0x00, 0x00, 0x00, 0x10, 0x00, 0x00, 0x00, 0x02, 0x00, 0x00, 0x00, 0x1c, 0x00, 0x00, 0x00, 0x9c, 0xff, 0xff, 0xff, 0x0e, 0x00, 0x00, 0x00, 0x61, 0x72, 0x69, 0x74, 0x68, 0x2e, 0x63, 0x6f, 0x6e, 0x73, 0x74, 0x61, 0x6e, 0x74, 0x00, 0x00, 0x02, 0x00, 0x00, 0x00, 0x04, 0x00, 0x00, 0x00, 0x10, 0x00, 0x00, 0x00, 0x00, 0x00, 0x16, 0x00, 0x1c, 0x00, 0x18, 0x00, 0x00, 0x00, 0x14, 0x00, 0x10, 0x00, 0x0c, 0x00, 0x00, 0x00, 0x00, 0x00, 0x08, 0x00, 0x07, 0x00, 0x16, 0x00, 0x00, 0x00, 0x00, 0x00, 0x00, 0x01, 0x14, 0x00, 0x00, 0x00, 0x20, 0x00, 0x00, 0x00, 0x20, 0x00, 0x00, 0x00, 0x01, 0x00, 0x00, 0x00, 0x3c, 0x00, 0x00, 0x00, 0x02, 0x00, 0x00, 0x00, 0xff, 0xff, 0xff, 0xff, 0x05, 0x00, 0x00, 0x00, 0x04, 0x00, 0x04, 0x00, 0x04, 0x00, 0x00, 0x00, 0x1e, 0x00, 0x00, 0x00, 0x73, 0x65, 0x72, 0x76, 0x69, 0x6e, 0x67, 0x5f, 0x64, 0x65, 0x66, 0x61, 0x75, 0x6c, 0x74, 0x5f, 0x6b, 0x65, 0x72, 0x61, 0x73, 0x5f, 0x74, 0x65, 0x6e, 0x73, 0x6f, 0x72, 0x3a, 0x30, 0x00, 0x00, 0x02, 0x00, 0x00, 0x00, 0x01, 0x00, 0x00, 0x00, 0x05, 0x00, 0x00, 0x00, 0x04, 0x00, 0x00, 0x00, 0x40, 0x00, 0x00, 0x00, 0x24, 0x00, 0x00, 0x00, 0x14, 0x00, 0x00, 0x00, 0x04, 0x00, 0x00, 0x00, 0xdc, 0xff, 0xff, 0xff, 0x19, 0x00, 0x00, 0x00, 0x00, 0x00, 0x00, 0x19, 0xe8, 0xff, 0xff, 0xff, 0x09, 0x00, 0x00, 0x00, 0x00, 0x00, 0x00, 0x09, 0xf4, 0xff, 0xff, 0xff, 0x12, 0x00, 0x00, 0x00, 0x00, 0x00, 0x00, 0x12, 0x0c, 0x00, 0x0c, 0x00, 0x0b, 0x00, 0x00, 0x00, 0x00, 0x00, 0x04, 0x00, 0x0c, 0x00, 0x00, 0x00, 0x29, 0x00, 0x00, 0x00, 0x00, 0x00, 0x00, 0x29
};